{
  "version": "1.0",
  "truncation": null,
  "padding": null,
  "added_tokens": [],
  "normalizer": null,
  "pre_tokenizer": {
    "type": "ByteLevel",
    "add_prefix_space": true,
    "trim_offsets": true,
    "use_regex": true
  },
  "post_processor": {
    "type": "ByteLevel",
    "add_prefix_space": true,
    "trim_offsets": true,
    "use_regex": true
  },
  "decoder": {
    "type": "ByteLevel",
    "add_prefix_space": true,
    "trim_offsets": true,
    "use_regex": true
  },
  "model": {
    "type": "BPE",
    "dropout": null,
    "unk_token": null,
    "continuing_subword_prefix": null,
    "end_of_word_suffix": null,
    "fuse_unk": false,
    "byte_fallback": false,
    "vocab": {
      "!": 0,
      "\"": 1,
      "#": 2,
      "$": 3,
      "%": 4,
      "&": 5,
      "'": 6,
      "(": 7,
      ")": 8,
      "*": 9,
      "+": 10,
      ",": 11,
      "-": 12,
      ".": 13,
      "/": 14,
      "0": 15,
      "1": 16,
      "2": 17,
      "3": 18,
      "4": 19,
      "5": 20,
      "6": 21,
      "7": 22,
      "8": 23,
      "9": 24,
      ":": 25,
      ";": 26,
      "<": 27,
      "=": 28,
      ">": 29,
      "?": 30,
      "@": 31,
      "A": 32,
      "B": 33,
      "C": 34,
      "D": 35,
      "E": 36,
      "F": 37,
      "G": 38,
      "H": 39,
      "I": 40,
      "J": 41,
      "K": 42,
      "L": 43,
      "M": 44,
      "N": 45,
      "O": 46,
      "P": 47,
      "Q": 48,
      "R": 49,
      "S": 50,
      "T": 51,
      "U": 52,
      "V": 53,
      "W": 54,
      "X": 55,
      "Y": 56,
      "Z": 57,
      "[": 58,
      "\\": 59,
      "]": 60,
      "^": 61,
      "_": 62,
      "`": 63,
      "a": 64,
      "b": 65,
      "c": 66,
      "d": 67,
      "e": 68,
      "f": 69,
      "g": 70,
      "h": 71,
      "i": 72,
      "j": 73,
      "k": 74,
      "l": 75,
      "m": 76,
      "n": 77,
      "o": 78,
      "p": 79,
      "q": 80,
      "r": 81,
      "s": 82,
      "t": 83,
      "u": 84,
      "v": 85,
      "w": 86,
      "x": 87,
      "y": 88,
      "z": 89,
      "{": 90,
      "|": 91,
      "}": 92,
      "~": 93,
      "¡": 94,
      "¢": 95,
      "£": 96,
      "¤": 97,
      "¥": 98,
      "¦": 99,
      "§": 100,
      "¨": 101,
      "©": 102,
      "ª": 103,
      "«": 104,
      "¬": 105,
      "®": 106,
      "¯": 107,
      "°": 108,
      "±": 109,
      "²": 110,
      "³": 111,
      "´": 112,
      "µ": 113,
      "¶": 114,
      "·": 115,
      "¸": 116,
      "¹": 117,
      "º": 118,
      "»": 119,
      "¼": 120,
      "½": 121,
      "¾": 122,
      "¿": 123,
      "À": 124,
      "Á": 125,
      "Â": 126,
      "Ã": 127,
      "Ä": 128,
      "Å": 129,
      "Æ": 130,
      "Ç": 131,
      "È": 132,
      "É": 133,
      "Ê": 134,
      "Ë": 135,
      "Ì": 136,
      "Í": 137,
      "Î": 138,
      "Ï": 139,
      "Ð": 140,
      "Ñ": 141,
      "Ò": 142,
      "Ó": 143,
      "Ô": 144,
      "Õ": 145,
      "Ö": 146,
      "×": 147,
      "Ø": 148,
      "Ù": 149,
      "Ú": 150,
      "Û": 151,
      "Ü": 152,
      "Ý": 153,
      "Þ": 154,
      "ß": 155,
      "à": 156,
      "á": 157,
      "â": 158,
      "ã": 159,
      "ä": 160,
      "å": 161,
      "æ": 162,
      "ç": 163,
      "è": 164,
      "é": 165,
      "ê": 166,
      "ë": 167,
      "ì": 168,
      "í": 169,
      "î": 170,
      "ï": 171,
      "ð": 172,
      "ñ": 173,
      "ò": 174,
      "ó": 175,
      "ô": 176,
      "õ": 177,
      "ö": 178,
      "÷": 179,
      "ø": 180,
      "ù": 181,
      "ú": 182,
      "û": 183,
      "ü": 184,
      "ý": 185,
      "þ": 186,
      "ÿ": 187,
      "Ā": 188,
      "ā": 189,
      "Ă": 190,
      "ă": 191,
      "Ą": 192,
      "ą": 193,
      "Ć": 194,
      "ć": 195,
      "Ĉ": 196,
      "ĉ": 197,
      "Ċ": 198,
      "ċ": 199,
      "Č": 200,
      "č": 201,
      "Ď": 202,
      "ď": 203,
      "Đ": 204,
      "đ": 205,
      "Ē": 206,
      "ē": 207,
      "Ĕ": 208,
      "ĕ": 209,
      "Ė": 210,
      "ė": 211,
      "Ę": 212,
      "ę": 213,
      "Ě": 214,
      "ě": 215,
      "Ĝ": 216,
      "ĝ": 217,
      "Ğ": 218,
      "ğ": 219,
      "Ġ": 220,
      "ġ": 221,
      "Ģ": 222,
      "ģ": 223,
      "Ĥ": 224,
      "ĥ": 225,
      "Ħ": 226,
      "ħ": 227,
      "Ĩ": 228,
      "ĩ": 229,
      "Ī": 230,
      "ī": 231,
      "Ĭ": 232,
      "ĭ": 233,
      "Į": 234,
      "į": 235,
      "İ": 236,
      "ı": 237,
      "Ĳ": 238,
      "ĳ": 239,
      "Ĵ": 240,
      "ĵ": 241,
      "Ķ": 242,
      "ķ": 243,
      "ĸ": 244,
      "Ĺ": 245,
      "ĺ": 246,
      "Ļ": 247,
      "ļ": 248,
      "Ľ": 249,
      "ľ": 250,
      "Ŀ": 251,
      "ŀ": 252,
      "Ł": 253,
      "ł": 254,
      "Ń": 255,
      "Ġt": 256,
      "he": 257,
      "Ġa": 258,
      "in": 259,
      "Ġs": 260,
      "Ġthe": 261,
      "Ġw": 262,
      "re": 263,
      "Ġo": 264,
      "ou": 265,
      "er": 266,
      "ed": 267,
      "nd": 268,
      "ha": 269,
      "Ġb": 270,
      "Ġc": 271,
      "it": 272,
      "Ġf": 273,
      "en": 274,
      "Ġm": 275,
      "on": 276,
      "ing": 277,
      "is": 278,
      "Ġto": 279,
      "or": 280,
      "Ġd": 281,
      "Ġof": 282,
      "Ġp": 283,
      "ll": 284,
      "an": 285,
      "es": 286,
      "ar": 287,
      "as": 288,
      "Ġand": 289,
      "Ġ\"": 290,
      "Ġl": 291,
      "at": 292,
      "Ġh": 293,
      "Ġin": 294,
      "ĠI": 295,
      "Ġhe": 296,
      "Ġn": 297,
      "Ġha": 298,
      "om": 299,
      "Ġg": 300,
      "hat": 301,
      "le": 302,
      "ut": 303,
      "Ġbe": 304,
      "ic": 305,
      "id": 306,
      "ow": 307,
      "ĠT": 308,
      "Ġy": 309,
      "ot": 310,
      "Ġe": 311,
      "ve": 312,
      "ld": 313,
      "ly": 314,
      "im": 315,
      "ac": 316,
      "Ġwas": 317,
      "st": 318,
      "et": 319,
      "Ġit": 320,
      "al": 321,
      "gh": 322,
      "Ġon": 323,
      "Ġth": 324,
      "Ġyou": 325,
      "ent": 326,
      "ion": 327,
      "Ġre": 328,
      "Ġthat": 329,
      "Ġst": 330,
      "se": 331,
      "Ġu": 332,
      "ĠH": 333,
      "ĠThe": 334,
      "ro": 335,
      "ay": 336,
      "Ġwe": 337,
      ".\"": 338,
      "ver": 339,
      "ir": 340,
      "ĠS": 341,
      "ĠA": 342,
      "ur": 343,
      "ad": 344,
      "Ġhis": 345,
      "ght": 346,
      "Ġfor": 347,
      "Ġan": 348,
      "'s": 349,
      "ith": 350,
      "Ġhad": 351,
      "ould": 352,
      "oo": 353,
      "ri": 354,
      "Ġas": 355,
      "am": 356,
      "Ġwith": 357,
      "ke": 358,
      "Ġ-": 359,
      "Ġ--": 360,
      "ce": 361,
      "'t": 362,
      "Ġsa": 363,
      "ĠB": 364,
      "ĠHe": 365,
      "Ġat": 366,
      "ec": 367,
      "Ġis": 368,
      "ĠM": 369,
      "all": 370,
      "if": 371,
      "il": 372,
      "red": 373,
      "ter": 374,
      "her": 375,
      "Ġwh": 376,
      "ain": 377,
      "Ġnot": 378,
      "ĠW": 379,
      "pp": 380,
      "ĠC": 381,
      "Ġme": 382,
      ",\"": 383,
      "Ġk": 384,
      "Ġhim": 385,
      "Ġr": 386,
      "Ġsaid": 387,
      "ill": 388,
      "Ġse": 389,
      "ch": 390,
      "Ġsh": 391,
      "Ġfr": 392,
      "th": 393,
      "Ġli": 394,
      "ore": 395,
      "Ġsu": 396,
      "Ġdo": 397,
      "Ġhave": 398,
      "?\"": 399,
      "ome": 400,
      "ted": 401,
      "ge": 402,
      "Ġout": 403,
      "ess": 404,
      "ked": 405,
      "el": 406,
      "ul": 407,
      "ation": 408,
      "um": 409,
      "un": 410,
      "rou": 411,
      "Ġne": 412,
      "Ġwere": 413,
      "ust": 414,
      "Ġfrom": 415,
      "ol": 416,
      "Ġbut": 417,
      "ers": 418,
      "em": 419,
      "ack": 420,
      "Ġcon": 421,
      "Ġthey": 422,
      "and": 423,
      "ant": 424,
      "Ġall": 425,
      "Ġsp": 426,
      "ble": 427,
      "ĠP": 428,
      "us": 429,
      "Ġkn": 430,
      "ight": 431,
      "Ġup": 432,
      "qu": 433,
      "ĠD": 434,
      "Ġex": 435,
      "Ġher": 436,
      "ind": 437,
      "Ġint": 438,
      "out": 439,
      "Ġor": 440,
      "ard": 441,
      "Ġ#": 442,
      "Ġv": 443,
      "Ġal": 444,
      "ra": 445,
      "os": 446,
      "Ġwould": 447,
      "Ġj": 448,
      "Ġone": 449,
      "ĠE": 450,
      "Ġno": 451,
      "ell": 452,
      "ĠN": 453,
      "ĠG": 454,
      "ig": 455,
      "Ġso": 456,
      "Ġab": 457,
      "Ġthis": 458,
      "ist": 459,
      "ĠF": 460,
      "op": 461,
      "est": 462,
      "ie": 463,
      "Ġby": 464,
      "Ġcould": 465,
      "Ġpl": 466,
      "ct": 467,
      "Ġthem": 468,
      "..": 469,
      "Ġle": 470,
      "Ġwor": 471,
      "Ġmy": 472,
      "hed": 473,
      "Ġwhe": 474,
      "ace": 475,
      "ĠIt": 476,
      "han": 477,
      "ong": 478,
      "ous": 479,
      "res": 480,
      "Ġare": 481,
      "Ġcom": 482,
      "ast": 483,
      "one": 484,
      "own": 485,
      "You": 486,
      "Ġshe": 487,
      "Ġman": 488,
      "Ġthere": 489,
      "ĠL": 490,
      "ĠR": 491,
      "Ġun": 492,
      "ĠO": 493,
      "ide": 494,
      "Ġbeen": 495,
      "ive": 496,
      "Ġcan": 497,
      "ate": 498,
      "Ġde": 499,
      "od": 500,
      "Ġwhat": 501,
      "lf": 502,
      "ood": 503,
      "hing": 504,
      "ame": 505,
      "king": 506,
      "ry": 507,
      "Ġinto": 508,
      "ven": 509,
      "ap": 510,
      "Ġgo": 511,
      "Ġany": 512,
      "Ġpro": 513,
      "our": 514,
      "ally": 515,
      "ime": 516,
      "Ġdid": 517,
      "Ġag": 518,
      "ĠJ": 519,
      "ther": 520,
      "ck": 521,
      "ity": 522,
      "Ġyour": 523,
      "Ġcl": 524,
      "ort": 525,
      "Ġfe": 526,
      "Ġlike": 527,
      "Ġro": 528,
      "Ġabout": 529,
      "art": 530,
      "ip": 531,
      "Ġloo": 532,
      "ag": 533,
      "Ġknow": 534,
      "very": 535,
      "ake": 536,
      "ure": 537,
      "ost": 538,
      "Ġback": 539,
      "ect": 540,
      "ice": 541,
      "ĠBut": 542,
      "Ġsome": 543,
      "ine": 544,
      "Ġtime": 545,
      "Ġsc": 546,
      "ep": 547,
      "Ġif": 548,
      "way": 549,
      "Ġus": 550,
      "ies": 551,
      "Ġwho": 552,
      "Ġbl": 553,
      "ich": 554,
      "Ġtheir": 555,
      "Ġmore": 556,
      "Ġtw": 557,
      "ned": 558,
      "au": 559,
      "Ġen": 560,
      "ond": 561,
      "Ġtoo": 562,
      "pt": 563,
      "Ġover": 564,
      "ab": 565,
      "are": 566,
      "ear": 567,
      "Ġfl": 568,
      "Ġoff": 569,
      "Ġother": 570,
      "ru": 571,
      "ĠAnd": 572,
      "ound": 573,
      "self": 574,
      "ff": 575,
      "Ġqu": 576,
      "act": 577,
      "Ġget": 578,
      "Ġthou": 579,
      "led": 580,
      "te": 581,
      "Ġdown": 582,
      "ass": 583,
      "iz": 584,
      "Ġnow": 585,
      "ment": 586,
      "ose": 587,
      "pl": 588,
      "Ġwill": 589,
      "ran": 590,
      "right": 591,
      "ak": 592,
      "ink": 593,
      "Ġwhen": 594,
      "Ġwhich": 595,
      "Ġagain": 596,
      "ull": 597,
      "Ġonly": 598,
      "ence": 599,
      "reat": 600,
      "ach": 601,
      "ved": 602,
      "Ġsm": 603,
      "nt": 604,
      "Ġim": 605,
      "Ġsl": 606,
      "Ġar": 607,
      "itt": 608,
      "round": 609,
      "Ġthen": 610,
      "dd": 611,
      "Ġhand": 612,
      "'ll": 613,
      "ick": 614,
      "Ġjust": 615,
      "Ġthan": 616,
      "ite": 617,
      "able": 618,
      "ĠShe": 619,
      "ĠThey": 620,
      "!\"": 621,
      "ile": 622,
      "nder": 623,
      "ree": 624,
      "per": 625,
      "Ġsee": 626,
      "ated": 627,
      "Ġway": 628,
      "Ġac": 629,
      "ĠYou": 630,
      "ber": 631,
      "pped": 632,
      "Ġdon": 633,
      "ered": 634,
      "'re": 635,
      "rough": 636,
      "Ġdis": 637,
      "...": 638,
      "age": 639,
      "og": 640,
      "Ġgr": 641,
      "Ġthing": 642,
      "ire": 643,
      "Ġcont": 644,
      "fore": 645,
      "omet": 646,
      "Ġco": 647,
      "ade": 648,
      "Ġits": 649,
      "ĠK": 650,
      "Ġthrough": 651,
      "ft": 652,
      "The": 653,
      "ward": 654,
      "Ġhere": 655,
      "ud": 656,
      "Ġour": 657,
      "Ġmo": 658,
      "Ġlong": 659,
      "ious": 660,
      "irst": 661,
      "ĠWe": 662,
      "ew": 663,
      "'d": 664,
      "ving": 665,
      "fter": 666,
      "Ġcomp": 667,
      "Ġpr": 668,
      "other": 669,
      "Ġtwo": 670,
      "Ġeven": 671,
      "Ġright": 672,
      "ning": 673,
      "Ġthought": 674,
      "ub": 675,
      "ough": 676,
      "ook": 677,
      "Ġpe": 678,
      "Ġey": 679,
      "ress": 680,
      "wn": 681,
      "Ġunder": 682,
      "ĠIn": 683,
      "Ġtur": 684,
      "ĠThere": 685,
      "Ġch": 686,
      "Ġbefore": 687,
      "Ġgl": 688,
      "'m": 689,
      "Ġbec": 690,
      "ater": 691,
      "ions": 692,
      "Ġhas": 693,
      "Ġper": 694,
      "'ve": 695,
      "Ġfirst": 696,
      "ere": 697,
      "ves": 698,
      "ild": 699,
      "ĠTh": 700,
      "Ġgot": 701,
      "Ġthink": 702,
      "ens": 703,
      "ue": 704,
      "ittle": 705,
      "oc": 706,
      "ial": 707,
      "ary": 708,
      "ĠSt": 709,
      "Ġapp": 710,
      "Ġpo": 711,
      "Ġmu": 712,
      "Ġyear": 713,
      "Ġsomet": 714,
      "ave": 715,
      "Ġhow": 716,
      "Ġam": 717,
      "Ġbr": 718,
      "ory": 719,
      "Ġlooked": 720,
      "Ġsw": 721,
      "ty": 722,
      "Ġlittle": 723,
      "Ġsha": 724,
      "ened": 725,
      "ict": 726,
      "ance": 727,
      "Ġhead": 728,
      "end": 729,
      "ark": 730,
      "Ġaround": 731,
      "ody": 732,
      "Ġsay": 733,
      "Ġrem": 734,
      "sp": 735,
      "Ġcame": 736,
      "Ġstill": 737,
      "Ġbet": 738,
      "ps": 739,
      "ĠV": 740,
      "ife": 741,
      "Ġevery": 742,
      "ical": 743,
      "arth": 744,
      "Ġdidn": 745,
      "Ġmade": 746,
      "orm": 747,
      "Ġ(": 748,
      "tain": 749,
      "Ġmuch": 750,
      "hy": 751,
      "Ġplan": 752,
      "oy": 753,
      "ared": 754,
      "ied": 755,
      "ne": 756,
      "Ġwhere": 757,
      "ting": 758,
      "ople": 759,
      "Ġpre": 760,
      "ged": 761,
      "Ġaway": 762,
      "Ġday": 763,
      "ish": 764,
      "Ġtr": 765,
      "Ġ'": 766,
      "Ġshould": 767,
      "Ġcha": 768,
      "si": 769,
      "ling": 770,
      "ord": 771,
      "ched": 772,
      "Ġwant": 773,
      "Ġgood": 774,
      "Ġsomething": 775,
      "thing": 776,
      "Ġseem": 777,
      "Ġnever": 778,
      "Ġgoing": 779,
      "Ġwr": 780,
      "Ġeyes": 781,
      "ried": 782,
      "Ġbeg": 783,
      "Ġafter": 784,
      "ob": 785,
      "ss": 786,
      "Ġnew": 787,
      "ause": 788,
      "iss": 789,
      "Ġmight": 790,
      "ase": 791,
      "ove": 792,
      "Ġad": 793,
      "ars": 794,
      "Ġdes": 795,
      "ors": 796,
      "Ġmake": 797,
      "Ġmust": 798,
      "Ġwent": 799,
      "Ġvery": 800,
      "Ġhimself": 801,
      "Ġwa": 802,
      "Ġold": 803,
      "Ġown": 804,
      "Ġpeople": 805,
      "Ġsur": 806,
      "Ġke": 807,
      "Ġship": 808,
      "ng": 809,
      "ian": 810,
      "Ġop": 811,
      "iv": 812,
      "side": 813,
      "int": 814,
      "hen": 815,
      "les": 816,
      "Ġimp": 817,
      "ced": 818,
      "ks": 819,
      "here": 820,
      "Ġcall": 821,
      "Ġcome": 822,
      "Ġcour": 823,
      "vel": 824,
      "Ġcr": 825,
      "ily": 826,
      "iff": 827,
      "Ġbu": 828,
      "ĠU": 829,
      "Ġgu": 830,
      "ons": 831,
      "Ġhum": 832,
      "Ġlight": 833,
      "Ġpart": 834,
      "ĠEarth": 835,
      "Ġface": 836,
      "ail": 837,
      "ign": 838,
      "old": 839,
      "Ġcar": 840,
      "ful": 841,
      "atter": 842,
      "Ġyears": 843,
      "Ġtake": 844,
      "ness": 845,
      "be": 846,
      "Ġrec": 847,
      "Ġmind": 848,
      "Ġread": 849,
      "Ġlet": 850,
      "av": 851,
      "less": 852,
      "Ġwell": 853,
      "Ġsec": 854,
      "ĠIf": 855,
      "Ġworld": 856,
      "ock": 857,
      "ise": 858,
      "Ġbel": 859,
      "oice": 860,
      "ang": 861,
      "Ġasked": 862,
      "Ġturned": 863,
      "Ġmay": 864,
      "Ġpos": 865,
      "Ġhapp": 866,
      "Ġchan": 867,
      "Ġenough": 868,
      "ath": 869,
      "Ġtell": 870,
      "Ġem": 871,
      "Ġmen": 872,
      "Ġexp": 873,
      "oll": 874,
      "Ġanother": 875,
      "Ġhar": 876,
      "Ġrep": 877,
      "ience": 878,
      "Ġob": 879,
      "Ġdoor": 880,
      "ĠHis": 881,
      "ĠThen": 882,
      "Ġneed": 883,
      "ations": 884,
      "ather": 885,
      "Ġknew": 886,
      "ult": 887,
      "Ġreal": 888,
      "Ġroom": 889,
      "oth": 890,
      "owed": 891,
      "Ġcourse": 892,
      "It": 893,
      "Ġbeing": 894,
      "Ġfar": 895,
      "ient": 896,
      "Ġfew": 897,
      "aw": 898,
      "Ġput": 899,
      "Ġche": 900,
      "Ġmean": 901,
      "Ġlife": 902,
      "Ġleft": 903,
      "Ġfound": 904,
      "ross": 905,
      "Ġfind": 906,
      "Ġsk": 907,
      "Ġtook": 908,
      "What": 909,
      "igh": 910,
      "ĠThat": 911,
      "Ġwork": 912,
      "Ġcou": 913,
      "we": 914,
      "Ġset": 915,
      "man": 916,
      "atch": 917,
      "Ġtal": 918,
      "Ġlast": 919,
      "ower": 920,
      "Ġmin": 921,
      "Ġstar": 922,
      "ction": 923,
      "ple": 924,
      "Ġhuman": 925,
      "ition": 926,
      "Ġent": 927,
      "Ġvoice": 928,
      "Ġmost": 929,
      "Ġthree": 930,
      "ĠWhat": 931,
      "az": 932,
      "Ġbecause": 933,
      "Ġsaw": 934,
      "oment": 935,
      "Ġatt": 936,
      "gg": 937,
      "Ġhel": 938,
      "Ġnothing": 939,
      "ating": 940,
      "und": 941,
      "ĠY": 942,
      "Ġplanet": 943,
      "Ġwhile": 944,
      "Ġthose": 945,
      "Ġinst": 946,
      "Ġmoment": 947,
      "ever": 948,
      "ual": 949,
      "Ġdec": 950,
      "Ġlook": 951,
      "Ġarm": 952,
      "Ġinc": 953,
      "Ġtold": 954,
      "cept": 955,
      "most": 956,
      "Ġgreat": 957,
      "ix": 958,
      "ax": 959,
      "read": 960,
      "elt": 961,
      "rew": 962,
      "Ġmet": 963,
      "Ġthings": 964,
      "Ġend": 965,
      "Ġthese": 966,
      "Ġtry": 967,
      "ped": 968,
      "ĠAn": 969,
      "Ġwait": 970,
      "Ġwithout": 971,
      "ner": 972,
      "Ġfeel": 973,
      "aking": 974,
      "Ġte": 975,
      "Ġel": 976,
      "Ġsmall": 977,
      "ĠAs": 978,
      "Ġagainst": 979,
      "hes": 980,
      "ĠThis": 981,
      "ized": 982,
      "Ġcomm": 983,
      "Ġtoward": 984,
      "We": 985,
      "Ġind": 986,
      "Ġsupp": 987,
      "Ġunt": 988,
      "get": 989,
      "Ġair": 990,
      "ont": 991,
      "Ġsat": 992,
      "Ġsuch": 993,
      "Ġres": 994,
      "ably": 995,
      "Ġcle": 996,
      "imes": 997,
      "ully": 998,
      "Ġwar": 999,
      "Ġplace": 1000,
      "ia": 1001,
      "Ġpass": 1002,
      "ense": 1003,
      "ident": 1004,
      "Ġword": 1005,
      "Ġdiff": 1006,
      "Ġseemed": 1007,
      "Ġmany": 1008,
      "med": 1009,
      "Ġever": 1010,
      "Ġdoes": 1011,
      "Ġthough": 1012,
      "Ġsame": 1013,
      "Ġanything": 1014,
      "Ġfin": 1015,
      "ĠNo": 1016,
      "ished": 1017,
      "air": 1018,
      "ret": 1019,
      "Ġbo": 1020,
      "ream": 1021,
      "Ġalmost": 1022,
      "Ġexpl": 1023,
      "ince": 1024,
      "ung": 1025,
      "Ġdist": 1026,
      "Ġeach": 1027,
      "vent": 1028,
      "Ġcor": 1029,
      "xt": 1030,
      "Ġsub": 1031,
      "Ġfelt": 1032,
      "Ġbook": 1033,
      "sw": 1034,
      "Ġuntil": 1035,
      "hn": 1036,
      "Ġspace": 1037,
      "Ġret": 1038,
      "Ġser": 1039,
      "ings": 1040,
      "Ġinter": 1041,
      "Ġhard": 1042,
      "Ġste": 1043,
      "Ġacc": 1044,
      "Ġact": 1045,
      "ways": 1046,
      "Ġbegan": 1047,
      "ĠMr": 1048,
      "Ġrel": 1049,
      "ale": 1050,
      "cc": 1051,
      "ject": 1052,
      "erson": 1053,
      "hind": 1054,
      "Ġmon": 1055,
      "Ġonce": 1056,
      "Ġsound": 1057,
      "Ġside": 1058,
      "Ġwal": 1059,
      "ĠFor": 1060,
      "irl": 1061,
      "ertain": 1062,
      "Ġwhy": 1063,
      "Ġsure": 1064,
      "Ġsy": 1065,
      "But": 1066,
      "row": 1067,
      "so": 1068,
      "Ġsim": 1069,
      "Ġhands": 1070,
      "Ġwom": 1071,
      "Ġord": 1072,
      "Ġuse": 1073,
      "ph": 1074,
      "iet": 1075,
      "Ġbig": 1076,
      "ren": 1077,
      "ĠJo": 1078,
      "ool": 1079,
      "Ġed": 1080,
      "Ġdisc": 1081,
      "Ġhalf": 1082,
      "iction": 1083,
      "li": 1084,
      "Ġbetter": 1085,
      "Ġnight": 1086,
      "reen": 1087,
      "mer": 1088,
      "umb": 1089,
      "Ġfeet": 1090,
      "Ġhour": 1091,
      "ĠWhen": 1092,
      "Ġunderst": 1093,
      "Ġspe": 1094,
      "Ġopen": 1095,
      "Ġinf": 1096,
      "up": 1097,
      "Ġfact": 1098,
      "sc": 1099,
      "Ġkeep": 1100,
      "olog": 1101,
      "Ġrest": 1102,
      "No": 1103,
      "ĠSo": 1104,
      "osed": 1105,
      "Ġsn": 1106,
      "ures": 1107,
      "arly": 1108,
      "That": 1109,
      "Ġbody": 1110,
      "Ġbehind": 1111,
      "Ġtran": 1112,
      "Ġansw": 1113,
      "ee": 1114,
      "Ġreally": 1115,
      "Ġtra": 1116,
      "Ġass": 1117,
      "sible": 1118,
      "ief": 1119,
      "ually": 1120,
      "ained": 1121,
      "ĠOn": 1122,
      "Ġcare": 1123,
      "iver": 1124,
      "Ġcent": 1125,
      "mb": 1126,
      "Ġsil": 1127,
      "Ġ#.": 1128,
      "Ġsecond": 1129,
      "Ġalong": 1130,
      "Ġgirl": 1131,
      "Ġcol": 1132,
      "ĠAll": 1133,
      "Ġstr": 1134,
      "ces": 1135,
      "ank": 1136,
      "ener": 1137,
      "ute": 1138,
      "Ġdark": 1139,
      "ĠAl": 1140,
      "Ġacross": 1141,
      "ield": 1142,
      "ger": 1143,
      "ĠAt": 1144,
      "Ġmatter": 1145,
      "Ġkind": 1146,
      "bed": 1147,
      "rol": 1148,
      "ween": 1149,
      "its": 1150,
      "Ġgi": 1151,
      "Ġalways": 1152,
      "Ġcouldn": 1153,
      "pe": 1154,
      "fully": 1155,
      "body": 1156,
      "als": 1157,
      "ically": 1158,
      "Ġmou": 1159,
      "Ġstood": 1160,
      "du": 1161,
      "ines": 1162,
      "Ġrun": 1163,
      "dden": 1164,
      "Ġhigh": 1165,
      "Ġstand": 1166,
      "Ġwasn": 1167,
      "Ġcur": 1168,
      "ected": 1169,
      "ope": 1170,
      "undred": 1171,
      "Ġwall": 1172,
      "head": 1173,
      "Ġpres": 1174,
      "ters": 1175,
      "haps": 1176,
      "Ġwond": 1177,
      "Ġpoint": 1178,
      "Ġcomple": 1179,
      "ering": 1180,
      "Ġwater": 1181,
      "ey": 1182,
      "dded": 1183,
      "Ġwind": 1184,
      "Ġbetween": 1185,
      "ached": 1186,
      "ason": 1187,
      "Ġfoll": 1188,
      "Ġcap": 1189,
      "Ġheard": 1190,
      "Ġtri": 1191,
      "Ġelse": 1192,
      "Ġcalled": 1193,
      "Ġter": 1194,
      "oot": 1195,
      "Ġri": 1196,
      "Ġquest": 1197,
      "Ġhundred": 1198,
      "ently": 1199,
      "cy": 1200,
      "Ġdone": 1201,
      "son": 1202,
      "Ġdr": 1203,
      "aught": 1204,
      "anted": 1205,
      "Ġspec": 1206,
      "ither": 1207,
      "ouse": 1208,
      "Ġbro": 1209,
      "Ġnext": 1210,
      "owing": 1211,
      "Ġfour": 1212,
      "cl": 1213,
      "Ġseen": 1214,
      "Ġele": 1215,
      "Ġinv": 1216,
      "Ġname": 1217,
      "Ġdri": 1218,
      "Ġremem": 1219,
      "Ġunderstand": 1220,
      "ĠNow": 1221,
      "ms": 1222,
      "Ġyoung": 1223,
      "ott": 1224,
      "ĠHow": 1225,
      "ited": 1226,
      "ired": 1227,
      "ize": 1228,
      "hip": 1229,
      "sel": 1230,
      "Ġgive": 1231,
      "Ġpower": 1232,
      "Ġflo": 1233,
      "ately": 1234,
      "Ġmach": 1235,
      "Ġdire": 1236,
      "Ġsun": 1237,
      "Ġbur": 1238,
      "Ġdro": 1239,
      "Ġhelp": 1240,
      "Ġvis": 1241,
      "Ġaw": 1242,
      "Ġeff": 1243,
      "ists": 1244,
      "Ġwon": 1245,
      "irc": 1246,
      "Ġple": 1247,
      "Ġthin": 1248,
      "Ġrock": 1249,
      "Ġnat": 1250,
      "ised": 1251,
      "ron": 1252,
      "Ġslow": 1253,
      "tered": 1254,
      "orn": 1255,
      "Ġtried": 1256,
      "Ġlar": 1257,
      "uck": 1258,
      "uth": 1259,
      "Ġide": 1260,
      "ured": 1261,
      "Yes": 1262,
      "iled": 1263,
      "Ġdiffere": 1264,
      "oke": 1265,
      "ubl": 1266,
      "ator": 1267,
      "aces": 1268,
      "Ġblack": 1269,
      "Ġsle": 1270,
      "Ġconf": 1271,
      "Ġland": 1272,
      "Ġdead": 1273,
      "Ġref": 1274,
      "iously": 1275,
      "ĠOne": 1276,
      "ib": 1277,
      "Ġhome": 1278,
      "And": 1279,
      "Ġboth": 1280,
      "Ġyet": 1281,
      "ets": 1282,
      "Ġsto": 1283,
      "ird": 1284,
      "adi": 1285,
      "Ġkill": 1286,
      "ton": 1287,
      "Ġchar": 1288,
      "Ġsince": 1289,
      "ined": 1290,
      "ĠNot": 1291,
      "Ġbus": 1292,
      "Ġretur": 1293,
      "Ġwanted": 1294,
      "Ġperson": 1295,
      "used": 1296,
      "Ġreg": 1297,
      "Ġbelie": 1298,
      "Ġchild": 1299,
      "Ġused": 1300,
      "Ġsudden": 1301,
      "enty": 1302,
      "ins": 1303,
      "Ġalso": 1304,
      "ided": 1305,
      "ows": 1306,
      "Ġgone": 1307,
      "Ġlooking": 1308,
      "ĠCh": 1309,
      "Ġdays": 1310,
      "Ġcertain": 1311,
      "mit": 1312,
      "ents": 1313,
      "ĠCl": 1314,
      "aster": 1315,
      "Ġpast": 1316,
      "Ġdet": 1317,
      "ug": 1318,
      "Ġpol": 1319,
      "ĠAr": 1320,
      "Ġleast": 1321,
      "ĠNew": 1322,
      "riend": 1323,
      "Ġsqu": 1324,
      "ific": 1325,
      "Ġbuild": 1326,
      "uff": 1327,
      "Ġcons": 1328,
      "ories": 1329,
      "Ġmar": 1330,
      "iness": 1331,
      "ying": 1332,
      "ster": 1333,
      "Ġquite": 1334,
      "ier": 1335,
      "ates": 1336,
      "oon": 1337,
      "ans": 1338,
      "Ġshort": 1339,
      "Ġscience": 1340,
      "Ġbre": 1341,
      "ts": 1342,
      "ready": 1343,
      "aut": 1344,
      "ĠCom": 1345,
      "Ġdra": 1346,
      "ctor": 1347,
      "ny": 1348,
      "Ġothers": 1349,
      "har": 1350,
      "ible": 1351,
      "Ġcontrol": 1352,
      "Ġeas": 1353,
      "ash": 1354,
      "erest": 1355,
      "Ġwatch": 1356,
      "ĠDr": 1357,
      "Ġprob": 1358,
      "ĠUn": 1359,
      "Ġran": 1360,
      "aced": 1361,
      "Ġwouldn": 1362,
      "Ġstarted": 1363,
      "ities": 1364,
      "Ġtrans": 1365,
      "He": 1366,
      "ien": 1367,
      "Ġfore": 1368,
      "Ġgave": 1369,
      "ef": 1370,
      "app": 1371,
      "uc": 1372,
      "icked": 1373,
      "ics": 1374,
      "ĠHer": 1375,
      "where": 1376,
      "ĠSp": 1377,
      "Ġclose": 1378,
      "Ġtak": 1379,
      "Ġreason": 1380,
      "Ġsign": 1381,
      "ĠOr": 1382,
      "ility": 1383,
      "Ġlater": 1384,
      "Ġless": 1385,
      "Ġwhole": 1386,
      "Ġ#,": 1387,
      "ular": 1388,
      "att": 1389,
      "Ġdeep": 1390,
      "ousand": 1391,
      "Ġmoved": 1392,
      "Ġgra": 1393,
      "Ġfull": 1394,
      "stem": 1395,
      "Ġdel": 1396,
      "Ġtrying": 1397,
      "Ġstart": 1398,
      "gr": 1399,
      "Ġcirc": 1400,
      "Ġinterest": 1401,
      "Ġhur": 1402,
      "ert": 1403,
      "Well": 1404,
      "Ġalready": 1405,
      "Ġmove": 1406,
      "Ġtre": 1407,
      "Ġlot": 1408,
      "ĠMan": 1409,
      "Ġhold": 1410,
      "Ġboy": 1411,
      "Ġlist": 1412,
      "Ġfriend": 1413,
      "Ġnec": 1414,
      "ead": 1415,
      "Ġbest": 1416,
      "ork": 1417,
      "Ġph": 1418,
      "Ġpur": 1419,
      "amp": 1420,
      "utes": 1421,
      "Ġtru": 1422,
      "Ġlear": 1423,
      "oun": 1424,
      "iles": 1425,
      "Ġresp": 1426,
      "idd": 1427,
      "aring": 1428,
      "Ġfell": 1429,
      "Ġsol": 1430,
      "rom": 1431,
      "vers": 1432,
      "Ġform": 1433,
      "Ġplay": 1434,
      "iew": 1435,
      "oud": 1436,
      "Ġthousand": 1437,
      "ative": 1438,
      "Ġbreat": 1439,
      "Ġstopped": 1440,
      "Ġstran": 1441,
      "Ġstre": 1442,
      "Ġcontin": 1443,
      "Ġmor": 1444,
      "Ġquick": 1445,
      "Ġdef": 1446,
      "ison": 1447,
      "erg": 1448,
      "Ġinside": 1449,
      "uring": 1450,
      "Ġred": 1451,
      "Ġfing": 1452,
      "Ġtou": 1453,
      "selves": 1454,
      "ĠMar": 1455,
      "Ġmag": 1456,
      "ĠWith": 1457,
      "ĠWh": 1458,
      "Ġbar": 1459,
      "Ġgener": 1460,
      "Ġfig": 1461,
      "Ġdep": 1462,
      "Ġcreat": 1463,
      "ention": 1464,
      "Ġpull": 1465,
      "pr": 1466,
      "ening": 1467,
      "atched": 1468,
      "Ġdou": 1469,
      "Ġproble": 1470,
      "Ġequ": 1471,
      "ĠSc": 1472,
      "Ġ.": 1473,
      "Ġmiss": 1474,
      "inted": 1475,
      "ments": 1476,
      "ĠBr": 1477,
      "Ġexper": 1478,
      "Ġstory": 1479,
      "Ġstud": 1480,
      "Ġev": 1481,
      "by": 1482,
      "Ġreached": 1483,
      "Ġground": 1484,
      "Ġsoon": 1485,
      "ric": 1486,
      "Ġsix": 1487,
      "Ġfive": 1488,
      "day": 1489,
      "Ġten": 1490,
      "Ġcoming": 1491,
      "oney": 1492,
      "Ġbit": 1493,
      "ĠIF": 1494,
      "Ġwoman": 1495,
      "Ġtalk": 1496,
      "Ġext": 1497,
      "Ġlay": 1498,
      "land": 1499,
      "to": 1500,
      "Ġheld": 1501,
      "Ġable": 1502,
      "Ġleg": 1503,
      "Ġwords": 1504,
      "Ġpain": 1505,
      "ony": 1506,
      "Ġins": 1507,
      "Ġconc": 1508,
      "Ġmyself": 1509,
      "ards": 1510,
      "Ġradi": 1511,
      "erv": 1512,
      "ump": 1513,
      "Ġhappened": 1514,
      "Ġmonth": 1515,
      "Ġnear": 1516,
      "Ġfur": 1517,
      "ĠPro": 1518,
      "ots": 1519,
      "Ġcomplete": 1520,
      "Ġjob": 1521,
      "Ġwrit": 1522,
      "Ġbad": 1523,
      "Ġturn": 1524,
      "Ġcoll": 1525,
      "Ġquestion": 1526,
      "Ġstay": 1527,
      "bit": 1528,
      "Th": 1529,
      "Ġminutes": 1530,
      "ressed": 1531,
      "Ġisn": 1532,
      "Ġfloor": 1533,
      "Ġdam": 1534,
      "rought": 1535,
      "Ġfree": 1536,
      "ene": 1537,
      "Ġsort": 1538,
      "ĠHar": 1539,
      "Ġstru": 1540,
      "Ġdoing": 1541,
      "Ġago": 1542,
      "Ġsystem": 1543,
      "ĠDo": 1544,
      "Oh": 1545,
      "Ġwhite": 1546,
      "ection": 1547,
      "Ġexc": 1548,
      "Ġocc": 1549,
      "Ġlau": 1550,
      "Ġitself": 1551,
      "ane": 1552,
      "ĠAfter": 1553,
      "ages": 1554,
      "Ġsir": 1555,
      "Ġdem": 1556,
      "Ġtrou": 1557,
      "Ġidea": 1558,
      "Ġfam": 1559,
      "ants": 1560,
      "Ġtoget": 1561,
      "Ġsent": 1562,
      "Ġeverything": 1563,
      "ĠGr": 1564,
      "Ġhours": 1565,
      "Ġpubl": 1566,
      "Ġtogether": 1567,
      "Ġra": 1568,
      "Ġlo": 1569,
      "eared": 1570,
      "Ġcut": 1571,
      "Ġnodded": 1572,
      "Ġes": 1573,
      "Ġloc": 1574,
      "Ġanswer": 1575,
      "Ġwalked": 1576,
      "Ġbelieve": 1577,
      "Ġlarge": 1578,
      "sy": 1579,
      "ĠCar": 1580,
      "ĠBe": 1581,
      "Ġabove": 1582,
      "Ġbrought": 1583,
      "Ġhouse": 1584,
      "Ġrob": 1585,
      "Ġpar": 1586,
      "Ġslowly": 1587,
      "Ġprot": 1588,
      "Ġwrong": 1589,
      "Ġmem": 1590,
      "Ġfall": 1591,
      "ĠBl": 1592,
      "ĠMy": 1593,
      "Ġdifferent": 1594,
      "Ġbegin": 1595,
      "ĠZ": 1596,
      "Ġwee": 1597,
      "Ġstra": 1598,
      "Ġpossible": 1599,
      "ount": 1600,
      "Ġupon": 1601,
      "Ġappro": 1602,
      "Ġgetting": 1603,
      "They": 1604,
      "ler": 1605,
      "ush": 1606,
      "Ġopened": 1607,
      "Ġremember": 1608,
      "Ġfield": 1609,
      "ery": 1610,
      "ĠSome": 1611,
      "Ġtimes": 1612,
      "pping": 1613,
      "Ġunc": 1614,
      "Ġcity": 1615,
      "Ġprobably": 1616,
      "How": 1617,
      "ued": 1618,
      "ĠRe": 1619,
      "Ġbed": 1620,
      "Ġknown": 1621,
      "ah": 1622,
      "sib": 1623,
      "Ġart": 1624,
      "anced": 1625,
      "Ġrather": 1626,
      "Ġcase": 1627,
      "Ġperf": 1628,
      "Ġchair": 1629,
      "Ġoutside": 1630,
      "Ġlove": 1631,
      "ipped": 1632,
      "ider": 1633,
      "ushed": 1634,
      "Ġdest": 1635,
      "ides": 1636,
      "ten": 1637,
      "ike": 1638,
      "ĠQ": 1639,
      "ĠMc": 1640,
      "ĠTo": 1641,
      "Ġperhaps": 1642,
      "umber": 1643,
      "ply": 1644,
      "otion": 1645,
      "Ġsuddenly": 1646,
      "Ġhair": 1647,
      "ased": 1648,
      "Ġtwenty": 1649,
      "Ġmachine": 1650,
      "ĠWhy": 1651,
      "Ġcra": 1652,
      "Ġfront": 1653,
      "Ġhear": 1654,
      "Ġfiction": 1655,
      "aybe": 1656,
      "Ġexcept": 1657,
      "arent": 1658,
      "ĠEd": 1659,
      "Ġleave": 1660,
      "rug": 1661,
      "ĠJohn": 1662,
      "Ġwithin": 1663,
      "ken": 1664,
      "Ġlow": 1665,
      "ĠRo": 1666,
      "Ġsense": 1667,
      "There": 1668,
      "Ġsleep": 1669,
      "Ġmouth": 1670,
      "Ġline": 1671,
      "Ġsit": 1672,
      "Ġheav": 1673,
      "Ġforward": 1674,
      "Ġadv": 1675,
      "Ġguess": 1676,
      "...\"": 1677,
      "Ġdeath": 1678,
      "Ġfire": 1679,
      "Ġdoesn": 1680,
      "Not": 1681,
      "Ġlost": 1682,
      "ains": 1683,
      "Ġshook": 1684,
      "itor": 1685,
      "Ġfif": 1686,
      "Ġeither": 1687,
      "gan": 1688,
      "Ġpa": 1689,
      "Why": 1690,
      "Ġap": 1691,
      "Ġtable": 1692,
      "Ġir": 1693,
      "Ġcold": 1694,
      "Ġtop": 1695,
      "Ġpri": 1696,
      "Ġtaken": 1697,
      "alax": 1698,
      "Ġlif": 1699,
      "Ġalone": 1700,
      "ored": 1701,
      "Ġadd": 1702,
      "men": 1703,
      "oss": 1704,
      "Ġkept": 1705,
      "Ġlive": 1706,
      "over": 1707,
      "face": 1708,
      "ices": 1709,
      "isted": 1710,
      "Ġpat": 1711,
      "Ġshow": 1712,
      "ilt": 1713,
      "arch": 1714,
      "Ġsky": 1715,
      "Ġpap": 1716,
      "Ġgun": 1717,
      "Ġhor": 1718,
      "Ġhope": 1719,
      "Ġstared": 1720,
      "ames": 1721,
      "Ġmorning": 1722,
      "Ġcaught": 1723,
      "ĠĠ": 1724,
      "iling": 1725,
      "els": 1726,
      "Ġorder": 1727,
      "ĠPl": 1728,
      "fort": 1729,
      "Ġchance": 1730,
      "Ġclear": 1731,
      "gin": 1732,
      "veral": 1733,
      "nce": 1734,
      "Ġsoft": 1735,
      "Ġdream": 1736,
      "If": 1737,
      "Ġdev": 1738,
      "akes": 1739,
      "Ġsing": 1740,
      "zz": 1741,
      "Ġear": 1742,
      "Ġeye": 1743,
      "Ġwatched": 1744,
      "echn": 1745,
      "Ġlonger": 1746,
      "Ġfun": 1747,
      "itch": 1748,
      "Ġbright": 1749,
      "Ġdoub": 1750,
      "inc": 1751,
      "Ġsens": 1752,
      "ern": 1753,
      "of": 1754,
      "Ġinform": 1755,
      "Ġwaiting": 1756,
      "ole": 1757,
      "oid": 1758,
      "alaxy": 1759,
      "Ġanim": 1760,
      "Ġquiet": 1761,
      "Ġimport": 1762,
      "Ġsmiled": 1763,
      "Ġlead": 1764,
      "osp": 1765,
      "ement": 1766,
      "Ġlim": 1767,
      "Ġhadn": 1768,
      "ging": 1769,
      "Ġbecame": 1770,
      "the": 1771,
      "ape": 1772,
      "Ġnor": 1773,
      "Ġprodu": 1774,
      "Ġstop": 1775,
      "de": 1776,
      "Ġstories": 1777,
      "ex": 1778,
      "Ġpret": 1779,
      "Ġmoney": 1780,
      "Ġseveral": 1781,
      "fe": 1782,
      "Ġmass": 1783,
      "Ġmus": 1784,
      "Ġthinking": 1785,
      "ior": 1786,
      "Ġcomput": 1787,
      "Ġbes": 1788,
      "Ġfut": 1789,
      "Ġeng": 1790,
      "itting": 1791,
      "Ġrecord": 1792,
      "me": 1793,
      "Ġdang": 1794,
      "Ġblue": 1795,
      "how": 1796,
      "ĠPer": 1797,
      "light": 1798,
      "Ġpassed": 1799,
      "ives": 1800,
      "Ġmaking": 1801,
      "br": 1802,
      "Ġarms": 1803,
      "ĠIs": 1804,
      "Ġsend": 1805,
      "Ġfood": 1806,
      "ĠTw": 1807,
      "Ġthemselves": 1808,
      "ising": 1809,
      "Ġproblem": 1810,
      "Ġstep": 1811,
      "ĠTer": 1812,
      "Ġbring": 1813,
      "Ġcount": 1814,
      "not": 1815,
      "Ġnumber": 1816,
      "Ġoffice": 1817,
      "Ġcond": 1818,
      "Ġglass": 1819,
      "iny": 1820,
      "cted": 1821,
      "ution": 1822,
      "Ġstrange": 1823,
      "Ġliving": 1824,
      "Ġsurpr": 1825,
      "Ġmain": 1826,
      "Ġgreen": 1827,
      "ury": 1828,
      "Ġoper": 1829,
      "ĠDon": 1830,
      "Ġbusiness": 1831,
      "Ġgrou": 1832,
      "illed": 1833,
      "ues": 1834,
      "Ġtrouble": 1835,
      "ĠGod": 1836,
      "ones": 1837,
      "aged": 1838,
      "apped": 1839,
      "yond": 1840,
      "ination": 1841,
      "Ġblood": 1842,
      "Ġpresent": 1843,
      "ze": 1844,
      "Ġfight": 1845,
      "Ġfast": 1846,
      "Ġask": 1847,
      "irty": 1848,
      "ians": 1849,
      "Ġahead": 1850,
      "aining": 1851,
      "Ġbeyond": 1852,
      "ism": 1853,
      "ik": 1854,
      "Ġtem": 1855,
      "Ġready": 1856,
      "ov": 1857,
      "Ġbecome": 1858,
      "ĠSh": 1859,
      "ĠSu": 1860,
      "ously": 1861,
      "Ġhy": 1862,
      "Ġgiven": 1863,
      "Ġclosed": 1864,
      "Ġview": 1865,
      "Ġoffic": 1866,
      "Ġmod": 1867,
      "ges": 1868,
      "Ġentire": 1869,
      "der": 1870,
      "Ġstars": 1871,
      "aint": 1872,
      "Ġiss": 1873,
      "Ġhaving": 1874,
      "ley": 1875,
      "Ġmaybe": 1876,
      "Ġpretty": 1877,
      "velop": 1878,
      "Ġpay": 1879,
      "Ġtechn": 1880,
      "Ġfollowed": 1881,
      "Ġsusp": 1882,
      "Ġbooks": 1883,
      "ĠLe": 1884,
      "Ġtrue": 1885,
      "ision": 1886,
      "Don": 1887,
      "rest": 1888,
      "Ġamong": 1889,
      "Ġfeeling": 1890,
      "Ġmiles": 1891,
      "Ġdirect": 1892,
      "aj": 1893,
      "Ġeffect": 1894,
      "reed": 1895,
      "Ġbreak": 1896,
      "ĠWell": 1897,
      "ude": 1898,
      "Ġwonder": 1899,
      "rid": 1900,
      "Ġrepl": 1901,
      "Ġdie": 1902,
      "bs": 1903,
      "ature": 1904,
      "Ġshar": 1905,
      "Ġsomeone": 1906,
      "Ġsurface": 1907,
      "Ġmetal": 1908,
      "any": 1909,
      "ats": 1910,
      "ality": 1911,
      "Ġve": 1912,
      "Ġcop": 1913,
      "This": 1914,
      "Ġspeak": 1915,
      "Ġpict": 1916,
      "Ġmeet": 1917,
      "Ġlea": 1918,
      "Ġtele": 1919,
      "Ġslight": 1920,
      "Ġhell": 1921,
      "Ġyell": 1922,
      "atic": 1923,
      "eth": 1924,
      "acked": 1925,
      "Ġstraight": 1926,
      "ract": 1927,
      "lled": 1928,
      "Ġwomen": 1929,
      "ote": 1930,
      "Ġang": 1931,
      "fess": 1932,
      "Ġabs": 1933,
      "tern": 1934,
      "Ġelect": 1935,
      "ĠMart": 1936,
      "Ġimag": 1937,
      "Ġ,": 1938,
      "ĠEven": 1939,
      "hys": 1940,
      "like": 1941,
      "Ġchange": 1942,
      "Ġlab": 1943,
      "Ġjo": 1944,
      "zen": 1945,
      "Ġsuper": 1946,
      "ization": 1947,
      "Ġmess": 1948,
      "Ġcommun": 1949,
      "ural": 1950,
      "Ġalien": 1951,
      "Ġswe": 1952,
      "ĠYork": 1953,
      "Ġav": 1954,
      "Ġexam": 1955,
      "Ġcal": 1956,
      "Ġstrong": 1957,
      "tend": 1958,
      "Ġweap": 1959,
      "Ġreport": 1960,
      "Ġaff": 1961,
      "ror": 1962,
      "ches": 1963,
      "Ġanyone": 1964,
      "oard": 1965,
      "All": 1966,
      "antly": 1967,
      "ĠBy": 1968,
      "eng": 1969,
      "Ġexact": 1970,
      "Ġyourself": 1971,
      "Ġwhis": 1972,
      "Ġfuture": 1973,
      "rop": 1974,
      "Ġsight": 1975,
      "Ġty": 1976,
      "ĠPr": 1977,
      "Ġdesk": 1978,
      "Ġworking": 1979,
      "Ġpartic": 1980,
      "ĠJust": 1981,
      "orted": 1982,
      "Ġnecess": 1983,
      "Ġclim": 1984,
      "Ġpulled": 1985,
      "Ġsou": 1986,
      "eor": 1987,
      "ald": 1988,
      "erc": 1989,
      "ression": 1990,
      "Ġintell": 1991,
      "Ġori": 1992,
      "Ġbas": 1993,
      "Ġprom": 1994,
      "ĠCap": 1995,
      "Ġfear": 1996,
      "ially": 1997,
      "Ġsuppose": 1998,
      "Ġheart": 1999,
      "bert": 2000,
      "Ġsays": 2001,
      "Ġhot": 2002,
      "vern": 2003,
      "Ġrealized": 2004,
      "Ġbott": 2005,
      "Ġbelow": 2006,
      "Ġdanger": 2007,
      "Ġfoot": 2008,
      "Ġpress": 2009,
      "min": 2010,
      "ĠDe": 2011,
      "Ġbuilding": 2012,
      "sed": 2013,
      ".,": 2014,
      "Ġsugg": 2015,
      "Ġclos": 2016,
      "ring": 2017,
      "ashed": 2018,
      "Ġquickly": 2019,
      "Ġyes": 2020,
      "Ġaf": 2021,
      "Ġimportant": 2022,
      "Ġchildren": 2023,
      "Ġmut": 2024,
      "ology": 2025,
      "Ġpicked": 2026,
      "Ġduring": 2027,
      "orry": 2028,
      "Ġfail": 2029,
      "Ġrequ": 2030,
      "gen": 2031,
      "Ġscient": 2032,
      "iter": 2033,
      "Ġobv": 2034,
      "Ġfinally": 2035,
      "Ġdropped": 2036,
      "iar": 2037,
      "Ġdecided": 2038,
      "rib": 2039,
      "ĠCor": 2040,
      "Ġbeaut": 2041,
      "rying": 2042,
      "Ġspoke": 2043,
      "pted": 2044,
      "Ġreturn": 2045,
      "Ġconst": 2046,
      "Ġtalking": 2047,
      "Ġmoving": 2048,
      "Ġmeant": 2049,
      "ĠCon": 2050,
      "ming": 2051,
      "iced": 2052,
      "Ġaut": 2053,
      "Ġmed": 2054,
      "Ġi": 2055,
      "Ġobs": 2056,
      "Ġbeside": 2057,
      "Ġfather": 2058,
      "roy": 2059,
      "Ġappeared": 2060,
      "meric": 2061,
      "Ġmur": 2062,
      "Ġenerg": 2063,
      "Ġwife": 2064,
      "ids": 2065,
      "Ġbrain": 2066,
      "Ġsecret": 2067,
      "ift": 2068,
      "ĠNe": 2069,
      "Ġlean": 2070,
      "Ġpleas": 2071,
      "ĠSe": 2072,
      "ĠRet": 2073,
      "ĠMiss": 2074,
      "Ġmeans": 2075,
      "sh": 2076,
      "Ġheavy": 2077,
      "rum": 2078,
      "ĠMars": 2079,
      "Ġeight": 2080,
      "though": 2081,
      "Ġdi": 2082,
      "raid": 2083,
      "Ġill": 2084,
      "Ġfingers": 2085,
      "Ġspecial": 2086,
      "Ġscreen": 2087,
      "astic": 2088,
      "Ġdoubt": 2089,
      "Do": 2090,
      "Ġsimply": 2091,
      "my": 2092,
      "amed": 2093,
      "Ġgas": 2094,
      "unch": 2095,
      "ghed": 2096,
      "owd": 2097,
      "Ġdevelop": 2098,
      "Ġbreath": 2099,
      "Ġones": 2100,
      "ky": 2101,
      "Ġlaw": 2102,
      "Ġfigure": 2103,
      "Ġsett": 2104,
      "ogn": 2105,
      "ĠQu": 2106,
      "ĠTom": 2107,
      "Ġwin": 2108,
      "ium": 2109,
      "Ġesc": 2110,
      "irt": 2111,
      "Ġopp": 2112,
      "teen": 2113,
      "Ġtest": 2114,
      "Ġhung": 2115,
      "Ġempt": 2116,
      "ested": 2117,
      "Ġbri": 2118,
      "ĠEvery": 2119,
      "Ġmere": 2120,
      "ister": 2121,
      "Ġwaited": 2122,
      "lin": 2123,
      "orld": 2124,
      "Ġworked": 2125,
      "Ġpossib": 2126,
      "overed": 2127,
      "Ġca": 2128,
      "ume": 2129,
      "Ġinformation": 2130,
      "use": 2131,
      "Ġbeginning": 2132,
      "cked": 2133,
      "Ġrace": 2134,
      "Ġsuit": 2135,
      "ĠAmeric": 2136,
      "unt": 2137,
      "Ġhop": 2138,
      "Ġexpect": 2139,
      "Ġcross": 2140,
      "Ġgrin": 2141,
      "Ġappear": 2142,
      "Ġself": 2143,
      "Ġtaking": 2144,
      "Ġdisapp": 2145,
      "sych": 2146,
      "cing": 2147,
      "Ġphys": 2148,
      ".)": 2149,
      "Ġgroup": 2150,
      "Ġlevel": 2151,
      "Ġradio": 2152,
      "Ġthr": 2153,
      "Ġsoc": 2154,
      "Ġneeded": 2155,
      "Ġminute": 2156,
      "Ġla": 2157,
      "Ġrece": 2158,
      "medi": 2159,
      "na": 2160,
      "Ġstanding": 2161,
      "Ġcomputer": 2162,
      "ral": 2163,
      "ified": 2164,
      "Ġwindow": 2165,
      "Ġhu": 2166,
      "Ġedge": 2167,
      "Ġdeal": 2168,
      "ady": 2169,
      "Ġpaper": 2170,
      "ational": 2171,
      "ishing": 2172,
      "Ġdemand": 2173,
      "lease": 2174,
      "Ġtouch": 2175,
      "Ġer": 2176,
      "Ġwhether": 2177,
      "Ġsingle": 2178,
      "Ġcover": 2179,
      "Ġwide": 2180,
      "Ġauth": 2181,
      "ĠSam": 2182,
      "Ġincl": 2183,
      "Ġhit": 2184,
      "Ġmonths": 2185,
      "Ġstuff": 2186,
      "Ġhaven": 2187,
      "Ġtoday": 2188,
      "Ġafraid": 2189,
      "aded": 2190,
      "Ġforce": 2191,
      "Ġstri": 2192,
      "ulation": 2193,
      "ĠCan": 2194,
      "Ġreturned": 2195,
      "Ġwish": 2196,
      "ĠSm": 2197,
      "So": 2198,
      "ledge": 2199,
      "ĠComm": 2200,
      "Ġarri": 2201,
      "Ġsurv": 2202,
      "Ġenergy": 2203,
      "artment": 2204,
      "Ġlate": 2205,
      "Ġrunning": 2206,
      "Ġhist": 2207,
      "Ġstepped": 2208,
      "mp": 2209,
      "Ġuniver": 2210,
      "que": 2211,
      "usion": 2212,
      "Ġeasy": 2213,
      "Ġann": 2214,
      "ĠMaybe": 2215,
      "ĠAd": 2216,
      "Ġcrew": 2217,
      "action": 2218,
      "attern": 2219,
      "Ġshut": 2220,
      "Ġrev": 2221,
      "Ġserv": 2222,
      "Ġfine": 2223,
      "Ġgrow": 2224,
      "bered": 2225,
      "ively": 2226,
      "aterial": 2227,
      "Ġcrowd": 2228,
      "Ġwatching": 2229,
      "Ġvar": 2230,
      "athe": 2231,
      "Ġskin": 2232,
      "Ġcompletely": 2233,
      "Ġorigin": 2234,
      "Ġprop": 2235,
      "Ġsimple": 2236,
      "uit": 2237,
      "bing": 2238,
      "eed": 2239,
      "ĠFrom": 2240,
      "orrow": 2241,
      "Ġsal": 2242,
      "Ġposition": 2243,
      "ox": 2244,
      "Ġshowed": 2245,
      "Ġdistance": 2246,
      "Ġnorm": 2247,
      "let": 2248,
      "Ġshad": 2249,
      "Ġz": 2250,
      "rit": 2251,
      "Ġrecogn": 2252,
      "Ġrose": 2253,
      "Ġdied": 2254,
      "Ġseems": 2255,
      "Ġmist": 2256,
      "ĠNor": 2257,
      "aim": 2258,
      "Ġnearly": 2259,
      "aul": 2260,
      "aled": 2261,
      "Ġscream": 2262,
      "Ġpract": 2263,
      "Ġest": 2264,
      "Ġcenter": 2265,
      "unk": 2266,
      "Ġpost": 2267,
      "Ġshoulder": 2268,
      "Ġobject": 2269,
      "Ġgray": 2270,
      "ĠPres": 2271,
      "Ġarea": 2272,
      "uation": 2273,
      "Ġexactly": 2274,
      "Ġattention": 2275,
      "Ġglanced": 2276,
      "Ġcre": 2277,
      "ram": 2278,
      "ĠBar": 2279,
      "Ġwarm": 2280,
      "ript": 2281,
      "eter": 2282,
      "Ġthick": 2283,
      "-#": 2284,
      "Ġpan": 2285,
      "Ġdiffic": 2286,
      "Ġsmile": 2287,
      "Ġshall": 2288,
      "Ġintellig": 2289,
      "Now": 2290,
      "lt": 2291,
      "Ġcheck": 2292,
      "ls": 2293,
      "Ġval": 2294,
      "por": 2295,
      "ĠSte": 2296,
      "iety": 2297,
      "mm": 2298,
      "ental": 2299,
      "ajor": 2300,
      "Ġdim": 2301,
      "Ġport": 2302,
      "bar": 2303,
      "Ġperfect": 2304,
      "Ġhappen": 2305,
      "Ġcarefully": 2306,
      "Ġtight": 2307,
      "Ġmount": 2308,
      "Ġtiny": 2309,
      "Ġcouple": 2310,
      "empt": 2311,
      "Ġcarried": 2312,
      "Ġrobot": 2313,
      "ingly": 2314,
      "Ġmaterial": 2315,
      "Ġant": 2316,
      "Ġbuilt": 2317,
      "ĠEx": 2318,
      "Ġsilence": 2319,
      "Ġalive": 2320,
      "Ġcat": 2321,
      "ho": 2322,
      "Ġcontinued": 2323,
      "Ġlaughed": 2324,
      "Ġlegs": 2325,
      "Ġwhatever": 2326,
      "Ġimmedi": 2327,
      "ĠRetief": 2328,
      "Ġmoon": 2329,
      "Ġled": 2330,
      "Ġkilled": 2331,
      "reet": 2332,
      "add": 2333,
      "Ġast": 2334,
      "Ġreach": 2335,
      "Ġexist": 2336,
      "igned": 2337,
      "Ġfle": 2338,
      "Ġstat": 2339,
      "ĠAm": 2340,
      "ĠOf": 2341,
      "iding": 2342,
      "Ġvol": 2343,
      "iful": 2344,
      "isf": 2345,
      "Ġevent": 2346,
      "Ġspeed": 2347,
      "Ġconv": 2348,
      "Ġcommand": 2349,
      "Ġwondered": 2350,
      "Ġbrief": 2351,
      "umped": 2352,
      "ĠPe": 2353,
      "Ġgovern": 2354,
      "rupt": 2355,
      "Ġprec": 2356,
      "ital": 2357,
      "Ġthro": 2358,
      "Ġproper": 2359,
      "Ġaware": 2360,
      "Ġtall": 2361,
      "ances": 2362,
      "Ġdrink": 2363,
      "Ġrespon": 2364,
      "Ġcommunic": 2365,
      "Ġcloud": 2366,
      "lect": 2367,
      "pper": 2368,
      "ĠGalaxy": 2369,
      "ĠLet": 2370,
      "Ġcry": 2371,
      "Ġsand": 2372,
      "Ġshot": 2373,
      "rank": 2374,
      "Ġpsych": 2375,
      "ĠCaptain": 2376,
      "Ġtor": 2377,
      "Ġprov": 2378,
      "Ġanc": 2379,
      "Ġlearned": 2380,
      "nel": 2381,
      "Ġconsider": 2382,
      "arily": 2383,
      "Ġactually": 2384,
      "aly": 2385,
      "Ġcoun": 2386,
      "Ġbox": 2387,
      "In": 2388,
      "Ġclot": 2389,
      "ule": 2390,
      "idence": 2391,
      "Ġpurp": 2392,
      "Ġorbit": 2393,
      "Ġvi": 2394,
      "Ġlips": 2395,
      "Ġage": 2396,
      "ivil": 2397,
      "ĠHere": 2398,
      "Then": 2399,
      "room": 2400,
      "ccess": 2401,
      "ought": 2402,
      "Ġcontact": 2403,
      "ĠTwo": 2404,
      "ray": 2405,
      "Ġcas": 2406,
      "Ġsaying": 2407,
      "Ġdestroy": 2408,
      "Ġtun": 2409,
      "ission": 2410,
      "Ġpointed": 2411,
      "uel": 2412,
      "Ġspot": 2413,
      "Ġpop": 2414,
      "Ġmakes": 2415,
      "Ġcab": 2416,
      "ĠCity": 2417,
      "ĠGeor": 2418,
      "ills": 2419,
      "ĠBen": 2420,
      "illy": 2421,
      "Ġherself": 2422,
      "Ġimm": 2423,
      "umbled": 2424,
      "Ġfly": 2425,
      "Ġce": 2426,
      "Ġeat": 2427,
      "ĠOnly": 2428,
      "Ġworth": 2429,
      "Ġknows": 2430,
      "Ġbroke": 2431,
      "Ġmother": 2432,
      "ency": 2433,
      "ffic": 2434,
      "ived": 2435,
      "ended": 2436,
      "zy": 2437,
      "aked": 2438,
      "Ġforg": 2439,
      "Ġempty": 2440,
      "ional": 2441,
      "Ġorgan": 2442,
      "Ġdesc": 2443,
      "Ġmagaz": 2444,
      "Ġwhose": 2445,
      "Ġguard": 2446,
      "Ġwild": 2447,
      "idly": 2448,
      "ĠSomet": 2449,
      "Ġchanged": 2450,
      "Ġhowever": 2451,
      "Ġpriv": 2452,
      "ĠScience": 2453,
      "Ġbab": 2454,
      "Ġimpos": 2455,
      "fer": 2456,
      "ĠGu": 2457,
      "Ġresult": 2458,
      "Ġnecessary": 2459,
      "Ġknowledge": 2460,
      "Ġpers": 2461,
      "Ġfaint": 2462,
      "Ġgold": 2463,
      "che": 2464,
      "Ġgen": 2465,
      "Ġsafe": 2466,
      "Ġraised": 2467,
      "ĠYour": 2468,
      "Ġadmit": 2469,
      "form": 2470,
      "Ġball": 2471,
      "angu": 2472,
      "Ġweek": 2473,
      "Ġfair": 2474,
      "aff": 2475,
      "lo": 2476,
      "Ġdirection": 2477,
      "Ġpu": 2478,
      "Ġwalk": 2479,
      "Ġprep": 2480,
      "Ġdraw": 2481,
      "Ġfir": 2482,
      "Ġbare": 2483,
      "Ġroad": 2484,
      "Ġfool": 2485,
      "icated": 2486,
      "Ġoften": 2487,
      "Ġthird": 2488,
      "rap": 2489,
      "Ġlearn": 2490,
      "Ġadded": 2491,
      "Ġrese": 2492,
      "Ġdust": 2493,
      "Ġsch": 2494,
      "Let": 2495,
      "Ġtrees": 2496,
      "ney": 2497,
      ".'": 2498,
      "ĠAny": 2499,
      "Ġremembered": 2500,
      "Ġdog": 2501,
      "Ġsea": 2502,
      "gram": 2503,
      "Ġround": 2504,
      "Ġsupposed": 2505,
      "Ġanswered": 2506,
      "airs": 2507,
      "Ġengine": 2508,
      "reg": 2509,
      "Ġaren": 2510,
      "uss": 2511,
      "My": 2512,
      "Ġcertainly": 2513,
      "Ġhon": 2514,
      "Ġinstead": 2515,
      "Ġgeneral": 2516,
      "cher": 2517,
      "rent": 2518,
      "Ġproject": 2519,
      "Ġfinished": 2520,
      "Ġdoctor": 2521,
      "Ġpublic": 2522,
      "com": 2523,
      "Ġcomes": 2524,
      "iddle": 2525,
      "Ġcolon": 2526,
      "Ġwood": 2527,
      "Ġcannot": 2528,
      "Ġsomewhere": 2529,
      "Ġhurt": 2530,
      "ĠCent": 2531,
      "cess": 2532,
      "iece": 2533,
      "Ġships": 2534,
      "Ġfilled": 2535,
      "Ġfriends": 2536,
      "Ġclass": 2537,
      "Ġstreet": 2538,
      "Ġpick": 2539,
      "Ġign": 2540,
      "ivid": 2541,
      "ining": 2542,
      "joy": 2543,
      "Ġpattern": 2544,
      "itude": 2545,
      "Ġgri": 2546,
      "Ġpushed": 2547,
      "Ġflat": 2548,
      "Ġshrug": 2549,
      "ager": 2550,
      "Ġsituation": 2551,
      "ĠChar": 2552,
      "itive": 2553,
      "Ġpen": 2554,
      "itions": 2555,
      "echan": 2556,
      "ears": 2557,
      "Ġcharac": 2558,
      "Ġfifty": 2559,
      "Ġquar": 2560,
      "Ġlights": 2561,
      "Ġsuccess": 2562,
      "Ġsmo": 2563,
      "Ġtown": 2564,
      "Ġearth": 2565,
      "Ġgrew": 2566,
      "Ġgrav": 2567,
      "ĠFin": 2568,
      "Ġident": 2569,
      "Ġthirty": 2570,
      "io": 2571,
      "ration": 2572,
      "Ġmotion": 2573,
      "Ġcompl": 2574,
      "Ġaccept": 2575,
      "ĠEng": 2576,
      "ask": 2577,
      "Ġnone": 2578,
      "iod": 2579,
      "kay": 2580,
      "asy": 2581,
      "ĠGeorge": 2582,
      "Ġtruth": 2583,
      "Ġcreature": 2584,
      "itten": 2585,
      "Ġsorry": 2586,
      "Ġson": 2587,
      "Ġauthor": 2588,
      "Ġodd": 2589,
      "Ġdetail": 2590,
      "rodu": 2591,
      "well": 2592,
      "Ġnovel": 2593,
      "Ġeffort": 2594,
      "Ġwalls": 2595,
      "erm": 2596,
      "Ġacce": 2597,
      "mbers": 2598,
      "Ġdozen": 2599,
      "ĠPerhaps": 2600,
      "co": 2601,
      "inary": 2602,
      "ĠAb": 2603,
      "Ġnar": 2604,
      "go": 2605,
      "val": 2606,
      "Ġhat": 2607,
      "Ġpicture": 2608,
      "Ġmot": 2609,
      "Ġcivil": 2610,
      "ĠMcK": 2611,
      "Ġtouched": 2612,
      "Ġcolor": 2613,
      "iliar": 2614,
      "ept": 2615,
      "acks": 2616,
      "ĠWas": 2617,
      "Ġsize": 2618,
      "Ġcost": 2619,
      "Ġneck": 2620,
      "Ġearly": 2621,
      "Ġlangu": 2622,
      "entle": 2623,
      "olved": 2624,
      "Ġluck": 2625,
      "sit": 2626,
      "Ġtot": 2627,
      "vered": 2628,
      "Ġund": 2629,
      "Ġslightly": 2630,
      "Ġexpected": 2631,
      "ham": 2632,
      "Ġbom": 2633,
      "Ġtow": 2634,
      "Ġsick": 2635,
      "ett": 2636,
      "ĠSec": 2637,
      "Ġmerely": 2638,
      "vey": 2639,
      "Ġfil": 2640,
      "Ġpock": 2641,
      "Ġissue": 2642,
      "pered": 2643,
      "Ġhall": 2644,
      "ĠMag": 2645,
      "Ġconsc": 2646,
      "outed": 2647,
      "Ġsometimes": 2648,
      "con": 2649,
      "Ġnormal": 2650,
      "ech": 2651,
      "Ġweeks": 2652,
      "Of": 2653,
      "rect": 2654,
      "Ġnice": 2655,
      "mosp": 2656,
      "ocked": 2657,
      "Ġanyway": 2658,
      "Ġonto": 2659,
      "Ġsitting": 2660,
      "port": 2661,
      "ĠOh": 2662,
      "Ġmemory": 2663,
      "Ġstation": 2664,
      "ceed": 2665,
      "Ġenjoy": 2666,
      "Ġplanets": 2667,
      "Ġapparent": 2668,
      "lish": 2669,
      "Ġrocket": 2670,
      "Ġlaugh": 2671,
      "ĠJack": 2672,
      "aped": 2673,
      "Ġur": 2674,
      "Ġspread": 2675,
      "Ġprocess": 2676,
      "ĠVen": 2677,
      "Ġmechan": 2678,
      "vert": 2679,
      "Ġrub": 2680,
      "Ġsilent": 2681,
      "Ġfurther": 2682,
      "Ġhistory": 2683,
      "Ġautom": 2684,
      "Ġcaptain": 2685,
      "St": 2686,
      "Ġcorrid": 2687,
      "Ġquestions": 2688,
      "),": 2689,
      "Ġsubject": 2690,
      "hand": 2691,
      "Ġgovernment": 2692,
      "Ġbell": 2693,
      "Ġatmosp": 2694,
      "Ġshrugged": 2695,
      "attle": 2696,
      "Ġstret": 2697,
      "Ġhappy": 2698,
      "iting": 2699,
      "acing": 2700,
      "kes": 2701,
      "Ġlog": 2702,
      "oved": 2703,
      "Ġtravel": 2704,
      "Ġweight": 2705,
      "cle": 2706,
      "Ġimpossible": 2707,
      "Ġaction": 2708,
      "Ġthoughts": 2709,
      "Ġmis": 2710,
      "Ġlived": 2711,
      "Ġnews": 2712,
      "Ġhesit": 2713,
      "Ġheat": 2714,
      "ĠOld": 2715,
      "Ġtom": 2716,
      "ĠWorld": 2717,
      "Ġhuge": 2718,
      "Is": 2719,
      "aching": 2720,
      "Ġstaring": 2721,
      "ĠSch": 2722,
      "Ġclean": 2723,
      "Ġanimal": 2724,
      "ighed": 2725,
      "ength": 2726,
      "Ġplease": 2727,
      "alth": 2728,
      "Ġcell": 2729,
      "Ġalthough": 2730,
      "ruct": 2731,
      "Ġsatisf": 2732,
      "Ġnoticed": 2733,
      "Ġcy": 2734,
      "Ġdrive": 2735,
      "Ġbroken": 2736,
      "acy": 2737,
      "Ġcomfort": 2738,
      "Ġfit": 2739,
      "Ġtrip": 2740,
      "ĠPaul": 2741,
      "Ġarg": 2742,
      "Ġsearch": 2743,
      "Ġperiod": 2744,
      "ĠX": 2745,
      "Ġmil": 2746,
      "Ġbeautiful": 2747,
      "erve": 2748,
      "Ġrepe": 2749,
      "ĠSl": 2750,
      "avor": 2751,
      "Ġpil": 2752,
      "Ġlie": 2753,
      "Ġuniverse": 2754,
      "ĠFl": 2755,
      "ĠOut": 2756,
      "Ġcried": 2757,
      "Ġgest": 2758,
      "ĠKe": 2759,
      "Ġgame": 2760,
      "owers": 2761,
      "ĠTheir": 2762,
      "Ġrid": 2763,
      "Ġviol": 2764,
      "ires": 2765,
      "wh": 2766,
      "Ġtub": 2767,
      "ecause": 2768,
      "Ġmention": 2769,
      "bl": 2770,
      "Ġvan": 2771,
      "Ġrap": 2772,
      "ught": 2773,
      "Ġmiddle": 2774,
      "rif": 2775,
      "ann": 2776,
      "Ġseconds": 2777,
      "Ġsnapped": 2778,
      "Ġcru": 2779,
      "bled": 2780,
      "Ġsmell": 2781,
      "ĠJoe": 2782,
      "Ġcult": 2783,
      "Ġloud": 2784,
      "ĠCol": 2785,
      "Ġweren": 2786,
      "uls": 2787,
      "Ġreading": 2788,
      "Ġhun": 2789,
      "Ġleaned": 2790,
      "Ġthroat": 2791,
      "Ġpersonal": 2792,
      "emy": 2793,
      "wise": 2794,
      "usted": 2795,
      "ries": 2796,
      "Ġdifficult": 2797,
      "ching": 2798,
      "Ġjud": 2799,
      "Ġholding": 2800,
      "Ġstone": 2801,
      "Ġpurpose": 2802,
      "tering": 2803,
      "Ġfamily": 2804,
      "Ġfem": 2805,
      "ĠWhere": 2806,
      "Ġaccom": 2807,
      "Ġforget": 2808,
      "Ġdarkness": 2809,
      "Ġweak": 2810,
      "ata": 2811,
      "Ġsuggest": 2812,
      "fessor": 2813,
      "une": 2814,
      "etic": 2815,
      "Ġshouted": 2816,
      "rated": 2817,
      "Ġut": 2818,
      "Ġshape": 2819,
      "Ġexplained": 2820,
      "Ġentered": 2821,
      "Ġnose": 2822,
      "Ġpaused": 2823,
      "ators": 2824,
      "Ġincre": 2825,
      "ma": 2826,
      "Ġindivid": 2827,
      "kn": 2828,
      "Ġcatch": 2829,
      "Ġgoes": 2830,
      "Ġmark": 2831,
      "aughter": 2832,
      "inite": 2833,
      "Ġmembers": 2834,
      "Ġdisp": 2835,
      "Ġattempt": 2836,
      "Ġsomehow": 2837,
      "Ġinclud": 2838,
      "Ġmad": 2839,
      "Ġble": 2840,
      "Ġfat": 2841,
      "Ġlifted": 2842,
      "ological": 2843,
      "Ġhardly": 2844,
      "Ġhig": 2845,
      "mon": 2846,
      "Ġequip": 2847,
      "omed": 2848,
      "erved": 2849,
      "Ġinstrum": 2850,
      "ys": 2851,
      "ĠMoon": 2852,
      "Ġlock": 2853,
      "Ġnatural": 2854,
      "ĠThese": 2855,
      "Ġfa": 2856,
      "Ġdrew": 2857,
      "Ġgentle": 2858,
      "Ġeasily": 2859,
      "Ġpack": 2860,
      "Ġfix": 2861,
      "Ġmir": 2862,
      "Ġprogram": 2863,
      "oned": 2864,
      "esh": 2865,
      "ĠMe": 2866,
      "Ġ:": 2867,
      "inn": 2868,
      "ker": 2869,
      "Ġmine": 2870,
      "icle": 2871,
      "Ġsour": 2872,
      "cent": 2873,
      "Ġusing": 2874,
      "Ġdiscovered": 2875,
      "Ġhang": 2876,
      "ague": 2877,
      "ival": 2878,
      "ĠEn": 2879,
      "Ġattack": 2880,
      "off": 2881,
      "Ġfright": 2882,
      "Ġbod": 2883,
      "atory": 2884,
      "ĠJim": 2885,
      "Ġequipment": 2886,
      "Ġyellow": 2887,
      "ĠMrs": 2888,
      "Ġris": 2889,
      "eneath": 2890,
      "ĠSmith": 2891,
      "ĠVenus": 2892,
      "arm": 2893,
      "Ġleaving": 2894,
      "Ġfro": 2895,
      "Ġcloser": 2896,
      "ety": 2897,
      "lie": 2898,
      "Ġimmediately": 2899,
      "Ġatmosphere": 2900,
      "Ġwhispered": 2901,
      "oint": 2902,
      "Ġexplain": 2903,
      "Ġcorner": 2904,
      "what": 2905,
      "Ġbroad": 2906,
      "Ġfollow": 2907,
      "Ġindividual": 2908,
      "Ġexpression": 2909,
      "Good": 2910,
      "Just": 2911,
      "iment": 2912,
      "ĠEl": 2913,
      "Ġcountry": 2914,
      "Ġsharp": 2915,
      "Ġeveryone": 2916,
      "Ġenc": 2917,
      "ground": 2918,
      "Ġtreat": 2919,
      "raph": 2920,
      "Ġchest": 2921,
      "Ġancient": 2922,
      "Ġshoulders": 2923,
      "Ġbul": 2924,
      "Ġwriting": 2925,
      "Ġspaces": 2926,
      "ooking": 2927,
      "Ġfre": 2928,
      "Ġpot": 2929,
      "resh": 2930,
      "inct": 2931,
      "Ġagreed": 2932,
      "inking": 2933,
      "Ġteeth": 2934,
      "Ġinstant": 2935,
      "ilar": 2936,
      "Where": 2937,
      "Ġtree": 2938,
      "ĠSha": 2939,
      "Ġmagn": 2940,
      "ĠPresident": 2941,
      "Ġremained": 2942,
      "Ġnon": 2943,
      "Ġsomebody": 2944,
      "ĠInst": 2945,
      "Ġbird": 2946,
      "Ġusual": 2947,
      "Ġquietly": 2948,
      "ĠCal": 2949,
      ").": 2950,
      "udd": 2951,
      "Ġworry": 2952,
      "Ġsold": 2953,
      "hel": 2954,
      "ulated": 2955,
      "erence": 2956,
      "Ġdear": 2957,
      "Ġcarry": 2958,
      "Ġcomb": 2959,
      "Ġbase": 2960,
      "Ġbal": 2961,
      "Ġdemanded": 2962,
      "alley": 2963,
      "Ġstruck": 2964,
      "Ġpiece": 2965,
      "Look": 2966,
      "Ġought": 2967,
      "Ġstate": 2968,
      "but": 2969,
      "Ġlanguage": 2970,
      "oming": 2971,
      "Ġinterested": 2972,
      "Ġsounds": 2973,
      "Ġspl": 2974,
      "Ġ;": 2975,
      "ĠOnce": 2976,
      "ek": 2977,
      "ruction": 2978,
      "Ġswung": 2979,
      "Ġmessage": 2980,
      "Ġprim": 2981,
      "Ġcovered": 2982,
      "Ġfan": 2983,
      "Ġfant": 2984,
      "Ġbeneath": 2985,
      "Ġglad": 2986,
      "Ġfrown": 2987,
      "Ġweapon": 2988,
      "Ġtelling": 2989,
      "idden": 2990,
      "Ġseven": 2991,
      "Ġschool": 2992,
      "Ġboard": 2993,
      "ĠHel": 2994,
      "Ġpal": 2995,
      "Ġfinal": 2996,
      "izing": 2997,
      "ĠWest": 2998,
      "cer": 2999,
      "alled": 3000,
      "ris": 3001,
      "urally": 3002,
      "Ġmachines": 3003,
      "Ġreplied": 3004,
      "ĠFirst": 3005,
      "ils": 3006,
      "Ġblind": 3007,
      "eless": 3008,
      "Ġarran": 3009,
      "Ġoccas": 3010,
      "Ġsighed": 3011,
      "Ġsave": 3012,
      "Ġdamn": 3013,
      "aur": 3014,
      "ules": 3015,
      "Ġplain": 3016,
      "Ġpolice": 3017,
      "Ġoriginal": 3018,
      "een": 3019,
      "yn": 3020,
      "Ġconvers": 3021,
      "Ġblank": 3022,
      "ĠSun": 3023,
      "Ġturning": 3024,
      "Ġstro": 3025,
      "ĠPh": 3026,
      "Ġcoff": 3027,
      "par": 3028,
      "ĠFred": 3029,
      "asc": 3030,
      "Ġtired": 3031,
      "Ġtransp": 3032,
      "af": 3033,
      "rist": 3034,
      "Ġpale": 3035,
      "Ġspent": 3036,
      "sidered": 3037,
      "ĠRobert": 3038,
      "lling": 3039,
      "Ġpressure": 3040,
      "Ġgod": 3041,
      "Ġforced": 3042,
      "ĠYes": 3043,
      "urity": 3044,
      "ĠAg": 3045,
      "Ġ!": 3046,
      "ĠWho": 3047,
      "iber": 3048,
      "ĠFar": 3049,
      "Ġorders": 3050,
      "Ġtomorrow": 3051,
      "ĠOur": 3052,
      "Ġways": 3053,
      "She": 3054,
      "hod": 3055,
      "Ġvill": 3056,
      "Ġbrother": 3057,
      "Ġdut": 3058,
      "rec": 3059,
      "Ġpoor": 3060,
      "ĠHad": 3061,
      "Ġmajor": 3062,
      "Ġpocket": 3063,
      "vin": 3064,
      "Ġpath": 3065,
      "olute": 3066,
      "Ġnobody": 3067,
      "ivers": 3068,
      "Ġfinger": 3069,
      "Ġlooks": 3070,
      "Ġadj": 3071,
      "Ġlabor": 3072,
      "Ġloose": 3073,
      "Ġnature": 3074,
      "Ġlines": 3075,
      "Ġtrick": 3076,
      "ĠGer": 3077,
      "Ġwrite": 3078,
      "Ġparty": 3079,
      "attered": 3080,
      "Ġbeam": 3081,
      "Ġknowing": 3082,
      "Ġgro": 3083,
      "Ġstruct": 3084,
      "omic": 3085,
      "Ġgrowing": 3086,
      "Ġdifference": 3087,
      "Ġfamiliar": 3088,
      "uct": 3089,
      "Ġexperience": 3090,
      "noon": 3091,
      "Ġcig": 3092,
      "Ġgrass": 3093,
      "Ġmagazine": 3094,
      "ecially": 3095,
      "aze": 3096,
      "Ġconsidered": 3097,
      "Ġgrinned": 3098,
      "Ġoccur": 3099,
      "Ġcamp": 3100,
      "Ġthrew": 3101,
      "lessly": 3102,
      "ander": 3103,
      "Ġmaster": 3104,
      "icking": 3105,
      "Ġlength": 3106,
      "Ġpound": 3107,
      "Ġlives": 3108,
      "ĠGl": 3109,
      "Ġtent": 3110,
      "met": 3111,
      "Ġpred": 3112,
      "Ġpun": 3113,
      "ading": 3114,
      "fl": 3115,
      "Ġevening": 3116,
      "Ġton": 3117,
      "Ġnumb": 3118,
      "Ġlikely": 3119,
      "Ġwritten": 3120,
      "istic": 3121,
      "rel": 3122,
      "ĠWal": 3123,
      "Ġfirm": 3124,
      "Ġshock": 3125,
      "iently": 3126,
      "Ġmusic": 3127,
      "Ġsquare": 3128,
      "Ġforth": 3129,
      "Ġnerv": 3130,
      "Ġcorridor": 3131,
      "aven": 3132,
      "itary": 3133,
      "ius": 3134,
      "het": 3135,
      "Ġdry": 3136,
      "Who": 3137,
      "Ġmeas": 3138,
      "Ġanimals": 3139,
      "Ġaside": 3140,
      "Ġbottom": 3141,
      "pes": 3142,
      "Ġplastic": 3143,
      "Ġpeace": 3144,
      "Ġbodies": 3145,
      "Ġproblems": 3146,
      "Ġremind": 3147,
      "Ġrain": 3148,
      "Ġworlds": 3149,
      "ait": 3150,
      "come": 3151,
      "otten": 3152,
      "Ġconcer": 3153,
      "Ġwants": 3154,
      "Ġstreng": 3155,
      "Ġwit": 3156,
      "ĠStar": 3157,
      "Ġrealize": 3158,
      "Ġmanaged": 3159,
      "Ġweapons": 3160,
      "Ġworse": 3161,
      "ĠNothing": 3162,
      "Ġallowed": 3163,
      "ĠDav": 3164,
      "Ġsolid": 3165,
      "Ġobvious": 3166,
      "ĠMore": 3167,
      "bor": 3168,
      "ĠSk": 3169,
      "mber": 3170,
      "Ġpaid": 3171,
      "Ġcabin": 3172,
      "umn": 3173,
      "anet": 3174,
      "bbed": 3175,
      "Ġflight": 3176,
      "rible": 3177,
      "ersen": 3178,
      "Ġactiv": 3179,
      "Ġcreatures": 3180,
      "ĠMac": 3181,
      "Ġrout": 3182,
      "for": 3183,
      "Ġbi": 3184,
      "Ġnote": 3185,
      "Ġring": 3186,
      "Ġrelax": 3187,
      "ees": 3188,
      "Ġsmooth": 3189,
      "ina": 3190,
      "Ġoffer": 3191,
      "lier": 3192,
      "Ġconscious": 3193,
      "llen": 3194,
      "raw": 3195,
      "Ġlanding": 3196,
      "Ġaud": 3197,
      "Ġsteps": 3198,
      "gged": 3199,
      "Ġcopy": 3200,
      "cil": 3201,
      "Ġdangerous": 3202,
      "Ġtalked": 3203,
      "Ġstudy": 3204,
      "Ġphot": 3205,
      "Ġplant": 3206,
      "ays": 3207,
      "eneral": 3208,
      "Ġlit": 3209,
      "Your": 3210,
      "Ġbaby": 3211,
      "Ġears": 3212,
      "Ġmid": 3213,
      "Ġinteresting": 3214,
      "Ġho": 3215,
      "Ġseat": 3216,
      "Ġconn": 3217,
      "ĠComp": 3218,
      "Ġescape": 3219,
      "ĠSomething": 3220,
      "ĠMor": 3221,
      "isher": 3222,
      "Ġobviously": 3223,
      "Ġthreat": 3224,
      "Ġplaces": 3225,
      "Ġtakes": 3226,
      "Ġhyp": 3227,
      "Ġneare": 3228,
      "Ġfavor": 3229,
      "ĠInd": 3230,
      "Ġwalking": 3231,
      "ping": 3232,
      "Ġhole": 3233,
      "lected": 3234,
      "Ġindeed": 3235,
      "ĠMcKie": 3236,
      "ilities": 3237,
      "Ġspir": 3238,
      "ĠYet": 3239,
      "Ġunless": 3240,
      "Ġlower": 3241,
      "ented": 3242,
      "Ġsurprised": 3243,
      "Sure": 3244,
      "Ġinvent": 3245,
      "olution": 3246,
      "ode": 3247,
      "Ġcommon": 3248,
      "ĠRed": 3249,
      "gress": 3250,
      "ĠTr": 3251,
      "imate": 3252,
      "Ġbeat": 3253,
      "Ġafternoon": 3254,
      "Ġfollowing": 3255,
      "Ġstrugg": 3256,
      "Ġflesh": 3257,
      "Ġanybody": 3258,
      "Ġhandle": 3259,
      "Ġassum": 3260,
      "Ġlisten": 3261,
      "Ġcalm": 3262,
      "Ġseeing": 3263,
      "ipping": 3264,
      "Ġwhom": 3265,
      "Ġhus": 3266,
      "Ġgently": 3267,
      "ension": 3268,
      "Maybe": 3269,
      "Ġkid": 3270,
      "ĠDid": 3271,
      "ĠOther": 3272,
      "Ġpossibly": 3273,
      "band": 3274,
      "Ġrespect": 3275,
      "Ġgiving": 3276,
      "Ġfaces": 3277,
      "ĠSil": 3278,
      "Ġphone": 3279,
      "Ġda": 3280,
      "Ġdata": 3281,
      "Ġcast": 3282,
      "ok": 3283,
      "Ġcraw": 3284,
      "Ġgar": 3285,
      "ential": 3286,
      "ĠGrimes": 3287,
      "Ġgravity": 3288,
      "Ġben": 3289,
      "Ġesp": 3290,
      "Ġrolled": 3291,
      "Ġblock": 3292,
      "Than": 3293,
      "Ġmic": 3294,
      "Ġthrow": 3295,
      "ify": 3296,
      "Ġfailed": 3297,
      "Ġseries": 3298,
      "line": 3299,
      "cha": 3300,
      "Ġbrown": 3301,
      "Ġpuzz": 3302,
      "Ġneither": 3303,
      "pha": 3304,
      "rance": 3305,
      "Ġinvest": 3306,
      "Ġburst": 3307,
      "zed": 3308,
      "irth": 3309,
      "Ġclaim": 3310,
      "Ġcomplex": 3311,
      "Ġsteel": 3312,
      "Ġestab": 3313,
      "Ġextra": 3314,
      "oes": 3315,
      "Ġworks": 3316,
      "Ġcondition": 3317,
      "Ġsimilar": 3318,
      "Ġgiant": 3319,
      "Ġcust": 3320,
      "icate": 3321,
      "Ġbag": 3322,
      "iron": 3323,
      "Ġhumans": 3324,
      "oms": 3325,
      "Ġreve": 3326,
      "omes": 3327,
      "anks": 3328,
      "Ġgets": 3329,
      "Ġcharge": 3330,
      "idge": 3331,
      "Ġice": 3332,
      "Ġfellow": 3333,
      "Ġapart": 3334,
      "aine": 3335,
      "Ġavail": 3336,
      "Ġcam": 3337,
      "asted": 3338,
      "Ġsettled": 3339,
      "Come": 3340,
      "amm": 3341,
      "Ġriver": 3342,
      "Ġnarrow": 3343,
      "Ġnamed": 3344,
      "Ġphysical": 3345,
      "Ġdesp": 3346,
      "Ġemotion": 3347,
      "Ġwriters": 3348,
      "Ġdamned": 3349,
      "cend": 3350,
      "onsc": 3351,
      "Ġpressed": 3352,
      "Ġtransl": 3353,
      "Ġchoice": 3354,
      "urn": 3355,
      "Ġtype": 3356,
      "rs": 3357,
      "ĠLike": 3358,
      "Ġdirectly": 3359,
      "Ġyours": 3360,
      "ounced": 3361,
      "Ġcompany": 3362,
      "Ġarrived": 3363,
      "ĠTerran": 3364,
      "ĠArt": 3365,
      "ushing": 3366,
      "ips": 3367,
      "ĠCont": 3368,
      "ĠFiction": 3369,
      "Ġdeg": 3370,
      "Ġclothes": 3371,
      "Ġaccident": 3372,
      "Ġstream": 3373,
      "Ġforty": 3374,
      "Ġsoftly": 3375,
      "Ġbutton": 3376,
      "Ġuns": 3377,
      "Ġmeaning": 3378,
      "ales": 3379,
      "Ġappl": 3380,
      "Ġstiff": 3381,
      "ĠBook": 3382,
      "Ġentirely": 3383,
      "Ġslipped": 3384,
      "Ġkey": 3385,
      "Ġstrength": 3386,
      "Ġnoise": 3387,
      "Ġwore": 3388,
      "Ġapparently": 3389,
      "hood": 3390,
      "Ġsurround": 3391,
      "Ġsurprise": 3392,
      "Ġhide": 3393,
      "Are": 3394,
      "ises": 3395,
      "Ġstick": 3396,
      "ularly": 3397,
      "Ġcharacter": 3398,
      "Ġadm": 3399,
      "Ġcoo": 3400,
      "ĠWar": 3401,
      "ĠAmerican": 3402,
      "cell": 3403,
      "Ġbuy": 3404,
      "acted": 3405,
      "Ġrough": 3406,
      "ĠIts": 3407,
      "Ġnotice": 3408,
      "Ġenv": 3409,
      "Ġrange": 3410,
      "ites": 3411,
      "imin": 3412,
      "ector": 3413,
      "iform": 3414,
      "Ġordered": 3415,
      "Ġboys": 3416,
      "Ġlocal": 3417,
      "Ġconce": 3418,
      "Ġcoffee": 3419,
      "bell": 3420,
      "set": 3421,
      "itched": 3422,
      "ĠMary": 3423,
      "Ġunf": 3424,
      "Ġband": 3425,
      "Ġpolit": 3426,
      "Ġprice": 3427,
      "Ġvisit": 3428,
      "Ġsuff": 3429,
      "Ġswitch": 3430,
      "Ġchecked": 3431,
      "Ġcapt": 3432,
      "ĠMost": 3433,
      "Ġcorrect": 3434,
      "Ġdig": 3435,
      "Ġhost": 3436,
      "azed": 3437,
      "Ġmethod": 3438,
      "Ġsounded": 3439,
      "ĠThree": 3440,
      "reme": 3441,
      "ĠHal": 3442,
      "Ġgirls": 3443,
      "Ġgrim": 3444,
      "Ġofficer": 3445,
      "Ġbull": 3446,
      "Ġdoll": 3447,
      "xy": 3448,
      "Ġopening": 3449,
      "ĠBill": 3450,
      "Ġpilot": 3451,
      "Ġtheory": 3452,
      "Ġstup": 3453,
      "under": 3454,
      "Ġrepres": 3455,
      "Ġscar": 3456,
      "aker": 3457,
      "oom": 3458,
      "ĠFrank": 3459,
      "gu": 3460,
      "Ġevidence": 3461,
      "Ġparticular": 3462,
      "ĠStreet": 3463,
      "ĠSince": 3464,
      "Ġenemy": 3465,
      "Ġbusy": 3466,
      "Ġvast": 3467,
      "Ġeverybody": 3468,
      "Ġhigher": 3469,
      "Ġdistant": 3470,
      "Ġstock": 3471,
      "Ġposs": 3472,
      "ensive": 3473,
      "ĠHarry": 3474,
      "oices": 3475,
      "Ġdin": 3476,
      "Ġthrust": 3477,
      "Ġmail": 3478,
      "ĠHave": 3479,
      "ĠStill": 3480,
      "Ġdrop": 3481,
      "Ġtemper": 3482,
      "ription": 3483,
      "Ġintelligent": 3484,
      "Ġbound": 3485,
      "Ġkit": 3486,
      "antic": 3487,
      "For": 3488,
      "Ġing": 3489,
      "Ġcool": 3490,
      "ĠPubl": 3491,
      "ĠSim": 3492,
      "ĠCha": 3493,
      "ashing": 3494,
      "elve": 3495,
      "ĠGeneral": 3496,
      "Ġavailable": 3497,
      "Ġaboard": 3498,
      "Ġchief": 3499,
      "ĠSpace": 3500,
      "Ġshoot": 3501,
      "Ġclimbed": 3502,
      "Ġoppos": 3503,
      "Ġdiscuss": 3504,
      "Ġpi": 3505,
      "ĠHell": 3506,
      "Ġsepar": 3507,
      "Ġfifteen": 3508,
      "Ġconcent": 3509,
      "Ġoccup": 3510,
      "Ġpossess": 3511,
      "atures": 3512,
      "Ġcrack": 3513,
      "Ġserious": 3514,
      "Ġbother": 3515,
      "As": 3516,
      "Ġfold": 3517,
      "Ġegg": 3518,
      "uries": 3519,
      "Ġemerg": 3520,
      "ruptly": 3521,
      "Ġwave": 3522,
      "Ġfresh": 3523,
      "Ġtit": 3524,
      "Ġliked": 3525,
      "bo": 3526,
      "ĠJe": 3527,
      "Ġprivate": 3528,
      "Ġlad": 3529,
      "lu": 3530,
      "ĠGar": 3531,
      "ĠGood": 3532,
      "Ġbeings": 3533,
      "Ġimagine": 3534,
      "ai": 3535,
      "work": 3536,
      "Ġver": 3537,
      "Ġtail": 3538,
      "Ġliter": 3539,
      "Ġlistening": 3540,
      "itiz": 3541,
      "Ġprof": 3542,
      "Ġhate": 3543,
      "Ġ#-": 3544,
      "five": 3545,
      "Ġbank": 3546,
      "eled": 3547,
      "Ġplus": 3548,
      "ĠSy": 3549,
      "oles": 3550,
      "Ġgalaxy": 3551,
      "Ġjer": 3552,
      "Ġstore": 3553,
      "ĠSw": 3554,
      "Ġletter": 3555,
      "rench": 3556,
      "ĠDan": 3557,
      "Ġisland": 3558,
      "ĠJer": 3559,
      "Ġprofess": 3560,
      "Ġdeterm": 3561,
      "Ġshadow": 3562,
      "Ġprison": 3563,
      "Ġcub": 3564,
      "ĠPo": 3565,
      "Ġabsolute": 3566,
      "Ġpure": 3567,
      "Ġslid": 3568,
      "Ġexistence": 3569,
      "Ġsomewhat": 3570,
      "Ġtrust": 3571,
      "aste": 3572,
      "Ġnames": 3573,
      "ols": 3574,
      "Ġaccount": 3575,
      "Ġmuttered": 3576,
      "ĠCo": 3577,
      "Ġearlier": 3578,
      "Ġsociety": 3579,
      "Ġtank": 3580,
      "Ġlying": 3581,
      "Ġmeeting": 3582,
      "Ġbent": 3583,
      "Ġbattle": 3584,
      "Ġlose": 3585,
      "sing": 3586,
      "Ġlarger": 3587,
      "Ġplaced": 3588,
      "ability": 3589,
      "Ġsmoke": 3590,
      "Ġcarrying": 3591,
      "Ġbow": 3592,
      "Ġvac": 3593,
      "Ġcolumn": 3594,
      "Ġregard": 3595,
      "Ġspeaking": 3596,
      "Ġcrazy": 3597,
      "raft": 3598,
      "ĠGreat": 3599,
      "aret": 3600,
      "Ġminds": 3601,
      "known": 3602,
      "aid": 3603,
      "that": 3604,
      "Ġmyster": 3605,
      "nan": 3606,
      "Did": 3607,
      "ford": 3608,
      "ĠRus": 3609,
      "Ġchem": 3610,
      "Ġcentury": 3611,
      "Ġstudied": 3612,
      "Ġespecially": 3613,
      "Ġinsp": 3614,
      "ĠSol": 3615,
      "ĠRob": 3616,
      "ĠPlease": 3617,
      "Ġdouble": 3618,
      "Ġanywhere": 3619,
      "can": 3620,
      "aming": 3621,
      "Ġdistur": 3622,
      "Ġrepeated": 3623,
      "Ġactual": 3624,
      "Ġunderstood": 3625,
      "Ġstom": 3626,
      "Ġfac": 3627,
      "Ġcircle": 3628,
      "Ġintrodu": 3629,
      "inting": 3630,
      "Ġdiv": 3631,
      "Ġsatell": 3632,
      "stand": 3633,
      "Ġremark": 3634,
      "ulous": 3635,
      "you": 3636,
      "Ġcred": 3637,
      "Ġservice": 3638,
      "Ġenorm": 3639,
      "Ġconcl": 3640,
      "Ġstir": 3641,
      "Ġanaly": 3642,
      "inked": 3643,
      "oring": 3644,
      "arden": 3645,
      "ording": 3646,
      "Ġsupply": 3647,
      "Ġexplos": 3648,
      "ĠAnother": 3649,
      "gy": 3650,
      "rate": 3651,
      "Ġdesper": 3652,
      "Ġpleasure": 3653,
      "Ġreaction": 3654,
      "ique": 3655,
      "ĠFinally": 3656,
      "ĠLord": 3657,
      "Ġdisappeared": 3658,
      "Ġnorth": 3659,
      "eal": 3660,
      "enn": 3661,
      "Ġinner": 3662,
      "ĠDu": 3663,
      "Ġfeed": 3664,
      "Ġparts": 3665,
      "ests": 3666,
      "Ġcause": 3667,
      "Ġblow": 3668,
      "Ġangry": 3669,
      "Ġuniform": 3670,
      "Ġwearing": 3671,
      "ammed": 3672,
      "roud": 3673,
      "ĠHowever": 3674,
      "oe": 3675,
      "Ġsuggested": 3676,
      "uman": 3677,
      "ĠĠĠ": 3678,
      "Ġshif": 3679,
      "ga": 3680,
      "Ġlistened": 3681,
      "actic": 3682,
      "Ġmicro": 3683,
      "Ġhappens": 3684,
      "ĠRoan": 3685,
      "Ġforgotten": 3686,
      "omen": 3687,
      "Ġhoriz": 3688,
      "Ġusually": 3689,
      "Ġfuel": 3690,
      "Ġfighting": 3691,
      "ĠProfessor": 3692,
      "Ġcryst": 3693,
      "Ġconversation": 3694,
      "ula": 3695,
      "ops": 3696,
      "Ġspecies": 3697,
      "Ġresearch": 3698,
      "ication": 3699,
      "Ġheads": 3700,
      "Ġspo": 3701,
      "Ġincred": 3702,
      "Ġbitter": 3703,
      "Ġmovement": 3704,
      "Ġcurrent": 3705,
      "Ġid": 3706,
      "ĠWil": 3707,
      "ev": 3708,
      "Ġsection": 3709,
      "Ġdecision": 3710,
      "Ġagree": 3711,
      "Can": 3712,
      "Ġforest": 3713,
      "Ġmurm": 3714,
      "Ġtotal": 3715,
      "Ġbra": 3716,
      "ĠMay": 3717,
      "iped": 3718,
      "tended": 3719,
      "Ġrate": 3720,
      "Ġtwice": 3721,
      "ograph": 3722,
      "Ġscientific": 3723,
      "Ġfemale": 3724,
      "Ġbear": 3725,
      "eah": 3726,
      "uous": 3727,
      "Ġourselves": 3728,
      "Ġnative": 3729,
      "ners": 3730,
      "isc": 3731,
      "Ġsex": 3732,
      "Ġhesitated": 3733,
      "Ġexample": 3734,
      "Ġhill": 3735,
      "uts": 3736,
      "jected": 3737,
      "olt": 3738,
      "Ġprotect": 3739,
      "ĠDire": 3740,
      "Ġult": 3741,
      "Ġworried": 3742,
      "Ġdispl": 3743,
      "Ġrecognized": 3744,
      "Ġru": 3745,
      "Ġinvolved": 3746,
      "ĠEnglish": 3747,
      "fle": 3748,
      "Ġbeast": 3749,
      "ploy": 3750,
      "Ġvision": 3751,
      "Ġrapidly": 3752,
      "Ġtwisted": 3753,
      "Ġvisible": 3754,
      "sis": 3755,
      "Ġmusc": 3756,
      "athy": 3757,
      "Ġmember": 3758,
      "Ġsad": 3759,
      "rier": 3760,
      "Ġspend": 3761,
      "Ġkiss": 3762,
      "Ġpresence": 3763,
      "Ġguards": 3764,
      "Ġclearly": 3765,
      "When": 3766,
      "oses": 3767,
      "Ġsubst": 3768,
      "ades": 3769,
      "Ġsymb": 3770,
      "Ġvel": 3771,
      "Ġdrug": 3772,
      "Ġdoors": 3773,
      "ashion": 3774,
      "andom": 3775,
      "Ġwondering": 3776,
      "Ġsuspic": 3777,
      "lan": 3778,
      "Ġideas": 3779,
      "ember": 3780,
      "Ġcompan": 3781,
      "night": 3782,
      "imp": 3783,
      "ĠMartian": 3784,
      "asons": 3785,
      "ortun": 3786,
      "Ġscene": 3787,
      "Ġoffered": 3788,
      "Ġsmiling": 3789,
      "Ġamount": 3790,
      "ĠJan": 3791,
      "now": 3792,
      "ugg": 3793,
      "Ġwound": 3794,
      "Ġjumped": 3795,
      "Ġfalling": 3796,
      "Ġtong": 3797,
      "Ġolder": 3798,
      "ubb": 3799,
      "phone": 3800,
      "Ġhusband": 3801,
      "Ġshout": 3802,
      "Ġcareful": 3803,
      "Ġliqu": 3804,
      "ucle": 3805,
      "ĠEach": 3806,
      "Ġtone": 3807,
      "Ġsides": 3808,
      "Ġborn": 3809,
      "Ġjump": 3810,
      "fiction": 3811,
      "gar": 3812,
      "Ġplaying": 3813,
      "Ġmental": 3814,
      "eder": 3815,
      "Ġtonight": 3816,
      "Ġdress": 3817,
      "Ġprev": 3818,
      "Ġouter": 3819,
      "sha": 3820,
      "eman": 3821,
      "Ġiron": 3822,
      "Ġsweet": 3823,
      "Ġperfectly": 3824,
      "Ġdescri": 3825,
      "Ġduty": 3826,
      "iation": 3827,
      "ĠWill": 3828,
      "Ġlocked": 3829,
      "hard": 3830,
      "esc": 3831,
      "ĠII": 3832,
      "Ġpublished": 3833,
      "Ġaim": 3834,
      "onel": 3835,
      "Ġdying": 3836,
      "Ġspaceship": 3837,
      "ĠMerc": 3838,
      "Ġgrand": 3839,
      "rie": 3840,
      "ĠUnited": 3841,
      "Ġforever": 3842,
      "Ġconcerned": 3843,
      "ancing": 3844,
      "outh": 3845,
      "Ġdial": 3846,
      "eces": 3847,
      "Ġfunction": 3848,
      "ĠMur": 3849,
      "omin": 3850,
      "Ġwriter": 3851,
      "ĠGo": 3852,
      "Ġstayed": 3853,
      "ĠEditor": 3854,
      "Ġcrossed": 3855,
      "leep": 3856,
      "Ġconcept": 3857,
      "Ġcontro": 3858,
      "Ġbelong": 3859,
      "Ġvarious": 3860,
      "ara": 3861,
      "ĠState": 3862,
      "Ġneg": 3863,
      "Ġthousands": 3864,
      "board": 3865,
      "tle": 3866,
      "uted": 3867,
      "ĠBes": 3868,
      "using": 3869,
      "Ġdesign": 3870,
      "Ġdestroyed": 3871,
      "Ġsum": 3872,
      "berg": 3873,
      "Ġstorm": 3874,
      "Ġimpro": 3875,
      "Ġsupport": 3876,
      "Ġden": 3877,
      "ertainly": 3878,
      "Ġbomb": 3879,
      "Ġstage": 3880,
      "Ġhoped": 3881,
      "Ġgle": 3882,
      "ĠFour": 3883,
      "Ġbottle": 3884,
      "Ġinvestig": 3885,
      "Ġfish": 3886,
      "Ġplenty": 3887,
      "ses": 3888,
      "ĠMaster": 3889,
      "Ġcaut": 3890,
      "Ġsav": 3891,
      "Ġcourt": 3892,
      "ille": 3893,
      "iens": 3894,
      "ux": 3895,
      "onst": 3896,
      "Ġrising": 3897,
      "Ġfigures": 3898,
      "ĠWhile": 3899,
      "Ġbuildings": 3900,
      "Ġmission": 3901,
      "wo": 3902,
      "Ġrich": 3903,
      "ĠLook": 3904,
      "ĠMatt": 3905,
      "Ġfunny": 3906,
      "Ġvalley": 3907,
      "Ġpage": 3908,
      "Ġ(#": 3909,
      "ipe": 3910,
      "ospital": 3911,
      "ĠTime": 3912,
      "rial": 3913,
      "Ġburned": 3914,
      "Ġmountain": 3915,
      "Ġblast": 3916,
      "Ġincluding": 3917,
      "iate": 3918,
      "Ġmanner": 3919,
      "Ġspect": 3920,
      "Ġdiam": 3921,
      "rill": 3922,
      "ĠBet": 3923,
      "Ġvict": 3924,
      "sk": 3925,
      "ĠAre": 3926,
      "ĠAmerica": 3927,
      "Ġavoid": 3928,
      "Ġhurried": 3929,
      "sec": 3930,
      "ĠOff": 3931,
      "Ġofficial": 3932,
      "house": 3933,
      "Ġrot": 3934,
      "Ġaccepted": 3935,
      "xygen": 3936,
      "umbling": 3937,
      "Ġstructure": 3938,
      "chie": 3939,
      "Ġremain": 3940,
      "Ġrele": 3941,
      "Ġtf": 3942,
      "itation": 3943,
      "amb": 3944,
      "ril": 3945,
      "Ġtap": 3946,
      "Ġfort": 3947,
      "Ġharm": 3948,
      "Ġlanded": 3949,
      "Ġsignal": 3950,
      "cking": 3951,
      "azing": 3952,
      "Ġlack": 3953,
      "Ġperform": 3954,
      "Ġstupid": 3955,
      "Ġbirth": 3956,
      "Ġmix": 3957,
      "atically": 3958,
      "ams": 3959,
      "Ġnine": 3960,
      "cean": 3961,
      "Ġimage": 3962,
      "ĠSir": 3963,
      "Ġcalc": 3964,
      "Ġflying": 3965,
      "Ġtwelve": 3966,
      "Ġadmitted": 3967,
      "Ġimpl": 3968,
      "Ġemer": 3969,
      "Ġwaste": 3970,
      "ĠSat": 3971,
      "Ġcontrols": 3972,
      "Ġcounter": 3973,
      "Ġyards": 3974,
      "ddenly": 3975,
      "aws": 3976,
      "Ġpages": 3977,
      "onscious": 3978,
      "One": 3979,
      "unted": 3980,
      "alactic": 3981,
      "gest": 3982,
      "atively": 3983,
      "Ġdar": 3984,
      "Ġhous": 3985,
      "Ġhidden": 3986,
      "osing": 3987,
      "Ġrobots": 3988,
      "Ġpapers": 3989,
      "ĠCome": 3990,
      "Ġspac": 3991,
      "ĠJames": 3992,
      "Ġwarning": 3993,
      "inging": 3994,
      "key": 3995,
      "Ġcenturies": 3996,
      "do": 3997,
      "ĠPeople": 3998,
      "Ġknife": 3999,
      "ĠBefore": 4000,
      "Ġprepared": 4001,
      "Ġsmaller": 4002,
      "Ġfaster": 4003,
      "Ġstretched": 4004,
      "Ġinn": 4005,
      "rog": 4006,
      "Ġbreathing": 4007,
      "Ġglow": 4008,
      "Ġmarried": 4009,
      "pan": 4010,
      "Ġpair": 4011,
      "Ġordinary": 4012,
      "ĠRussi": 4013,
      "Ġdull": 4014,
      "ĠBur": 4015,
      "Ġknees": 4016,
      "mitted": 4017,
      "Ġvillage": 4018,
      "Ġoxygen": 4019,
      "Ġpin": 4020,
      "ument": 4021,
      "Ġneeds": 4022,
      "Ġaddition": 4023,
      "chen": 4024,
      "alk": 4025,
      "ĠAdd": 4026,
      "Ġsf": 4027,
      "ĠHen": 4028,
      "Ġprove": 4029,
      "ĠWould": 4030,
      "Ġpatient": 4031,
      "Ġtunnel": 4032,
      "amped": 4033,
      "ĠPat": 4034,
      "rage": 4035,
      "Ġwaved": 4036,
      "Ke": 4037,
      "acher": 4038,
      "Ġhanded": 4039,
      "obody": 4040,
      "Ġsilver": 4041,
      "An": 4042,
      "Ġbasic": 4043,
      "Ġwrote": 4044,
      "Ġanger": 4045,
      "Ġune": 4046,
      "iers": 4047,
      "Ġalt": 4048,
      "Ġdate": 4049,
      "imum": 4050,
      "ayed": 4051,
      "ĠBig": 4052,
      "ĠChrist": 4053,
      "To": 4054,
      "Ġpink": 4055,
      "cho": 4056,
      "Ġplat": 4057,
      "iving": 4058,
      "Ġpopulation": 4059,
      "ĠIm": 4060,
      "Ġswift": 4061,
      "Ġreceived": 4062,
      "Ġstomach": 4063,
      "Ġtape": 4064,
      "Ġmult": 4065,
      "Ġbeha": 4066,
      "lock": 4067,
      "Ġdue": 4068,
      "athered": 4069,
      "Ġunb": 4070,
      "Ġentrance": 4071,
      "Ġplayed": 4072,
      "Go": 4073,
      "apping": 4074,
      "Ġnearest": 4075,
      "ĠChief": 4076,
      "Ġkeeping": 4077,
      "Ġmaintain": 4078,
      "ĠSteve": 4079,
      "ii": 4080,
      "Ġkids": 4081,
      "Ġcircum": 4082,
      "ĠSuddenly": 4083,
      "ems": 4084,
      "Ġglance": 4085,
      "Ġhelped": 4086,
      "Ġess": 4087,
      "ĠHE": 4088,
      "Ġpowerful": 4089,
      "Ġcivilization": 4090,
      "Ġet": 4091,
      "Ġhero": 4092,
      "Ġvoices": 4093,
      "Ġfasc": 4094,
      "Ġformed": 4095,
      "ulate": 4096,
      "ĠDoc": 4097,
      "ibly": 4098,
      "Ġterms": 4099,
      "Ġpleasant": 4100,
      "Ġdism": 4101,
      "Ġremoved": 4102,
      "Ġscientists": 4103,
      "Ġwis": 4104,
      "Ġscr": 4105,
      "Ġreact": 4106,
      "ĠLa": 4107,
      "oul": 4108,
      "Ġmilitary": 4109,
      "ĠMark": 4110,
      "ĠLu": 4111,
      "Ġswall": 4112,
      "Ġreality": 4113,
      "Ġtrack": 4114,
      "Ġbarely": 4115,
      "Ġaliens": 4116,
      "Ġdelight": 4117,
      "Ġrelig": 4118,
      "Ġsnow": 4119,
      "Ġcrit": 4120,
      "Ġflash": 4121,
      "Ġbelt": 4122,
      "idently": 4123,
      "time": 4124,
      "Ġjour": 4125,
      "Ġmistake": 4126,
      "Ġcro": 4127,
      "Ġreasons": 4128,
      "Here": 4129,
      "Ġfrowned": 4130,
      "ĠThose": 4131,
      "Ġpolic": 4132,
      "Ġeditor": 4133,
      "Ġproduced": 4134,
      "Ġpictures": 4135,
      "eg": 4136,
      "ables": 4137,
      "Get": 4138,
      "Ġhelmet": 4139,
      "Ġtill": 4140,
      "ĠDoctor": 4141,
      "Ġenormous": 4142,
      "Ġtraining": 4143,
      "Ġbelieved": 4144,
      "Ġgolden": 4145,
      "Ġtour": 4146,
      "umin": 4147,
      "Ġanx": 4148,
      "Ġprogress": 4149,
      "Ġveh": 4150,
      "Ġfeatures": 4151,
      "Ġcleared": 4152,
      "Ġextreme": 4153,
      "Ġintelligence": 4154,
      ",'": 4155,
      "orth": 4156,
      "Ġasking": 4157,
      "Ġplate": 4158,
      "Ġastron": 4159,
      "Ġnet": 4160,
      "va": 4161,
      "Ġprinc": 4162,
      "Ġputting": 4163,
      "Ġkil": 4164,
      "Ġshouldn": 4165,
      "Ġcommit": 4166,
      "Ġdrove": 4167,
      "Ġleaves": 4168,
      "Ġfought": 4169,
      "Ġblur": 4170,
      "ĠDavid": 4171,
      "ĠHu": 4172,
      "Ġunus": 4173,
      "Ġelev": 4174,
      "Ġneigh": 4175,
      "ancy": 4176,
      "Ġshel": 4177,
      "ologist": 4178,
      "Ġwet": 4179,
      "geon": 4180,
      "Ġgrad": 4181,
      "Ġwonderful": 4182,
      "Ġelectron": 4183,
      "Ġdome": 4184,
      "Ġpou": 4185,
      "ĠMax": 4186,
      "Ġapproach": 4187,
      "Ġlaid": 4188,
      "Ġnervous": 4189,
      "Ġpanel": 4190,
      "Ġhast": 4191,
      "Ġaddress": 4192,
      "oted": 4193,
      "Ġsaf": 4194,
      "Ġexha": 4195,
      "Ġscreamed": 4196,
      "Ġcigaret": 4197,
      "ios": 4198,
      "ange": 4199,
      "amn": 4200,
      "Ġfully": 4201,
      "host": 4202,
      "ada": 4203,
      "Ġdeveloped": 4204,
      "Ġclouds": 4205,
      "ĠBecause": 4206,
      "Ġgras": 4207,
      "Ġcitiz": 4208,
      "Ġgreater": 4209,
      "looking": 4210,
      "uits": 4211,
      "ĠInc": 4212,
      "Ġwel": 4213,
      "ĠLou": 4214,
      "Ġapproached": 4215,
      "Ġcontr": 4216,
      "Ġreaders": 4217,
      "Ġmale": 4218,
      "ĠGet": 4219,
      "Ġtar": 4220,
      "rison": 4221,
      "rupted": 4222,
      "Ġacqu": 4223,
      "Ġbridge": 4224,
      "ivered": 4225,
      "agged": 4226,
      "Ġsolar": 4227,
      "Ġtoss": 4228,
      "Ġsource": 4229,
      "Ġsell": 4230,
      "Ġexcl": 4231,
      "Ġunknown": 4232,
      "ete": 4233,
      "Ġrare": 4234,
      "Ġroof": 4235,
      "Ġsouth": 4236,
      "Ġcustom": 4237,
      "fted": 4238,
      "Ġapartment": 4239,
      "ĠBro": 4240,
      "Ġadvant": 4241,
      "Ġvague": 4242,
      "Ġnucle": 4243,
      "Ġparticularly": 4244,
      "Ġtube": 4245,
      "kins": 4246,
      "icke": 4247,
      "ellar": 4248,
      "Ġceiling": 4249,
      "Ġwhir": 4250,
      "sect": 4251,
      "Ġforms": 4252,
      "foot": 4253,
      "Ġmissed": 4254,
      "vision": 4255,
      "Ġhealth": 4256,
      "Ġsevent": 4257,
      "Ġabruptly": 4258,
      "Ġheaded": 4259,
      "Ġpoints": 4260,
      "ĠEm": 4261,
      "Ġsharply": 4262,
      "Ġterrible": 4263,
      "ification": 4264,
      "Ġexperiment": 4265,
      "Ġpieces": 4266,
      "Ġjoin": 4267,
      "Ġobserv": 4268,
      "ĠNorth": 4269,
      "lement": 4270,
      "Ġappearance": 4271,
      "nal": 4272,
      "eping": 4273,
      "Ġrequired": 4274,
      "Ġcaused": 4275,
      "Ġachie": 4276,
      "ĠNever": 4277,
      "Ġpit": 4278,
      "ĠFe": 4279,
      "Ġtremb": 4280,
      "Ġmurder": 4281,
      "ĠPar": 4282,
      "hant": 4283,
      "Ġguy": 4284,
      "Ġtongue": 4285,
      "On": 4286,
      "ball": 4287,
      "ĠStates": 4288,
      "Ġrocks": 4289,
      "Okay": 4290,
      "Ġplants": 4291,
      "iat": 4292,
      "Ġnin": 4293,
      "Ġopposite": 4294,
      "ulse": 4295,
      "Ġrear": 4296,
      "Ġcard": 4297,
      "Ġshell": 4298,
      "Ġstaff": 4299,
      "hered": 4300,
      "Ġfrag": 4301,
      "pless": 4302,
      "acle": 4303,
      "Ġupward": 4304,
      "ĠBu": 4305,
      "Ġcomment": 4306,
      "mend": 4307,
      "Ġdepend": 4308,
      "ĠRem": 4309,
      "bur": 4310,
      "Ġreported": 4311,
      "Ġenter": 4312,
      "Ġkitchen": 4313,
      "alt": 4314,
      "Ġradiation": 4315,
      "Ġproud": 4316,
      "Ġapprec": 4317,
      "ĠMcC": 4318,
      "Ġemergency": 4319,
      "Mr": 4320,
      "Ġinha": 4321,
      "Ġneat": 4322,
      "ĠDel": 4323,
      "isten": 4324,
      "Ġclut": 4325,
      "Ġopin": 4326,
      "ĠCr": 4327,
      "Ġcurious": 4328,
      "Ġwear": 4329,
      "ĠSand": 4330,
      "Ġfinding": 4331,
      "Ġprefer": 4332,
      "Ġexec": 4333,
      "Ġchamber": 4334,
      "Ġdescend": 4335,
      "ĠUnder": 4336,
      "Ġexplan": 4337,
      "Ġissues": 4338,
      "wood": 4339,
      "ĠHard": 4340,
      "fortun": 4341,
      "Ġtend": 4342,
      "Ġparent": 4343,
      "Ġfallen": 4344,
      "Ġvalue": 4345,
      "Ġgrabbed": 4346,
      "Ġbegun": 4347,
      "olly": 4348,
      "Ġfacts": 4349,
      "Ġforehead": 4350,
      "Ġveloc": 4351,
      "ship": 4352,
      "icles": 4353,
      "Ġdevice": 4354,
      "Ġeager": 4355,
      "ĠMon": 4356,
      "Ġtelep": 4357,
      "cast": 4358,
      "lection": 4359,
      "otic": 4360,
      "Ġwindows": 4361,
      "Ġfoc": 4362,
      "Ġdressed": 4363,
      "Ġacceler": 4364,
      "Ġvanished": 4365,
      "Ġnaked": 4366,
      "uten": 4367,
      "Ġsuc": 4368,
      "aling": 4369,
      "ĠSen": 4370,
      "Ġgrown": 4371,
      "ints": 4372,
      "Ġexped": 4373,
      "Ġprecise": 4374,
      "pect": 4375,
      "sibility": 4376,
      "bow": 4377,
      "Ġrise": 4378,
      "ĠDirector": 4379,
      "Ġcave": 4380,
      "urt": 4381,
      "Ġfields": 4382,
      "Ġmap": 4383,
      "Ġdesigned": 4384,
      "Yeah": 4385,
      "Ġfol": 4386,
      "Ġpassing": 4387,
      "ĠClub": 4388,
      "ĠBel": 4389,
      "Ġheight": 4390,
      "Ġassist": 4391,
      "Ġchuck": 4392,
      "Ġfired": 4393,
      "ĠIll": 4394,
      "Ġemploy": 4395,
      "Ġmentioned": 4396,
      "ĠOver": 4397,
      "Ġplane": 4398,
      "Ġinstruct": 4399,
      "bb": 4400,
      "ĠFrench": 4401,
      "Ġrig": 4402,
      "Ġdiscover": 4403,
      "osop": 4404,
      "rees": 4405,
      "Ġpassage": 4406,
      "Ġcalling": 4407,
      "Ġeffic": 4408,
      "fast": 4409,
      "Ġspeech": 4410,
      "Ġelectric": 4411,
      "Ġallow": 4412,
      "Ġability": 4413,
      "ipl": 4414,
      "Ġmile": 4415,
      "lex": 4416,
      "ads": 4417,
      "Ġexcit": 4418,
      "zing": 4419,
      "Ġthumb": 4420,
      "Ġtrave": 4421,
      "Ġhighly": 4422,
      "Ġoperation": 4423,
      "Ġculture": 4424,
      "mic": 4425,
      "ĠWhe": 4426,
      "Ġdoorway": 4427,
      "Ġsocial": 4428,
      "ilosop": 4429,
      "hange": 4430,
      "Ġsilently": 4431,
      "Ah": 4432,
      "Ġhorizon": 4433,
      "Ġwand": 4434,
      "Ġinqu": 4435,
      "ĠMartin": 4436,
      "Ġboat": 4437,
      "ĠBlack": 4438,
      "uf": 4439,
      "Ġupper": 4440,
      "Ġnatives": 4441,
      "ĠAgain": 4442,
      "mn": 4443,
      "igg": 4444,
      "Ġrisk": 4445,
      "Ġhyd": 4446,
      "Ġfixed": 4447,
      "Ġdrawn": 4448,
      "ores": 4449,
      "Per": 4450,
      "Ġleaped": 4451,
      "Ġdesert": 4452,
      "Ġmeters": 4453,
      "kind": 4454,
      "ĠGreg": 4455,
      "Ġjoined": 4456,
      "Ġlibr": 4457,
      "ulations": 4458,
      "Ġsubsc": 4459,
      "ĠNat": 4460,
      "asters": 4461,
      "Ġpossibility": 4462,
      "Ġgesture": 4463,
      "ipp": 4464,
      "ĠPeter": 4465,
      "ĠMen": 4466,
      "Ġoccurred": 4467,
      "ĠHenry": 4468,
      "pro": 4469,
      "Ġwished": 4470,
      "ician": 4471,
      "ĠUnivers": 4472,
      "Ġlas": 4473,
      "Ġcho": 4474,
      "rey": 4475,
      "olf": 4476,
      "ĠGersen": 4477,
      "Ġended": 4478,
      "Ġmoments": 4479,
      "Ġscan": 4480,
      "oose": 4481,
      "rud": 4482,
      "ishment": 4483,
      "Ġrad": 4484,
      "Ġdinner": 4485,
      "Ġunit": 4486,
      "Ġcontinue": 4487,
      "mission": 4488,
      "Ġblinked": 4489,
      "Ġtro": 4490,
      "Ġunable": 4491,
      "Ġresults": 4492,
      "view": 4493,
      "Ġclub": 4494,
      "Ġsne": 4495,
      "Ġcart": 4496,
      "Ġuncom": 4497,
      "Ġgotten": 4498,
      "Ġsecurity": 4499,
      "Ġsafety": 4500,
      "ences": 4501,
      "Ġlat": 4502,
      "Ġthor": 4503,
      "eck": 4504,
      "Ġcapable": 4505,
      "Ġnumbers": 4506,
      "oded": 4507,
      "uster": 4508,
      "ĠDem": 4509,
      "osen": 4510,
      "Ġadvent": 4511,
      "Ġattract": 4512,
      "Ġshadows": 4513,
      "ĠMer": 4514,
      "Ġregular": 4515,
      "Ġstranger": 4516,
      "Ġscre": 4517,
      "Ġotherwise": 4518,
      "Ġfarther": 4519,
      "Ġjoy": 4520,
      "ception": 4521,
      "Ġshaking": 4522,
      "ucked": 4523,
      "Ġfrightened": 4524,
      "Ġdu": 4525,
      "essel": 4526,
      "Ġshowing": 4527,
      "poration": 4528,
      "pet": 4529,
      "semb": 4530,
      "Ġtrail": 4531,
      "Ġshield": 4532,
      "Ġhospital": 4533,
      "isp": 4534,
      "ples": 4535,
      "Ġtim": 4536,
      "ĠGra": 4537,
      "Ġprevent": 4538,
      "Ġstreets": 4539,
      "Ġcamer": 4540,
      "Ġlady": 4541,
      "Ġjack": 4542,
      "Ġuseful": 4543,
      "enth": 4544,
      "Ġoccasion": 4545,
      "Ġtower": 4546,
      "Ġfaded": 4547,
      "Ġbackground": 4548,
      "Ġheavily": 4549,
      "ĠBoy": 4550,
      "ĠCould": 4551,
      "Ġadvanced": 4552,
      "Ġecon": 4553,
      "Ġaver": 4554,
      "while": 4555,
      "Ġcircumst": 4556,
      "Ġcontract": 4557,
      "Ġdecide": 4558,
      "utenant": 4559,
      "ĠRod": 4560,
      "Ġresist": 4561,
      "Ġfarm": 4562,
      "ĠNi": 4563,
      "aper": 4564,
      "Ġletters": 4565,
      "Ġobl": 4566,
      "Ġskull": 4567,
      "Ġmuscles": 4568,
      "Ġprincip": 4569,
      "Ġbran": 4570,
      "Ġshown": 4571,
      "Ġnaturally": 4572,
      "Ġsucceed": 4573,
      "sequ": 4574,
      "Ġinterrupted": 4575,
      "Ġhonest": 4576,
      "Ġembar": 4577,
      "Ġsatellite": 4578,
      "field": 4579,
      "Ġtax": 4580,
      "Ġburning": 4581,
      "Ġsac": 4582,
      "pon": 4583,
      "Ġintended": 4584,
      "ĠAnn": 4585,
      "Ġinstrument": 4586,
      "Ġexcitement": 4587,
      "uled": 4588,
      "Ġswim": 4589,
      "aves": 4590,
      "Ġsurely": 4591,
      "umer": 4592,
      "ĠDes": 4593,
      "ĠLun": 4594,
      "Ġplans": 4595,
      "Ġinstruments": 4596,
      "Any": 4597,
      "gs": 4598,
      "ias": 4599,
      "uch": 4600,
      "Ġswept": 4601,
      "rass": 4602,
      "ĠCy": 4603,
      "ĠRes": 4604,
      "Ġpleased": 4605,
      "Ġge": 4606,
      "elled": 4607,
      "ĠMed": 4608,
      "Ġnur": 4609,
      "Ġsuppl": 4610,
      "Ġow": 4611,
      "ĠJud": 4612,
      "Ġpist": 4613,
      "iring": 4614,
      "Ġshare": 4615,
      "Ġconditions": 4616,
      "Ġmountains": 4617,
      "Ġreports": 4618,
      "Ġcomfortable": 4619,
      "Ġsoul": 4620,
      "ĠCalif": 4621,
      "Ġvessel": 4622,
      "ĠInter": 4623,
      "Ġhappening": 4624,
      "Ġdiss": 4625,
      "alog": 4626,
      "ĠWhite": 4627,
      "Ġyelled": 4628,
      "Ġsunlight": 4629,
      "Ġproduce": 4630,
      "Ġcities": 4631,
      "Ġfaced": 4632,
      "Ġstuck": 4633,
      "lein": 4634,
      "Ġlift": 4635,
      "hens": 4636,
      "back": 4637,
      "Ġhelpless": 4638,
      "ĠTake": 4639,
      "Ġmissing": 4640,
      "Ġspark": 4641,
      "Ġplot": 4642,
      "Ġminor": 4643,
      "rows": 4644,
      "Ġopportun": 4645,
      "ironment": 4646,
      "Ġhull": 4647,
      "ĠTell": 4648,
      "aters": 4649,
      "Ġunderstanding": 4650,
      "initely": 4651,
      "Ġfascin": 4652,
      "aving": 4653,
      "Ġmat": 4654,
      "Ġstandard": 4655,
      "Ġbriefly": 4656,
      "Ġutter": 4657,
      "Ġdetails": 4658,
      "Ġtaste": 4659,
      "Ġpet": 4660,
      "Ġshudd": 4661,
      "Ġrelations": 4662,
      "Ġrelief": 4663,
      "Ġfrequ": 4664,
      "Ġarrange": 4665,
      "Ġhills": 4666,
      "Ġimpat": 4667,
      "pre": 4668,
      "ĠServ": 4669,
      "Ġspin": 4670,
      "Ġcup": 4671,
      "ĠMach": 4672,
      "Ġwhist": 4673,
      "Ġeduc": 4674,
      "Ġfairly": 4675,
      "Ġpowers": 4676,
      "Ġfo": 4677,
      "Ġfurn": 4678,
      "Ġleading": 4679,
      "ĠSub": 4680,
      "Ġchanges": 4681,
      "Ġhonor": 4682,
      "Ġmel": 4683,
      "Ġbath": 4684,
      "ĠGreen": 4685,
      "quar": 4686,
      "Ġinches": 4687,
      "Ġcolony": 4688,
      "Ġmassive": 4689,
      "Ġsteady": 4690,
      "Ġax": 4691,
      "abor": 4692,
      "Ġinvis": 4693,
      "Ġloved": 4694,
      "Ġsleeping": 4695,
      "Very": 4696,
      "Ġcollap": 4697,
      "aries": 4698,
      "Ġgate": 4699,
      "Ġgathered": 4700,
      "Ġrum": 4701,
      "Ġspring": 4702,
      "Ġaccompl": 4703,
      "ugged": 4704,
      "Ġtear": 4705,
      "ĠFran": 4706,
      "Ġrepresent": 4707,
      "Ġfal": 4708,
      "gl": 4709,
      "overy": 4710,
      "Ġhabit": 4711,
      "Ġdrift": 4712,
      "erk": 4713,
      "Ġeating": 4714,
      "Ġindicated": 4715,
      "Ġsweat": 4716,
      "ĠChe": 4717,
      "Ġsystems": 4718,
      "Ġvelocity": 4719,
      "Ġate": 4720,
      "Ġcompet": 4721,
      "Ġvolume": 4722,
      "ĠCentral": 4723,
      "Ġbalance": 4724,
      "ĠTV": 4725,
      "Ġ#)": 4726,
      "Be": 4727,
      "ĠTe": 4728,
      "kin": 4729,
      "Ġsetting": 4730,
      "orter": 4731,
      "Ġrespond": 4732,
      "ĠPhil": 4733,
      "Ġpool": 4734,
      "gel": 4735,
      "Ġphilosop": 4736,
      "dom": 4737,
      "Ġwaves": 4738,
      "Ġmostly": 4739,
      "Ġlucky": 4740,
      "book": 4741,
      "Ġwheel": 4742,
      "Ġsty": 4743,
      "ĠMagnan": 4744,
      "erted": 4745,
      "ulty": 4746,
      "Ġbackward": 4747,
      "Ġcommunication": 4748,
      "Ġloss": 4749,
      "Ġcollect": 4750,
      "Ġreminded": 4751,
      "Ġestabl": 4752,
      "ĠMo": 4753,
      "ĠMajor": 4754,
      "Ġsquee": 4755,
      "Ġwire": 4756,
      "Ġfreed": 4757,
      "ĠCle": 4758,
      "andy": 4759,
      "cks": 4760,
      "eyed": 4761,
      "Please": 4762,
      "hold": 4763,
      "ero": 4764,
      "ubble": 4765,
      "ĠSecond": 4766,
      "imov": 4767,
      "Ġhurry": 4768,
      "ĠWithout": 4769,
      "year": 4770,
      "Ġmurmured": 4771,
      "Ġwings": 4772,
      "ĠRa": 4773,
      "ĠCharles": 4774,
      "Ġtang": 4775,
      "Ġblond": 4776,
      "Ġbecoming": 4777,
      "Ġsurvive": 4778,
      "Ġpile": 4779,
      "Ġgather": 4780,
      "Ġmedical": 4781,
      "Ġautomatic": 4782,
      "ĠMic": 4783,
      "Ġaband": 4784,
      "col": 4785,
      "Ġmer": 4786,
      "arn": 4787,
      "Ġwithd": 4788,
      "Ġflashed": 4789,
      "Ġamb": 4790,
      "Ġcases": 4791,
      "Ġrecords": 4792,
      "cellent": 4793,
      "aches": 4794,
      "ĠJake": 4795,
      "Ġyouth": 4796,
      "Ġgasped": 4797,
      "Ġquarters": 4798,
      "uses": 4799,
      "Ġirrit": 4800,
      "Ġreply": 4801,
      "Ġdeck": 4802,
      "Ġunusual": 4803,
      "Ġthorough": 4804,
      "Ġpec": 4805,
      "Ġplatform": 4806,
      "Ġexperien": 4807,
      "dy": 4808,
      "ston": 4809,
      "Some": 4810,
      "ĠSee": 4811,
      "Ġmild": 4812,
      "ĠSure": 4813,
      "hal": 4814,
      "Ġdirty": 4815,
      "Ġpurs": 4816,
      "Tell": 4817,
      "Ġafford": 4818,
      "Ġexplanation": 4819,
      "Ġbigger": 4820,
      "Ġwhisper": 4821,
      "Ġocean": 4822,
      "Ġatomic": 4823,
      "Ġmirror": 4824,
      "hl": 4825,
      "athem": 4826,
      "Ġpush": 4827,
      "Ġsuspect": 4828,
      "ĠCompany": 4829,
      "Ġcars": 4830,
      "Ġmatch": 4831,
      "Ġsuffic": 4832,
      "Ġsword": 4833,
      "Ġcolle": 4834,
      "Ġban": 4835,
      "Ġcreated": 4836,
      "ĠBra": 4837,
      "Thank": 4838,
      "ĠBesides": 4839,
      "Ġtears": 4840,
      "Ġhearing": 4841,
      "ĠHaw": 4842,
      "Ġrelaxed": 4843,
      "Ġconcern": 4844,
      "Ġdamage": 4845,
      "Ġexcited": 4846,
      "Ġdreams": 4847,
      "Ex": 4848,
      "Ġfill": 4849,
      "ĠSouth": 4850,
      "ĠNobody": 4851,
      "Nothing": 4852,
      "Ġprovided": 4853,
      "Ġtfie": 4854,
      "world": 4855,
      "Ġain": 4856,
      "Ġrefused": 4857,
      "eds": 4858,
      "agon": 4859,
      "rang": 4860,
      "ama": 4861,
      "ĠPub": 4862,
      "ĠJul": 4863,
      "Ġembarrass": 4864,
      "Ġhundreds": 4865,
      "ĠNav": 4866,
      "aging": 4867,
      "Ġbadly": 4868,
      "Ġrecognize": 4869,
      "Ġfault": 4870,
      "Have": 4871,
      "ether": 4872,
      "Ġperman": 4873,
      "Ġdeliber": 4874,
      "Ġguns": 4875,
      "gon": 4876,
      "racted": 4877,
      "Ġhanging": 4878,
      "Ġsake": 4879,
      "Ġdetect": 4880,
      "ĠInt": 4881,
      "Ġspite": 4882,
      "ĠRy": 4883,
      "Ġclock": 4884,
      "Ġgreatest": 4885,
      "minist": 4886,
      "uing": 4887,
      "Ġdecl": 4888,
      "Ġadvantage": 4889,
      "At": 4890,
      "car": 4891,
      "inger": 4892,
      "ĠMike": 4893,
      "Ġaltern": 4894,
      "ador": 4895,
      "Ġbuzz": 4896,
      "ĠJoan": 4897,
      "Ġabsor": 4898,
      "Ġmechanical": 4899,
      "Ġopt": 4900,
      "Ġfier": 4901,
      "Ġalarm": 4902,
      "ĠGro": 4903,
      "izz": 4904,
      "Ġprimitive": 4905,
      "Perhaps": 4906,
      "Ġsole": 4907,
      "Ġhungry": 4908,
      "Ġjudge": 4909,
      "Ġsam": 4910,
      "Ġworst": 4911,
      "ĠKir": 4912,
      "Ġinstance": 4913,
      "Ġcraft": 4914,
      "Ġabsolutely": 4915,
      "Ġsoil": 4916,
      "Ġinvol": 4917,
      "Ġghost": 4918,
      "ĠMin": 4919,
      "Ġcentral": 4920,
      "Ġtemperature": 4921,
      "Ġreb": 4922,
      "Ġmatters": 4923,
      "Ġaston": 4924,
      "Ġastronom": 4925,
      "ĠApp": 4926,
      "ĠGerman": 4927,
      "asing": 4928,
      "Ġlaughter": 4929,
      "Ġinsect": 4930,
      "Ġtherefore": 4931,
      "Ġscared": 4932,
      "Ġbreakfast": 4933,
      "Ġgreet": 4934,
      "Ġplanned": 4935,
      "Ġignored": 4936,
      "Ġslept": 4937,
      "Hell": 4938,
      "ĠBa": 4939,
      "Ġteam": 4940,
      "Ġstartled": 4941,
      "Ġartific": 4942,
      "Ġwrist": 4943,
      "Ġtrained": 4944,
      "Ġsymp": 4945,
      "Ġrang": 4946,
      "inder": 4947,
      "Ġagent": 4948,
      "Ġflu": 4949,
      "Ġfigured": 4950,
      "uro": 4951,
      "Ġterror": 4952,
      "Ġfirmly": 4953,
      "Ġproduct": 4954,
      "Ġcigarette": 4955,
      "Ġpromise": 4956,
      "Ġresponse": 4957,
      "Ġpuzzled": 4958,
      "Ġfashion": 4959,
      "Ġstairs": 4960,
      "ĠHigh": 4961,
      "Ġassume": 4962,
      "ĠTy": 4963,
      "ĠAsimov": 4964,
      "Ġclothing": 4965,
      "Ġroutine": 4966,
      "Ġsilly": 4967,
      "Ġpill": 4968,
      "ĠSur": 4969,
      "Ġasleep": 4970,
      "Ġmemories": 4971,
      "Ġspirit": 4972,
      "Ġopinion": 4973,
      "ĠCoun": 4974,
      "Ġfriendly": 4975,
      "Ġhorror": 4976,
      "Ġjerked": 4977,
      "Ġpeered": 4978,
      "Ġstatement": 4979,
      "ĠSend": 4980,
      "ĠGold": 4981,
      "Ġlaughing": 4982,
      "Ġours": 4983,
      "Ġgives": 4984,
      "Ġfourth": 4985,
      "point": 4986,
      "Ġwre": 4987,
      "Ġoil": 4988,
      "onn": 4989,
      "aned": 4990,
      "arse": 4991,
      "ĠBob": 4992,
      "ĠDun": 4993,
      "Ġreceive": 4994,
      "Ġresponsibility": 4995,
      "Ġthus": 4996,
      "ĠMa": 4997,
      "Ġflame": 4998,
      "ograp": 4999,
      "Ġobserved": 5000,
      "itable": 5001,
      "Ġquarter": 5002,
      "Ġecho": 5003,
      "Ġindust": 5004,
      "Ġresc": 5005,
      "isk": 5006,
      "Ġevents": 5007,
      "Ġaudience": 5008,
      "ĠJerry": 5009,
      "Ġcircumstances": 5010,
      "eness": 5011,
      "Ġtrad": 5012,
      "Ġimpression": 5013,
      "Ġlun": 5014,
      "Ġhasn": 5015,
      "Ġsheet": 5016,
      "Ġchin": 5017,
      "ĠRog": 5018,
      "Ġbought": 5019,
      "Ġfed": 5020,
      "rogen": 5021,
      "Ġproved": 5022,
      "Ġdepth": 5023,
      "Ġterrif": 5024,
      "aimed": 5025,
      "ein": 5026,
      "ture": 5027,
      "rous": 5028,
      "Ġthoughtfully": 5029,
      "Ġhorse": 5030,
      "ĠPlan": 5031,
      "Ġprint": 5032,
      "Ġroll": 5033,
      "Ġbeauty": 5034,
      "Ġlaboratory": 5035,
      "Sh": 5036,
      "Ġfist": 5037,
      "Ġstag": 5038,
      "Ġencl": 5039,
      "Ġenvironment": 5040,
      "ĠSer": 5041,
      "Ġforces": 5042,
      "Ġsphere": 5043,
      "ĠAnderson": 5044,
      "ault": 5045,
      "Ġbeard": 5046,
      "sters": 5047,
      "rapped": 5048,
      "ĠDick": 5049,
      "Ġtransfer": 5050,
      "Ġleader": 5051,
      "Ġdevelopment": 5052,
      "ĠJones": 5053,
      "Ġharsh": 5054,
      "ĠAp": 5055,
      "Ġflick": 5056,
      "bably": 5057,
      "ingu": 5058,
      "Ġlone": 5059,
      "Ġcharacters": 5060,
      "Ġtransport": 5061,
      "Ġwid": 5062,
      "Ġandro": 5063,
      "Ġcliff": 5064,
      "aks": 5065,
      "Ġadult": 5066,
      "Ġstead": 5067,
      "ĠInstead": 5068,
      "ĠHall": 5069,
      "Ġleap": 5070,
      "Ġtrade": 5071,
      "Ġholl": 5072,
      "Ġpolite": 5073,
      "Ġmud": 5074,
      "Ġcouch": 5075,
      "Ġliquid": 5076,
      "ĠDep": 5077,
      "Ġvirt": 5078,
      "Ġaccur": 5079,
      "itors": 5080,
      "Ġlimit": 5081,
      "lor": 5082,
      "Ġhatch": 5083,
      "Ġmood": 5084,
      "ĠLong": 5085,
      "Ġeventually": 5086,
      "Ġclosely": 5087,
      "Ġadvance": 5088,
      "Ġlaws": 5089,
      "Ġpoured": 5090,
      "bits": 5091,
      "Ġdaughter": 5092,
      "Ġmeat": 5093,
      "Ġcaps": 5094,
      "Ġdefense": 5095,
      "Ġtel": 5096,
      "ĠSan": 5097,
      "ĠAss": 5098,
      "ĠBoth": 5099,
      "Ġproceed": 5100,
      "Ġpoison": 5101,
      "Ġannoy": 5102,
      "iot": 5103,
      "inced": 5104,
      "ĠRight": 5105,
      "Ġquality": 5106,
      "Ġnewsp": 5107,
      "iqu": 5108,
      "stellar": 5109,
      "Ġredu": 5110,
      "ĠHud": 5111,
      "Ġprinted": 5112,
      "Ġpromised": 5113,
      "ĠSometimes": 5114,
      "Ġemerged": 5115,
      "down": 5116,
      "vere": 5117,
      "Ġthank": 5118,
      "Ġcheer": 5119,
      "four": 5120,
      "lim": 5121,
      "Ġbill": 5122,
      "Ġpractical": 5123,
      "Ġfrozen": 5124,
      "ĠHug": 5125,
      "Ġanth": 5126,
      "Ġmankind": 5127,
      "obe": 5128,
      "ĠLan": 5129,
      "Ġnearby": 5130,
      "Ġpecul": 5131,
      "Ġchosen": 5132,
      "Ġtyp": 5133,
      "Ġwest": 5134,
      "Ġgaze": 5135,
      "ands": 5136,
      "Ġoverhead": 5137,
      "Ġclimb": 5138,
      "Ġglowing": 5139,
      "ĠCarl": 5140,
      "ails": 5141,
      "Ġregret": 5142,
      "Ġcopies": 5143,
      "Ġdollars": 5144,
      "bbing": 5145,
      "ĠHon": 5146,
      "Ġfinish": 5147,
      "Ġtempor": 5148,
      "Ġsurvival": 5149,
      "faced": 5150,
      "Ġrecall": 5151,
      "gging": 5152,
      "gment": 5153,
      "Ġsaved": 5154,
      "ĠMad": 5155,
      "gered": 5156,
      "Ġimagination": 5157,
      "ĠColonel": 5158,
      "Ġreleased": 5159,
      "?'": 5160,
      "Ġweather": 5161,
      "Ġbutt": 5162,
      "ament": 5163,
      "Ġcargo": 5164,
      "Ġtick": 5165,
      "ĠIV": 5166,
      "Ġanswers": 5167,
      "Ġattend": 5168,
      "Ġtelevision": 5169,
      "Ġcrystal": 5170,
      "Ġopportunity": 5171,
      "Ġinvisible": 5172,
      "Ġcollection": 5173,
      "Ġbringing": 5174,
      "iest": 5175,
      "Hey": 5176,
      "Ġoh": 5177,
      "erves": 5178,
      "ache": 5179,
      "Ġmodel": 5180,
      "Ġveget": 5181,
      "immer": 5182,
      "Ġswitched": 5183,
      "ĠVer": 5184,
      "Ġtrap": 5185,
      "Ġformer": 5186,
      "rily": 5187,
      "ounce": 5188,
      "hib": 5189,
      "ases": 5190,
      "ĠSut": 5191,
      "Ġtechnology": 5192,
      "ban": 5193,
      "war": 5194,
      "lec": 5195,
      "ulf": 5196,
      "Ġarc": 5197,
      "Ġmob": 5198,
      "Ġchallen": 5199,
      "Ġtough": 5200,
      "ications": 5201,
      "Ġkicked": 5202,
      "Ġvent": 5203,
      "Ġends": 5204,
      "Ġdemonst": 5205,
      "Ġinstructions": 5206,
      "Ġlibrary": 5207,
      "Ġtask": 5208,
      "itute": 5209,
      "Ġdriver": 5210,
      "ĠWhich": 5211,
      "ĠHudson": 5212,
      "Ġrifle": 5213,
      "Ġawake": 5214,
      "Ġcos": 5215,
      "Ġreview": 5216,
      "iated": 5217,
      "Ġdesire": 5218,
      "Ġreader": 5219,
      "Ġincident": 5220,
      "Ġsuperior": 5221,
      "iner": 5222,
      "Ġrockets": 5223,
      "ĠBrown": 5224,
      "Ġelevator": 5225,
      "ĠKing": 5226,
      "Ġconvinced": 5227,
      "Ġhouses": 5228,
      "Ġmarked": 5229,
      "Ġannounced": 5230,
      "Ġfantasy": 5231,
      "Ġske": 5232,
      "Ġmathem": 5233,
      "rete": 5234,
      "Ġcere": 5235,
      "Ġdise": 5236,
      "Ġlimited": 5237,
      "Ġdespite": 5238,
      "ppy": 5239,
      "Ġpractice": 5240,
      "Ġtransmit": 5241,
      "Ġinsisted": 5242,
      "iable": 5243,
      "no": 5244,
      "hest": 5245,
      "Ġlap": 5246,
      "Ġunlike": 5247,
      "Ġdeeply": 5248,
      "ĠBox": 5249,
      "Ġalert": 5250,
      "Ġjung": 5251,
      "Ġmagazines": 5252,
      "Ġsplit": 5253,
      "Ġdescribed": 5254,
      "Ġpersons": 5255,
      "Ġrequire": 5256,
      "Ġadjust": 5257,
      "vis": 5258,
      "oman": 5259,
      "Ġflood": 5260,
      "Ġdrifted": 5261,
      "Ġwine": 5262,
      "Ġshows": 5263,
      "Ġextended": 5264,
      "Ġtarget": 5265,
      "Ġeh": 5266,
      "Ġserve": 5267,
      "Ġpublisher": 5268,
      "Ġkilomet": 5269,
      "mar": 5270,
      "Ġinterf": 5271,
      "Ġrush": 5272,
      "Ġslip": 5273,
      "Ġinstantly": 5274,
      "Ġestablished": 5275,
      "cr": 5276,
      "olic": 5277,
      "Ġhumanity": 5278,
      "Ġtruly": 5279,
      "Ġsolution": 5280,
      "nes": 5281,
      "icip": 5282,
      "Ġofficers": 5283,
      "enger": 5284,
      "icks": 5285,
      "Ġaccording": 5286,
      "Ġprofessional": 5287,
      "Ġnuclear": 5288,
      "arl": 5289,
      "Ġslope": 5290,
      "Ġinflu": 5291,
      "eling": 5292,
      "Ġscram": 5293,
      "Ġnoted": 5294,
      "ĠGe": 5295,
      "onsense": 5296,
      "Ġstarting": 5297,
      "Ġmeasure": 5298,
      "Ġfog": 5299,
      "mo": 5300,
      "ns": 5301,
      "rical": 5302,
      "ĠHein": 5303,
      "ĠCra": 5304,
      "Ġsixty": 5305,
      "theless": 5306,
      "Ġinit": 5307,
      "elly": 5308,
      "Ġareas": 5309,
      "onder": 5310,
      "Ġpurple": 5311,
      "Ġdawn": 5312,
      "Ġtossed": 5313,
      "Ġhal": 5314,
      "Ġflow": 5315,
      "Ġeasier": 5316,
      "Ġresponsible": 5317,
      "bon": 5318,
      "Ġencoun": 5319,
      "den": 5320,
      "atcher": 5321,
      "ĠTran": 5322,
      "Ġmodern": 5323,
      "Ġequal": 5324,
      "ki": 5325,
      "Ġcage": 5326,
      "Ġmask": 5327,
      "ros": 5328,
      "Ġterm": 5329,
      "ĠMachine": 5330,
      "Because": 5331,
      "Ġqual": 5332,
      "ocking": 5333,
      "Ġgrip": 5334,
      "Ġconsciousness": 5335,
      "ĠTim": 5336,
      "Ġrust": 5337,
      "ĠRic": 5338,
      "Ġserved": 5339,
      "ĠEll": 5340,
      "Ġfaith": 5341,
      "Ġartificial": 5342,
      "Ġlip": 5343,
      "ĠDor": 5344,
      "Ġletting": 5345,
      "fall": 5346,
      "ĠAlthough": 5347,
      "ĠBarbar": 5348,
      "Ġpolitical": 5349,
      "Ġburied": 5350,
      "Ġshifted": 5351,
      "sl": 5352,
      "Ġentertain": 5353,
      "Ġglasses": 5354,
      "Ġmanage": 5355,
      "Ġorange": 5356,
      "ureau": 5357,
      "arant": 5358,
      "oyle": 5359,
      "Ġsigns": 5360,
      "henomen": 5361,
      "exp": 5362,
      "nold": 5363,
      "Ġsen": 5364,
      "Ġthinks": 5365,
      "engers": 5366,
      "ĠEverything": 5367,
      "Ġdetermined": 5368,
      "ĠHugh": 5369,
      "terday": 5370,
      "Ġthrown": 5371,
      "ĠJackson": 5372,
      "hetic": 5373,
      "Ġdisplay": 5374,
      "Ġlaser": 5375,
      "ĠLar": 5376,
      "Ġinstinct": 5377,
      "Ġjet": 5378,
      "ivity": 5379,
      "Ġcrime": 5380,
      "Ġlowered": 5381,
      "Ġimmediate": 5382,
      "Ġwitness": 5383,
      "Ġchemical": 5384,
      "eps": 5385,
      "Ġyounger": 5386,
      "Ġexcellent": 5387,
      "Ġvic": 5388,
      "ĠJose": 5389,
      "Ġlovely": 5390,
      "ĠJohnny": 5391,
      "ĠCommission": 5392,
      "och": 5393,
      "ĠThom": 5394,
      "Ġdestruction": 5395,
      "gly": 5396,
      "tr": 5397,
      "Ġsank": 5398,
      "Ġrules": 5399,
      "Ġsumm": 5400,
      "Ġsurvey": 5401,
      "Ġvictim": 5402,
      "ppose": 5403,
      "ĠDear": 5404,
      "ĠRen": 5405,
      "Ġapolog": 5406,
      "Ġbulk": 5407,
      "Ġexpedition": 5408,
      "Ġsched": 5409,
      "Right": 5410,
      "cely": 5411,
      "upiter": 5412,
      "Ġmotor": 5413,
      "Ġjourney": 5414,
      "rive": 5415,
      "ĠLind": 5416,
      "Ġcompar": 5417,
      "Ġsuccessful": 5418,
      "ointed": 5419,
      "Ġvib": 5420,
      "ĠJon": 5421,
      "Ġrecent": 5422,
      "Ġexplosion": 5423,
      "umed": 5424,
      "Ġenth": 5425,
      "Ġmonster": 5426,
      "ĠAddress": 5427,
      "Ġaverage": 5428,
      "ville": 5429,
      "ĠHouse": 5430,
      "ĠShip": 5431,
      "Ġexperim": 5432,
      "Ġparents": 5433,
      "Ġpistol": 5434,
      "ĠEv": 5435,
      "Ġdiscovery": 5436,
      "inery": 5437,
      "ĠAc": 5438,
      "Ġshirt": 5439,
      "Ġslammed": 5440,
      "Ġnotes": 5441,
      "ĠLife": 5442,
      "ensity": 5443,
      "Ġbreast": 5444,
      "Ġfilm": 5445,
      "Ġcontrolled": 5446,
      "uge": 5447,
      "ese": 5448,
      "omb": 5449,
      "ĠRay": 5450,
      "Ġsmart": 5451,
      "Ġtells": 5452,
      "Ġvehicle": 5453,
      "Ġreaching": 5454,
      "riage": 5455,
      "azz": 5456,
      "rue": 5457,
      "ogether": 5458,
      "Ġadap": 5459,
      "Ġfamous": 5460,
      "Ġbones": 5461,
      "Ġphenomen": 5462,
      "Ġglit": 5463,
      "iosity": 5464,
      "amps": 5465,
      "Ġgrace": 5466,
      "Ġgrunted": 5467,
      "Ġwelcome": 5468,
      "rig": 5469,
      "ĠEr": 5470,
      "Ġknocked": 5471,
      "Ġeverywhere": 5472,
      "Ġpatterns": 5473,
      "ĠToo": 5474,
      "umps": 5475,
      "assador": 5476,
      "Ġattitude": 5477,
      "Ġbirds": 5478,
      "Ġokay": 5479,
      "Ġassemb": 5480,
      "Ġrule": 5481,
      "Ġbeach": 5482,
      "Ġexisted": 5483,
      "Ġbot": 5484,
      "Ġinj": 5485,
      "ulating": 5486,
      "Ġconqu": 5487,
      "Ġcontain": 5488,
      "Ġcheek": 5489,
      "tes": 5490,
      "Ġinch": 5491,
      "range": 5492,
      "ĠShort": 5493,
      "ester": 5494,
      "ĠTerra": 5495,
      "Ġfleet": 5496,
      "Ġsatisfied": 5497,
      "geant": 5498,
      "Ġinnoc": 5499,
      "more": 5500,
      "ĠTony": 5501,
      "strom": 5502,
      "Ġsending": 5503,
      "Ġsales": 5504,
      "eding": 5505,
      "Ġmerc": 5506,
      "ĠRep": 5507,
      "ĠJupiter": 5508,
      "Ġscientist": 5509,
      "Ġreplaced": 5510,
      "Ġhotel": 5511,
      "Ġcells": 5512,
      "Ġswallowed": 5513,
      "Ġeast": 5514,
      "Ġdisg": 5515,
      "ĠVal": 5516,
      "Ġuseless": 5517,
      "Ġscreaming": 5518,
      "Ġdifficulty": 5519,
      "acles": 5520,
      "ĠMother": 5521,
      "thur": 5522,
      "ĠFive": 5523,
      "Ġrecently": 5524,
      "Ġfolded": 5525,
      "xim": 5526,
      "Ġtaught": 5527,
      "Ġprevious": 5528,
      "Ġsummer": 5529,
      "Ġchat": 5530,
      "Ġbenef": 5531,
      "craft": 5532,
      "leg": 5533,
      "ĠEric": 5534,
      "Ġpause": 5535,
      "Ġfeelings": 5536,
      "ĠBehind": 5537,
      "asant": 5538,
      "icians": 5539,
      "otted": 5540,
      "ĠDev": 5541,
      "Ġexpert": 5542,
      "ĠWashing": 5543,
      "Ġaster": 5544,
      "anc": 5545,
      "atives": 5546,
      "ye": 5547,
      "Ġrandom": 5548,
      "Ġassoc": 5549,
      "Ġwiped": 5550,
      "ĠName": 5551,
      "ĠNorm": 5552,
      "Ġmedic": 5553,
      "Ġpeculiar": 5554,
      "Ġ?\"": 5555,
      "ĠPart": 5556,
      "ĠFeder": 5557,
      "Ġreasonable": 5558,
      "Ġlegal": 5559,
      "gn": 5560,
      "uh": 5561,
      "Ġod": 5562,
      "Ġrow": 5563,
      "Ġspare": 5564,
      "Ġdriving": 5565,
      "ooked": 5566,
      "Ġsear": 5567,
      "Ġselect": 5568,
      "Ġremote": 5569,
      "Ġpanic": 5570,
      "ĠRel": 5571,
      "Ġproof": 5572,
      "Ġcircuit": 5573,
      "Ġconver": 5574,
      "Ġimpress": 5575,
      "Ġfaintly": 5576,
      "Ġhunting": 5577,
      "Ġscattered": 5578,
      "Ġunivers": 5579,
      "Ġpotential": 5580,
      "ded": 5581,
      "Ġarmed": 5582,
      "Ġlearning": 5583,
      "Ġunconscious": 5584,
      "Wait": 5585,
      "Ġtip": 5586,
      "Ġshat": 5587,
      "Ġbreaking": 5588,
      "Ġargument": 5589,
      "Ġvers": 5590,
      "oration": 5591,
      "Ġheaven": 5592,
      "Ġmov": 5593,
      "Ġneighbor": 5594,
      "Ġrooms": 5595,
      "Ġdragged": 5596,
      "ĠBrother": 5597,
      "ĠWashington": 5598,
      "Ġbased": 5599,
      "Ġhoping": 5600,
      "Ġthunder": 5601,
      "unte": 5602,
      "Ġpersonality": 5603,
      "ĠGrand": 5604,
      "Ġarranged": 5605,
      "ĠLaw": 5606,
      "Ġwarned": 5607,
      "Ġelectronic": 5608,
      "Ġdare": 5609,
      "urance": 5610,
      "Ġhandling": 5611,
      "quarters": 5612,
      "hem": 5613,
      "Ġlunch": 5614,
      "Ġfruit": 5615,
      "Ġremaining": 5616,
      "Ġgrave": 5617,
      "Ġcooper": 5618,
      "Ġstumbled": 5619,
      "Ġcoinc": 5620,
      "aken": 5621,
      "Ġretreat": 5622,
      "Ġgentlemen": 5623,
      "uum": 5624,
      "ordin": 5625,
      "Ġdisappear": 5626,
      "Ġtitle": 5627,
      "Ġcrou": 5628,
      "Ġ#:": 5629,
      "ĠGre": 5630,
      "Ġguide": 5631,
      "Ġep": 5632,
      "spect": 5633,
      "Ġobsc": 5634,
      "sole": 5635,
      "Ġflew": 5636,
      "Ġforgot": 5637,
      "ĠCaliforn": 5638,
      "Ġrolling": 5639,
      "Ġexpress": 5640,
      "Ġbat": 5641,
      "ĠGree": 5642,
      "Ġexciting": 5643,
      "Ġphotograph": 5644,
      "Ġtrembling": 5645,
      "put": 5646,
      "Ġautomatically": 5647,
      "Ġridic": 5648,
      "Ġfantastic": 5649,
      "Ġmal": 5650,
      "Ġgames": 5651,
      "Ġhumor": 5652,
      "Ġjungle": 5653,
      "Never": 5654,
      "ĠNone": 5655,
      "Ġguessed": 5656,
      "Ġlake": 5657,
      "Ġtruck": 5658,
      "Ġfab": 5659,
      "Ġunits": 5660,
      "Ġrestr": 5661,
      "Ġtermin": 5662,
      "Or": 5663,
      "fi": 5664,
      "ĠThrough": 5665,
      "Ġdeadly": 5666,
      "Ġrim": 5667,
      "Ġframe": 5668,
      "Ġtrain": 5669,
      "Ġreluct": 5670,
      "iverse": 5671,
      "Ġeyeb": 5672,
      "Ġdogs": 5673,
      "Ġdegree": 5674,
      "Ġsurrounded": 5675,
      "fortunately": 5676,
      "rin": 5677,
      "Ġsignific": 5678,
      "ĠPlanet": 5679,
      "Ġexamined": 5680,
      "Ġorganization": 5681,
      "ĠCorporation": 5682,
      "Ġspun": 5683,
      "osition": 5684,
      "lly": 5685,
      "urch": 5686,
      "Ġju": 5687,
      "Ġleather": 5688,
      "Ġengineer": 5689,
      "ĠCharlie": 5690,
      "Ġblew": 5691,
      "ares": 5692,
      "Ġwake": 5693,
      "ĠAlso": 5694,
      "Ġfailure": 5695,
      "ĠUniversity": 5696,
      "itz": 5697,
      "otions": 5698,
      "ĠSF": 5699,
      "Ġ#-#": 5700,
      "Ġtechnical": 5701,
      "Ġeffects": 5702,
      "Ġtelesc": 5703,
      "Ġtied": 5704,
      "irm": 5705,
      "Ġjaw": 5706,
      "Ġactivity": 5707,
      "Ġtelepath": 5708,
      "ections": 5709,
      "Ġremains": 5710,
      "Ġbubble": 5711,
      "Ġlung": 5712,
      "Ġgran": 5713,
      "Ġgarden": 5714,
      "ustrated": 5715,
      "Ġfee": 5716,
      "Ġcontained": 5717,
      "ĠAdam": 5718,
      "ession": 5719,
      "ĠDave": 5720,
      "Ġmachinery": 5721,
      "ĠCanada": 5722,
      "Ġugly": 5723,
      "Ġunw": 5724,
      "ĠRobin": 5725,
      "asion": 5726,
      "Ġinev": 5727,
      "Ġramp": 5728,
      "ĠRos": 5729,
      "oyal": 5730,
      "Ġbored": 5731,
      "Ġgrowth": 5732,
      "Ġsavage": 5733,
      "ufact": 5734,
      "after": 5735,
      "icted": 5736,
      "bers": 5737,
      "Ġbuck": 5738,
      "Ġcuriosity": 5739,
      "Ġcredit": 5740,
      "owly": 5741,
      "sey": 5742,
      "iration": 5743,
      "addy": 5744,
      "Ġuncomfort": 5745,
      "Ġjoke": 5746,
      "enses": 5747,
      "Ġbrains": 5748,
      "Ġstirred": 5749,
      "Ġder": 5750,
      "Ġpointing": 5751,
      "Ġtrace": 5752,
      "Ġtelephone": 5753,
      "Ġfoolish": 5754,
      "ĠCalifornia": 5755,
      "uine": 5756,
      "ructed": 5757,
      "Ġenthus": 5758,
      "Ġpy": 5759,
      "elling": 5760,
      "Ġrights": 5761,
      "Ġhandsome": 5762,
      "Ġbedroom": 5763,
      "Ġcrowded": 5764,
      "Ġgift": 5765,
      "ette": 5766,
      "ĠAnt": 5767,
      "Al": 5768,
      "ĠEast": 5769,
      "ĠSn": 5770,
      "ĠVery": 5771,
      "Ġphr": 5772,
      "Ġpulling": 5773,
      "Ġpounds": 5774,
      "Ġswiftly": 5775,
      "uded": 5776,
      "ĠColl": 5777,
      "Ġsensation": 5778,
      "Ġsuspected": 5779,
      "Ġpopular": 5780,
      "ĠSecret": 5781,
      "Ġintense": 5782,
      "Ġseriously": 5783,
      "Ġrubbed": 5784,
      "Ġshift": 5785,
      "Ġairlock": 5786,
      "vention": 5787,
      "ĠAbout": 5788,
      "ĠUncle": 5789,
      "ĠAct": 5790,
      "Ġclearing": 5791,
      "Ġobjects": 5792,
      "Ġwise": 5793,
      "isions": 5794,
      "Ġdance": 5795,
      "tained": 5796,
      "Ġcolors": 5797,
      "Ġsquat": 5798,
      "ĠService": 5799,
      "ĠMem": 5800,
      "Ġtwist": 5801,
      "Ġanticip": 5802,
      "Ġspoken": 5803,
      "father": 5804,
      "Ġvisual": 5805,
      "Ġassumed": 5806,
      "cies": 5807,
      "Ġstim": 5808,
      "Ġspecific": 5809,
      "ĠArthur": 5810,
      "Ġresemb": 5811,
      "Ġdiameter": 5812,
      "ĠBarbara": 5813,
      "Take": 5814,
      "Ġfacing": 5815,
      "ĠJu": 5816,
      "Ġfreedom": 5817,
      "Wh": 5818,
      "Ġbacked": 5819,
      "Ġking": 5820,
      "Ġride": 5821,
      "Ġgroups": 5822,
      "Ġbullet": 5823,
      "ĠCouncil": 5824,
      "gers": 5825,
      "Ġturns": 5826,
      "Ġselected": 5827,
      "ĠDra": 5828,
      "tee": 5829,
      "Ġimpact": 5830,
      "Ġpractically": 5831,
      "Ġancest": 5832,
      "Ġmarket": 5833,
      "rons": 5834,
      "Ġevil": 5835,
      "Ġcolonel": 5836,
      "bot": 5837,
      "case": 5838,
      "kward": 5839,
      "sized": 5840,
      "ologists": 5841,
      "Ġdegrees": 5842,
      "Ġgap": 5843,
      "unice": 5844,
      "Ġexerc": 5845,
      "Ġangle": 5846,
      "ĠNext": 5847,
      "ĠCommander": 5848,
      "Ġjacket": 5849,
      "Ġfund": 5850,
      "ĠVan": 5851,
      "two": 5852,
      "Ġbone": 5853,
      "lying": 5854,
      "ĠThough": 5855,
      "Ġskill": 5856,
      "Ġshouting": 5857,
      "Ġaid": 5858,
      "Ġshipping": 5859,
      "Ġsteam": 5860,
      "Ġdeeper": 5861,
      "Ġdrawing": 5862,
      "ĠJen": 5863,
      "epend": 5864,
      "Ġviolence": 5865,
      "Ġetc": 5866,
      "Ġscout": 5867,
      "Thanks": 5868,
      "Ġec": 5869,
      "ĠHor": 5870,
      "Ġexpand": 5871,
      "Ġreass": 5872,
      "elle": 5873,
      "Ġpassengers": 5874,
      "restrial": 5875,
      "Ġfalse": 5876,
      "ĠBey": 5877,
      "Ġconcrete": 5878,
      "Ġtanks": 5879,
      "wards": 5880,
      "attery": 5881,
      "Ġraise": 5882,
      "ĠSomeone": 5883,
      "Ġcow": 5884,
      "omy": 5885,
      "roll": 5886,
      "ĠBron": 5887,
      "Ġcalls": 5888,
      "ĠReg": 5889,
      "Ġsearching": 5890,
      "ĠAcc": 5891,
      "Ġcompartment": 5892,
      "Ġlogical": 5893,
      "rant": 5894,
      "Ġtools": 5895,
      "resp": 5896,
      "Ġcontent": 5897,
      "Ġrelationship": 5898,
      "ĠLee": 5899,
      "Ġchances": 5900,
      "Ġelsewhere": 5901,
      "Ġaccompan": 5902,
      "boat": 5903,
      "uable": 5904,
      "Ġsong": 5905,
      "Ġfer": 5906,
      "Ġment": 5907,
      "Ġmeal": 5908,
      "Ġshining": 5909,
      "ĠPol": 5910,
      "Ġcompleted": 5911,
      "Ġcyl": 5912,
      "ico": 5913,
      "odore": 5914,
      "ption": 5915,
      "Ġtext": 5916,
      "ds": 5917,
      "ĠThan": 5918,
      "ĠBer": 5919,
      "onds": 5920,
      "Every": 5921,
      "Ġassured": 5922,
      "Ġprotested": 5923,
      "Ġauthority": 5924,
      "Ġstare": 5925,
      "Ġsuic": 5926,
      "Ġextremely": 5927,
      "Ġchuckled": 5928,
      "ĠLam": 5929,
      "Ġeggs": 5930,
      "Ġintend": 5931,
      "ĠSoon": 5932,
      "Ġconfused": 5933,
      "rehens": 5934,
      "Ġboss": 5935,
      "Ġcrawled": 5936,
      "ĠTem": 5937,
      "Ġspray": 5938,
      "Ġlocated": 5939,
      "Ġcomputers": 5940,
      "Ġded": 5941,
      "Ġbeer": 5942,
      "Ġseated": 5943,
      "Ġyesterday": 5944,
      "Ġbehav": 5945,
      "inity": 5946,
      "ana": 5947,
      "Ġexpensive": 5948,
      "Ġobser": 5949,
      "Sorry": 5950,
      "bles": 5951,
      "Ġdirt": 5952,
      "Ġpipe": 5953,
      "Ġshoes": 5954,
      "gend": 5955,
      "Ġunha": 5956,
      "Ġinterstellar": 5957,
      "Ġtraffic": 5958,
      "Ġanti": 5959,
      "By": 5960,
      "Ġsigh": 5961,
      "Ġworn": 5962,
      "Ġawkward": 5963,
      "Ġhoney": 5964,
      "Ġsem": 5965,
      "Ġmanufact": 5966,
      "obby": 5967,
      "ternal": 5968,
      "Ġgenuine": 5969,
      "lict": 5970,
      "Ġbecomes": 5971,
      "Ġtests": 5972,
      "Ġseparate": 5973,
      "Ġadventure": 5974,
      "iven": 5975,
      "adget": 5976,
      "Ġarch": 5977,
      "sm": 5978,
      "Ġsister": 5979,
      "Ġpark": 5980,
      "urs": 5981,
      "Ġemp": 5982,
      "Ġgrowled": 5983,
      "Ġpenet": 5984,
      "see": 5985,
      "ounds": 5986,
      "ocr": 5987,
      "Ġendless": 5988,
      "Ġbelly": 5989,
      "Ġneut": 5990,
      "Ġburn": 5991,
      "Ġcommunications": 5992,
      "Ġstun": 5993,
      "Ġevidently": 5994,
      "hol": 5995,
      "Ġunre": 5996,
      "Ġinsane": 5997,
      "Ġauthors": 5998,
      "Ġwooden": 5999,
      "Ġtreatment": 6000,
      "Ġbreathed": 6001,
      "win": 6002,
      "Ġhorn": 6003,
      "imm": 6004,
      "Ġrage": 6005,
      "overn": 6006,
      "Ġcode": 6007,
      "Ġadditional": 6008,
      "nels": 6009,
      "Ġbore": 6010,
      "Ġgrate": 6011,
      "Ġpercent": 6012,
      "Ġsensed": 6013,
      "eland": 6014,
      "Ġcasual": 6015,
      "Ġkissed": 6016,
      "ĠHeinlein": 6017,
      "Ġshore": 6018,
      "anda": 6019,
      "Ġradar": 6020,
      "gun": 6021,
      "pri": 6022,
      "armed": 6023,
      "Ġham": 6024,
      "Ġupset": 6025,
      "Ġcoat": 6026,
      "Ġstrike": 6027,
      "Ġtotally": 6028,
      "Ġconfusion": 6029,
      "Ġrushed": 6030,
      "ums": 6031,
      "Ġindic": 6032,
      "Ġladder": 6033,
      "rating": 6034,
      "Ġestablish": 6035,
      "new": 6036,
      "Ġmill": 6037,
      "ĠThing": 6038,
      "rav": 6039,
      "Ġdrunk": 6040,
      "ĠSpec": 6041,
      "Ġmane": 6042,
      "Ġroared": 6043,
      "place": 6044,
      "Ġpainting": 6045,
      "Ġbasis": 6046,
      "Ġtremend": 6047,
      "Ġintellect": 6048,
      "Ġprovide": 6049,
      "nted": 6050,
      "Ġ?": 6051,
      "oub": 6052,
      "imens": 6053,
      "ĠPark": 6054,
      "Ġimper": 6055,
      "ĠPublishing": 6056,
      "Ġincredible": 6057,
      "ctors": 6058,
      "ĠRock": 6059,
      "Ġpride": 6060,
      "Ġcompanion": 6061,
      "Ġvir": 6062,
      "aying": 6063,
      "oop": 6064,
      "rations": 6065,
      "Ġrail": 6066,
      "Ġchanging": 6067,
      "ĠKevin": 6068,
      "Ġultimate": 6069,
      "lar": 6070,
      "Ġsan": 6071,
      "estern": 6072,
      "Ġlonely": 6073,
      "Un": 6074,
      "ĠWilly": 6075,
      "Ġ##": 6076,
      "Ġreflected": 6077,
      "Ġequally": 6078,
      "Ġsettle": 6079,
      "ĠSilver": 6080,
      "Ġdug": 6081,
      "ĠCons": 6082,
      "Ġraw": 6083,
      "Ġresour": 6084,
      "ka": 6085,
      "iser": 6086,
      "Ġpod": 6087,
      "ĠMex": 6088,
      "Ġapproaching": 6089,
      "ora": 6090,
      "Ġshop": 6091,
      "Ġplun": 6092,
      "Ġkinds": 6093,
      "ĠRussian": 6094,
      "Ġah": 6095,
      "iders": 6096,
      "Ġinsist": 6097,
      "Ġprecisely": 6098,
      "Ġbehavior": 6099,
      "da": 6100,
      "ĠBoard": 6101,
      "Ġcrimin": 6102,
      "ĠLuna": 6103,
      "Ġhol": 6104,
      "Ġisol": 6105,
      "Ġthanks": 6106,
      "Ġgloom": 6107,
      "Ġelement": 6108,
      "Ġfloating": 6109,
      "Ġimmort": 6110,
      "ta": 6111,
      "Ġholes": 6112,
      "ĠFre": 6113,
      "Ġscra": 6114,
      "Ġwaist": 6115,
      "Ġmeteor": 6116,
      "Ġhalfway": 6117,
      "Ġdevil": 6118,
      "Ġhated": 6119,
      "stairs": 6120,
      "ĠCass": 6121,
      "ĠPal": 6122,
      "Ġscow": 6123,
      "Ġtowards": 6124,
      "ĠCa": 6125,
      "Ġcand": 6126,
      "Ġpuff": 6127,
      "Ġcrash": 6128,
      "Ġelements": 6129,
      "Ġsurprising": 6130,
      "Ġhistor": 6131,
      "Ġzero": 6132,
      "unched": 6133,
      "ĠSuch": 6134,
      "Ġlaunch": 6135,
      "Ġinterview": 6136,
      "Ġproperly": 6137,
      "Would": 6138,
      "umble": 6139,
      "Ġdeb": 6140,
      "eper": 6141,
      "ĠEarthmen": 6142,
      "Ġrested": 6143,
      "Ġtightly": 6144,
      "ĠHugo": 6145,
      "hael": 6146,
      "Ġboo": 6147,
      "Ġfence": 6148,
      "Ġemotions": 6149,
      "ĠMany": 6150,
      "acity": 6151,
      "Ġrelease": 6152,
      "Ġconven": 6153,
      "ĠDay": 6154,
      "Ġblame": 6155,
      "Ġangrily": 6156,
      "Ġhiding": 6157,
      "ĠMil": 6158,
      "Ġconsiderable": 6159,
      "Ġtore": 6160,
      "Ġnerve": 6161,
      "ĠFather": 6162,
      "ĠLie": 6163,
      "ago": 6164,
      "Ġstab": 6165,
      "Ġdoc": 6166,
      "Ġunple": 6167,
      "Ġnowhere": 6168,
      "ĠJeff": 6169,
      "Ġgang": 6170,
      "ĠMall": 6171,
      "Ġwhirled": 6172,
      "amin": 6173,
      "ĠCour": 6174,
      "agn": 6175,
      "Ġshortly": 6176,
      "Ġpostage": 6177,
      "acon": 6178,
      "Ġunn": 6179,
      "Ġteacher": 6180,
      "Ġincreased": 6181,
      "iplom": 6182,
      "Ġasteroid": 6183,
      "Ġfile": 6184,
      "Ġgall": 6185,
      "Ġrat": 6186,
      "rad": 6187,
      "ĠRead": 6188,
      "Ġneedle": 6189,
      "ĠClar": 6190,
      "Ġmagic": 6191,
      "Ġoccupied": 6192,
      "ĠWy": 6193,
      "ĠThor": 6194,
      "Ġrelie": 6195,
      "Ġconstant": 6196,
      "oh": 6197,
      "ĠtE": 6198,
      "ĠtKe": 6199,
      "ita": 6200,
      "ĠEuro": 6201,
      "inkled": 6202,
      "Ġshaft": 6203,
      "Ġguarant": 6204,
      "usc": 6205,
      "ĠNove": 6206,
      "Ġmighty": 6207,
      "Ġenjoyed": 6208,
      "ĠTen": 6209,
      "Ġmolec": 6210,
      "ĠOutside": 6211,
      "ding": 6212,
      "Ġemotional": 6213,
      "ĠMel": 6214,
      "elie": 6215,
      "Ġchose": 6216,
      "ĠAnyway": 6217,
      "ĠHelen": 6218,
      "ĠSutton": 6219,
      "aac": 6220,
      "nces": 6221,
      "Ġnav": 6222,
      "ĠBru": 6223,
      "With": 6224,
      "ĠWilson": 6225,
      "Listen": 6226,
      "Ġcards": 6227,
      "aning": 6228,
      "verse": 6229,
      "Ġspr": 6230,
      "Ġrope": 6231,
      "Ġcamera": 6232,
      "hew": 6233,
      "Ġsequ": 6234,
      "Ġdevices": 6235,
      "Ġimmense": 6236,
      "reement": 6237,
      "isms": 6238,
      "Ġgestured": 6239,
      "gger": 6240,
      "Ġsynt": 6241,
      "Ġsniff": 6242,
      "ĠBlaine": 6243,
      "Ġlogic": 6244,
      "ĠBooks": 6245,
      "Ġhydrogen": 6246,
      "haired": 6247,
      "Ġlux": 6248,
      "Ġlosing": 6249,
      "Ġoutl": 6250,
      "Ġ#;": 6251,
      "ctions": 6252,
      "?)": 6253,
      "Qu": 6254,
      "ĠtHe": 6255,
      "Ġbunch": 6256,
      "Ġmetall": 6257,
      "Ġclever": 6258,
      "ĠRichard": 6259,
      "ĠTre": 6260,
      "ota": 6261,
      "Ġshelter": 6262,
      "Ġemb": 6263,
      "Ġscreens": 6264,
      "rected": 6265,
      "ĠSel": 6266,
      "ĠOb": 6267,
      "aley": 6268,
      "Ġcolonists": 6269,
      "Ġsearched": 6270,
      "gent": 6271,
      "Ġcord": 6272,
      "ĠWhatever": 6273,
      "Ġattached": 6274,
      "Ġbooth": 6275,
      "Ġpor": 6276,
      "Ġgain": 6277,
      "Ġbelief": 6278,
      "Ġinterior": 6279,
      "ĠBrad": 6280,
      "Ġlatest": 6281,
      "Ġbanks": 6282,
      "aton": 6283,
      "Ġhunt": 6284,
      "Ġwealth": 6285,
      "ĠEmp": 6286,
      "ĠEurope": 6287,
      "Ġlies": 6288,
      "ĠOffic": 6289,
      "Ġstronger": 6290,
      "ĠOffice": 6291,
      "Ġsealed": 6292,
      "Ġevolution": 6293,
      "Ġroute": 6294,
      "Ġabandoned": 6295,
      "Will": 6296,
      "Ġpatch": 6297,
      "Ġintent": 6298,
      "Ġawful": 6299,
      "Ġfavorite": 6300,
      "Ġrequest": 6301,
      "ĠControl": 6302,
      "Ġoblig": 6303,
      "ĠWatch": 6304,
      "Ġpermanent": 6305,
      "Ġkilometers": 6306,
      "ĠAmb": 6307,
      "ĠWin": 6308,
      "Ġroar": 6309,
      "Ġdefe": 6310,
      "Ġsooner": 6311,
      "Ġsenses": 6312,
      "Ġsatisfaction": 6313,
      "Ġachieve": 6314,
      "ĠRemember": 6315,
      "lder": 6316,
      "Ġstated": 6317,
      "Ġcoast": 6318,
      "Ġgenerally": 6319,
      "Hello": 6320,
      "cont": 6321,
      "Ġgadget": 6322,
      "irmed": 6323,
      "Ġadvert": 6324,
      "Ġpersu": 6325,
      "eks": 6326,
      "mind": 6327,
      "yer": 6328,
      "Ġcrying": 6329,
      "Ġped": 6330,
      "Ġpace": 6331,
      "Ġstrict": 6332,
      "ĠIsaac": 6333,
      "Ġmixed": 6334,
      "rell": 6335,
      "Ġunique": 6336,
      "Ġpartly": 6337,
      "Ġrepair": 6338,
      "Ġdirections": 6339,
      "Ġstraightened": 6340,
      "bling": 6341,
      "Ġwoke": 6342,
      "ĠIr": 6343,
      "Ġbend": 6344,
      "icy": 6345,
      "Ġlightly": 6346,
      "Ġharder": 6347,
      "Ġwoods": 6348,
      "human": 6349,
      "pent": 6350,
      "Ġgear": 6351,
      "ĠProject": 6352,
      "Ġdarling": 6353,
      "Ġmoons": 6354,
      "umes": 6355,
      "ĠEs": 6356,
      "Ġchoose": 6357,
      "Ġelbow": 6358,
      "Ġaccess": 6359,
      "Ġstatus": 6360,
      "ĠWorlds": 6361,
      "Ġsteadily": 6362,
      "ateg": 6363,
      "Ġscale": 6364,
      "Ġexplore": 6365,
      "Ġassign": 6366,
      "Sir": 6367,
      "iel": 6368,
      "van": 6369,
      "Ġbew": 6370,
      "Ġglared": 6371,
      "Ġwarmth": 6372,
      "Ġexclaimed": 6373,
      "ĠNick": 6374,
      "Ġslim": 6375,
      "Ġteach": 6376,
      "Ġforeign": 6377,
      "Ġrecorded": 6378,
      "Ġsymbol": 6379,
      "Ġlect": 6380,
      "Ġshocked": 6381,
      "Ġdrinking": 6382,
      "Ġmurd": 6383,
      "Ġsoldiers": 6384,
      "aud": 6385,
      "Ġtrial": 6386,
      "Ġcutting": 6387,
      "Ġstrode": 6388,
      "Ġtransparent": 6389,
      "ĠMill": 6390,
      "Ġshake": 6391,
      "Our": 6392,
      "asm": 6393,
      "Ġcontrib": 6394,
      "Ġfloated": 6395,
      "Ġdelicate": 6396,
      "Ġclosing": 6397,
      "ointment": 6398,
      "Ġpushing": 6399,
      "ivering": 6400,
      "Ġawareness": 6401,
      "expected": 6402,
      "Ġsway": 6403,
      "ĠAh": 6404,
      "urd": 6405,
      "rik": 6406,
      "issue": 6407,
      "Ġreflect": 6408,
      "ĠReich": 6409,
      "ĠSuper": 6410,
      "Ġconstruction": 6411,
      "rowed": 6412,
      "Ġlink": 6413,
      "ĠDuring": 6414,
      "Ġtense": 6415,
      "Ġincrease": 6416,
      "Ġchairs": 6417,
      "Ġsecretary": 6418,
      "Ġsuggestion": 6419,
      "ĠBall": 6420,
      "Ġflowers": 6421,
      "Ġcoupon": 6422,
      "Ġmarriage": 6423,
      "Ġsought": 6424,
      "Ġstyle": 6425,
      "ĠDuncan": 6426,
      "Ġthroughout": 6427,
      "Ġerror": 6428,
      "Ġnovels": 6429,
      "Ġtradition": 6430,
      "Ġwing": 6431,
      "Ġwrapped": 6432,
      "Ġlur": 6433,
      "idering": 6434,
      "Ġrom": 6435,
      "Ġexploded": 6436,
      "Ġgeneration": 6437,
      "Ġstudying": 6438,
      "Ġearn": 6439,
      "Me": 6440,
      "achel": 6441,
      "ĠLittle": 6442,
      "Ġvaluable": 6443,
      "Ġoffices": 6444,
      "ĠHoward": 6445,
      "Ġpriest": 6446,
      "Somet": 6447,
      "Ġpha": 6448,
      "ĠGovern": 6449,
      "opy": 6450,
      "Ġeffective": 6451,
      "long": 6452,
      "Ġobe": 6453,
      "umph": 6454,
      "ĠRec": 6455,
      "Ġcomplicated": 6456,
      "Ġpredict": 6457,
      "Ġmort": 6458,
      "Ġmax": 6459,
      "ĠSix": 6460,
      "Ġlegend": 6461,
      "Ġstrain": 6462,
      "Ġdupl": 6463,
      "lers": 6464,
      "asty": 6465,
      "Ġdepartment": 6466,
      "Ġprotest": 6467,
      "Ġvolunte": 6468,
      "ĠMain": 6469,
      "Ġconsequ": 6470,
      "opes": 6471,
      "Ġsimpl": 6472,
      "Ġstruggled": 6473,
      "Ġdesperately": 6474,
      "ĠCong": 6475,
      "ĠKrug": 6476,
      "Ġlots": 6477,
      "Ġdepart": 6478,
      "ĠCenter": 6479,
      "eer": 6480,
      "Ġyard": 6481,
      "ĠHuman": 6482,
      "Ġsheer": 6483,
      "rane": 6484,
      "Ġpersonnel": 6485,
      "Ġdisease": 6486,
      "ĠDa": 6487,
      "ĠThink": 6488,
      "Ġheading": 6489,
      "Ġhastily": 6490,
      "Ġgrasp": 6491,
      "bal": 6492,
      "arted": 6493,
      "Ġlatter": 6494,
      "ĠStation": 6495,
      "Ġreprodu": 6496,
      "Ġdirected": 6497,
      "ĠProbably": 6498,
      "Ġpicking": 6499,
      "ĠMir": 6500,
      "Ġfactor": 6501,
      "ĠProf": 6502,
      "Ġcash": 6503,
      "ĠArnold": 6504,
      "ĠGray": 6505,
      "Ġoccasional": 6506,
      "ĠMercer": 6507,
      "ĠWall": 6508,
      "Ġrit": 6509,
      "planet": 6510,
      "Ġridiculous": 6511,
      "low": 6512,
      "tic": 6513,
      "ĠBack": 6514,
      "ĠWay": 6515,
      "Ġchain": 6516,
      "Ġpalm": 6517,
      "Ġmystery": 6518,
      "Pro": 6519,
      "ket": 6520,
      "Ġsigned": 6521,
      "Ġdrank": 6522,
      "ĠAf": 6523,
      "Ġdiscussion": 6524,
      "Ġstones": 6525,
      "Ġarrest": 6526,
      "Ġarticle": 6527,
      "Ġtorn": 6528,
      "bre": 6529,
      "Ġunexpected": 6530,
      "Ġarmor": 6531,
      "Ġhollow": 6532,
      "Ġexcuse": 6533,
      "rian": 6534,
      "istry": 6535,
      "Ġprobe": 6536,
      "Ġterr": 6537,
      "ĠBrit": 6538,
      "Ġceased": 6539,
      "ulsion": 6540,
      "ĠPohl": 6541,
      "Ġreligious": 6542,
      "iant": 6543,
      "ĠPost": 6544,
      "ĠAlmost": 6545,
      "Ġrefer": 6546,
      "ĠSlowly": 6547,
      "ĠHalf": 6548,
      "Ġsubscription": 6549,
      "ĠCas": 6550,
      "Ġknee": 6551,
      "ardon": 6552,
      "Ġrescue": 6553,
      "Ġtension": 6554,
      "rester": 6555,
      "atics": 6556,
      "Ġnation": 6557,
      "icing": 6558,
      "Ġster": 6559,
      "Ġcontem": 6560,
      "Ġcurve": 6561,
      "Ġstudents": 6562,
      "Ġmaterials": 6563,
      "Ġanalysis": 6564,
      "ĠTri": 6565,
      "Ġnost": 6566,
      "Ġunderground": 6567,
      "Ġstands": 6568,
      "Ġload": 6569,
      "Ġmembership": 6570,
      "ĠBeyond": 6571,
      "Ġraces": 6572,
      "Ġprofessor": 6573,
      "Ġplanetary": 6574,
      "Ġbesides": 6575,
      "rem": 6576,
      "ito": 6577,
      "Ġknock": 6578,
      "Ġjew": 6579,
      "Ġpadd": 6580,
      "Ġplanning": 6581,
      "Ġrecom": 6582,
      "rils": 6583,
      "Ġshoved": 6584,
      "wind": 6585,
      "ĠMaxwell": 6586,
      "Ġdeliberately": 6587,
      "ĠChand": 6588,
      "ĠVol": 6589,
      "Ġcracked": 6590,
      "Ġtapes": 6591,
      "ba": 6592,
      "iro": 6593,
      "Ġdiplom": 6594,
      "ĠBry": 6595,
      "ĠFur": 6596,
      "Ġgleaming": 6597,
      "Ġgradually": 6598,
      "Ġtin": 6599,
      "Ġpow": 6600,
      "ooped": 6601,
      "ĠGil": 6602,
      "Ġreturning": 6603,
      "Ġengines": 6604,
      "Ġx": 6605,
      "Ġsin": 6606,
      "Ġsport": 6607,
      "Ġidentity": 6608,
      "Ġsupplies": 6609,
      "ĠThomas": 6610,
      "Ġ)": 6611,
      "Ġforb": 6612,
      "Ġconference": 6613,
      "iency": 6614,
      "Ġshuddered": 6615,
      "Ġthoroughly": 6616,
      "aver": 6617,
      "Ġol": 6618,
      "ĠCorn": 6619,
      "Ġseized": 6620,
      "Ġsuits": 6621,
      "Ġfled": 6622,
      "Ġflung": 6623,
      "udes": 6624,
      "Ġconflict": 6625,
      "Ġleaning": 6626,
      "Ġfiring": 6627,
      "Ġutterly": 6628,
      "ĠMount": 6629,
      "ĠUp": 6630,
      "Ġfascinating": 6631,
      "mas": 6632,
      "Ġease": 6633,
      "Ġsprang": 6634,
      "Ġanyhow": 6635,
      "Ġclerk": 6636,
      "Ġrobe": 6637,
      "Ġmechanism": 6638,
      "Ġcitizens": 6639,
      "Ġdread": 6640,
      "Ġ\"...": 6641,
      "Ġrhy": 6642,
      "Ġgenerations": 6643,
      "Ġrevealed": 6644,
      "See": 6645,
      "ingle": 6646,
      "Ġbetray": 6647,
      "Ġbiggest": 6648,
      "ĠSystem": 6649,
      "Ġdisturbed": 6650,
      "Ġfans": 6651,
      "Ġthread": 6652,
      "ĠHand": 6653,
      "ĠBest": 6654,
      "Ġdistinct": 6655,
      "Ġcircuits": 6656,
      "Ġdreamed": 6657,
      "ĠHellstrom": 6658,
      "Only": 6659,
      "Ġpretend": 6660,
      "Ġincom": 6661,
      "Ġescaped": 6662,
      "Ġnervously": 6663,
      "shaped": 6664,
      "Ġvaguely": 6665,
      "IF": 6666,
      "pen": 6667,
      "Ġmoist": 6668,
      "ĠLater": 6669,
      "ĠDoes": 6670,
      "erable": 6671,
      "ĠHun": 6672,
      "three": 6673,
      "Ġunp": 6674,
      "venue": 6675,
      "Ġchew": 6676,
      "Ġeleven": 6677,
      "Ġbothered": 6678,
      "Ġaspect": 6679,
      "Ġbrush": 6680,
      "ĠCarter": 6681,
      "Ġbloody": 6682,
      "Ġhealthy": 6683,
      "omer": 6684,
      "ĠSoc": 6685,
      "urgeon": 6686,
      "Ġignor": 6687,
      "Ġfitted": 6688,
      "Ġcautiously": 6689,
      "Ġappreciate": 6690,
      "Ġsufficient": 6691,
      "Ġmaneu": 6692,
      "Ġitems": 6693,
      "Ġstrip": 6694,
      "Ġnonsense": 6695,
      "Ġslowed": 6696,
      "Ġprotection": 6697,
      "Ġcitizen": 6698,
      "anwhile": 6699,
      "ĠDou": 6700,
      "opter": 6701,
      "Ġmonitor": 6702,
      "ĠPrice": 6703,
      "ribly": 6704,
      "Damn": 6705,
      "ements": 6706,
      "Ġobservation": 6707,
      "ĠLieutenant": 6708,
      "istics": 6709,
      "Ġbowl": 6710,
      "Ġcance": 6711,
      "Ġclum": 6712,
      "ĠForrester": 6713,
      "gency": 6714,
      "Ġefforts": 6715,
      "Ġexperienced": 6716,
      "Ġbree": 6717,
      "Ġdefend": 6718,
      "Ġremembering": 6719,
      "Ġnest": 6720,
      "ecess": 6721,
      "ĠAnge": 6722,
      "Ġbitterly": 6723,
      "Ġtremendous": 6724,
      "\".": 6725,
      "ĠHim": 6726,
      "ĠWithin": 6727,
      "Ġwinter": 6728,
      "Ġgenius": 6729,
      "Ġgods": 6730,
      "Ġdesperate": 6731,
      "Ġninety": 6732,
      "Ne": 6733,
      "Ġwash": 6734,
      "ĠEunice": 6735,
      "Ġsubs": 6736,
      "Ġfocus": 6737,
      "eve": 6738,
      "itted": 6739,
      "Ġmas": 6740,
      "Ġoutward": 6741,
      "usions": 6742,
      "arded": 6743,
      "ĠKen": 6744,
      "worth": 6745,
      "ĠCamp": 6746,
      "Ġconsole": 6747,
      "Ġblade": 6748,
      "Ġadminist": 6749,
      "Ġoperating": 6750,
      "Ġpermit": 6751,
      "clock": 6752,
      "Ġrevolution": 6753,
      "Ġmysterious": 6754,
      "ĠAst": 6755,
      "Ġspy": 6756,
      "ĠJune": 6757,
      "Ġquant": 6758,
      "ĠUniverse": 6759,
      "Ġhopeless": 6760,
      "Ġgrinning": 6761,
      "Ġregarded": 6762,
      "ront": 6763,
      "inte": 6764,
      "Ġhint": 6765,
      "ĠDane": 6766,
      "ĠCorbell": 6767,
      "Ġinhabit": 6768,
      "ĠChan": 6769,
      "ĠPop": 6770,
      "Ġaloud": 6771,
      "aby": 6772,
      "Ġbroadcast": 6773,
      "Ġbench": 6774,
      "otes": 6775,
      "ĠAng": 6776,
      "Ġchap": 6777,
      "Ġmissile": 6778,
      "Ġsentence": 6779,
      "Ġlimbs": 6780,
      "ickel": 6781,
      "Ġaccompanied": 6782,
      "Ġunpleasant": 6783,
      "ties": 6784,
      "Ġpity": 6785,
      "arian": 6786,
      "lyn": 6787,
      "ppled": 6788,
      "Ġagreement": 6789,
      "Ġuncertain": 6790,
      "Ġvariety": 6791,
      "Ġtubes": 6792,
      "Ġinfluence": 6793,
      "inch": 6794,
      "osis": 6795,
      "ĠGalactic": 6796,
      "space": 6797,
      "Ġdriven": 6798,
      "Ġimportance": 6799,
      "Ġproduction": 6800,
      "Ġgrimly": 6801,
      "Ġwreck": 6802,
      "ĠBaley": 6803,
      "ĠOl": 6804,
      "Ġsmashed": 6805,
      "Ġequival": 6806,
      "ĠTerry": 6807,
      "Ġanxious": 6808,
      "eight": 6809,
      "Ġpacked": 6810,
      "ĠRon": 6811,
      "ggy": 6812,
      "Ġslender": 6813,
      "Ġloaded": 6814,
      "stein": 6815,
      "ilty": 6816,
      "Ġentry": 6817,
      "ĠCarol": 6818,
      "etime": 6819,
      "ĠAust": 6820,
      "aneously": 6821,
      "Ġinformed": 6822,
      "ĠIsland": 6823,
      "ona": 6824,
      "utions": 6825,
      "ica": 6826,
      "anting": 6827,
      "Ġvital": 6828,
      "Ġsubstance": 6829,
      "Certainly": 6830,
      "Ġank": 6831,
      "ĠBell": 6832,
      "Ġrode": 6833,
      "Ġcapsule": 6834,
      "Ġsnar": 6835,
      "Ġvert": 6836,
      "ĠLuc": 6837,
      "ĠJac": 6838,
      "Ġawak": 6839,
      "ugs": 6840,
      "ĠHead": 6841,
      "ĠRey": 6842,
      "ourn": 6843,
      "ĠInside": 6844,
      "Ġtender": 6845,
      "Ġspraw": 6846,
      "Ġoverw": 6847,
      "Ġpreced": 6848,
      "Ġregul": 6849,
      "Ġformal": 6850,
      "Ġspeaker": 6851,
      "Ġadjusted": 6852,
      "emp": 6853,
      "Ġwheels": 6854,
      "ĠExcept": 6855,
      "Ġcalmly": 6856,
      "Ġ!\"": 6857,
      "ĠCast": 6858,
      "ĠMull": 6859,
      "ĠDef": 6860,
      "ĠKl": 6861,
      "Ġsubtle": 6862,
      "Ġmounted": 6863,
      "Ġcreate": 6864,
      "Ġaimed": 6865,
      "iac": 6866,
      "ority": 6867,
      "Ġhook": 6868,
      "ĠDi": 6869,
      "Ġprospect": 6870,
      "Ġquit": 6871,
      "Ġlightning": 6872,
      "Ġbreathe": 6873,
      "aps": 6874,
      "ĠSturgeon": 6875,
      "Ġseventy": 6876,
      "Ġmetallic": 6877,
      "Uh": 6878,
      "Ġstal": 6879,
      "ĠFree": 6880,
      "ortion": 6881,
      "Ġfeature": 6882,
      "Ġcommerc": 6883,
      "Ġacceleration": 6884,
      "Ġbewild": 6885,
      "Ġacting": 6886,
      "Ġtrapped": 6887,
      "Ġdropping": 6888,
      "Ġeyebrows": 6889,
      "equ": 6890,
      "ĠSus": 6891,
      "ntil": 6892,
      "Ġtracks": 6893,
      "Ġtalent": 6894,
      "Ġincluded": 6895,
      "Ġexhaust": 6896,
      "Ġodor": 6897,
      "riv": 6898,
      "ĠCirc": 6899,
      "ĠDam": 6900,
      "Ġguys": 6901,
      "Ġremarkable": 6902,
      "Ġoccasionally": 6903,
      "Ġslide": 6904,
      "Ġcontempt": 6905,
      "Ġimagined": 6906,
      "Ġlungs": 6907,
      "acc": 6908,
      "Ġkick": 6909,
      "Ġspear": 6910,
      "Ġcheap": 6911,
      "scape": 6912,
      "Ġappropri": 6913,
      "Ġbould": 6914,
      "ĠStark": 6915,
      "Ġweird": 6916,
      "ĠMal": 6917,
      "Ġclimbing": 6918,
      "Ġtransmitter": 6919,
      "Ġshr": 6920,
      "ĠEngland": 6921,
      "Ġconnection": 6922,
      "ĠCall": 6923,
      "ĠFer": 6924,
      "ousy": 6925,
      "ourse": 6926,
      "Ġglowed": 6927,
      "Ġinstall": 6928,
      "Ġ.#": 6929,
      "Ġstudent": 6930,
      "Ġadvice": 6931,
      "Ġviolent": 6932,
      "impse": 6933,
      "Ġwha": 6934,
      "essed": 6935,
      "ĠDen": 6936,
      "Ġblackness": 6937,
      "Ġexchange": 6938,
      "gue": 6939,
      "Ġtale": 6940,
      "ĠTra": 6941,
      "ĠGord": 6942,
      "Ġworkers": 6943,
      "Ġdistingu": 6944,
      "Ġkeeps": 6945,
      "ĠAlv": 6946,
      "ĠBrand": 6947,
      "Ġsuicide": 6948,
      "Ġfusion": 6949,
      "Ġstamped": 6950,
      "Ġcheeks": 6951,
      "arently": 6952,
      "Ġnurse": 6953,
      "rick": 6954,
      "Ġsed": 6955,
      "Ġpour": 6956,
      "Ġglimpse": 6957,
      "Ġindepend": 6958,
      "Ġdrag": 6959,
      "Ġeighty": 6960,
      "Ġmagnetic": 6961,
      "ribe": 6962,
      "ĠMet": 6963,
      "order": 6964,
      "awed": 6965,
      "everal": 6966,
      "Ġboots": 6967,
      "Ġoperate": 6968,
      "ĠConf": 6969,
      "Ġje": 6970,
      "ĠJed": 6971,
      "Ġdrown": 6972,
      "Ġsurvived": 6973,
      "Ġpackage": 6974,
      "ifying": 6975,
      "Ġcloth": 6976,
      "Ġelabor": 6977,
      "Ġjobs": 6978,
      "Ġtypes": 6979,
      "vo": 6980,
      "Ġtool": 6981,
      "emies": 6982,
      "Ġbrushed": 6983,
      "Ġexposed": 6984,
      "Ġcareer": 6985,
      "Ġpossessed": 6986,
      "Ġconclusion": 6987,
      "Ġefficient": 6988,
      "Ġsqueezed": 6989,
      "Ġtil": 6990,
      "Ġfu": 6991,
      "ĠFoyle": 6992,
      "Ġrefuse": 6993,
      "Ġmarry": 6994,
      "Ġproperty": 6995,
      "mond": 6996,
      "Ġconsp": 6997,
      "ĠFant": 6998,
      "ĠLew": 6999,
      "agger": 7000,
      "ĠThus": 7001,
      "Ġpresident": 7002,
      "ĠAmbassador": 7003,
      "Ġtapped": 7004,
      "Ġpig": 7005,
      "Ġgor": 7006,
      "Ġstair": 7007,
      "ĠSid": 7008,
      "ĠClarke": 7009,
      "Ġobey": 7010,
      "ato": 7011,
      "ĠPort": 7012,
      "ĠGal": 7013,
      "Ġshame": 7014,
      "Ġshapes": 7015,
      "Ġmovements": 7016,
      "umping": 7017,
      "Ġvacuum": 7018,
      "Ġnove": 7019,
      "iley": 7020,
      "Ġtales": 7021,
      "Ġvisitor": 7022,
      "Ġgripped": 7023,
      "vest": 7024,
      "asure": 7025,
      "ĠStand": 7026,
      "six": 7027,
      "Ġconsist": 7028,
      "Ġandroid": 7029,
      "rors": 7030,
      "Ġtens": 7031,
      "Ġbunk": 7032,
      "etter": 7033,
      "amond": 7034,
      "Ġpermitted": 7035,
      "plete": 7036,
      "Ġpurposes": 7037,
      "Ġblonde": 7038,
      "with": 7039,
      "ĠTed": 7040,
      "Ġpray": 7041,
      "Ġcigar": 7042,
      "Ġack": 7043,
      "Ġdign": 7044,
      "ĠBart": 7045,
      "Ġoverl": 7046,
      "Ġconfidence": 7047,
      "Ġdelic": 7048,
      "olet": 7049,
      "zer": 7050,
      "ĠBo": 7051,
      "Ġglobe": 7052,
      "ĠCommissioner": 7053,
      "gain": 7054,
      "ĠHas": 7055,
      "Ġpassenger": 7056,
      "Ġtie": 7057,
      "Ġflower": 7058,
      "Ġwhenever": 7059,
      "ĠChic": 7060,
      "Ġprisoner": 7061,
      "ickered": 7062,
      "ĠPete": 7063,
      "Ġsoot": 7064,
      "inese": 7065,
      "Ġdefinitely": 7066,
      "ĠSea": 7067,
      "Ġstruggle": 7068,
      "ĠDepartment": 7069,
      "Ġnewspaper": 7070,
      "Ġdancing": 7071,
      "Ġgul": 7072,
      "Ġitem": 7073,
      "ĠDeath": 7074,
      "ifully": 7075,
      "Ġcris": 7076,
      "ĠSomehow": 7077,
      "Ġcrude": 7078,
      "ĠDuke": 7079,
      "Ġsucceeded": 7080,
      "cis": 7081,
      "Ġsink": 7082,
      "ĠTod": 7083,
      "ĠSal": 7084,
      "Ġrank": 7085,
      "Ġselection": 7086,
      "Ġswing": 7087,
      "Ġcourage": 7088,
      "Ġwildly": 7089,
      "Ġbowed": 7090,
      "Ġdamp": 7091,
      "ĠNeither": 7092,
      "Ġcollapsed": 7093,
      "ĠRyeland": 7094,
      "viously": 7095,
      "Ġdomin": 7096,
      "Ġpulse": 7097,
      "ĠHome": 7098,
      "tedly": 7099,
      "ĠPan": 7100,
      "ĠVo": 7101,
      "Ġguilty": 7102,
      "Ġpersonally": 7103,
      "Ġspat": 7104,
      "grim": 7105,
      "Ġpaint": 7106,
      "Ġimprove": 7107,
      "ĠHil": 7108,
      "ĠAir": 7109,
      "Ġrevol": 7110,
      "Ġconnected": 7111,
      "Ġwed": 7112,
      "itter": 7113,
      "unks": 7114,
      "Ġtrigger": 7115,
      "Ġdelay": 7116,
      "Ġbarrier": 7117,
      "Ġlevels": 7118,
      "Ġtouching": 7119,
      "Ġarrive": 7120,
      "uk": 7121,
      "Ġhalt": 7122,
      "ĠHam": 7123,
      "Ġslapped": 7124,
      "Ġcollar": 7125,
      "Ġritual": 7126,
      "Ġequivalent": 7127,
      "Ġtoler": 7128,
      "izer": 7129,
      "Ġowner": 7130,
      "Ġscratch": 7131,
      "ĠOfficer": 7132,
      "years": 7133,
      "Ġcook": 7134,
      "ori": 7135,
      "Ġinterrupt": 7136,
      "Ġmotionless": 7137,
      "ubborn": 7138,
      "Ġcommercial": 7139,
      "Ġgig": 7140,
      "ords": 7141,
      "Ġengineers": 7142,
      "Ġliterally": 7143,
      "Ġsite": 7144,
      "Ġwashed": 7145,
      "Ġsail": 7146,
      "ĠEarthman": 7147,
      "headed": 7148,
      "Ġapplied": 7149,
      "Ġshooting": 7150,
      "bes": 7151,
      "izes": 7152,
      "angle": 7153,
      "class": 7154,
      "Ġextent": 7155,
      "ĠBlue": 7156,
      "Ġmethods": 7157,
      "ĠSolar": 7158,
      "wen": 7159,
      "Ġbearing": 7160,
      "outs": 7161,
      "ĠFle": 7162,
      "ĠCliff": 7163,
      "Ġarrival": 7164,
      "Ġcaptured": 7165,
      "Ġresources": 7166,
      "HE": 7167,
      "uary": 7168,
      "lend": 7169,
      "Ġsaving": 7170,
      "ulously": 7171,
      "oding": 7172,
      "ĠAlice": 7173,
      "Does": 7174,
      "Ġneatly": 7175,
      "ĠNaturally": 7176,
      "Ġhut": 7177,
      "sell": 7178,
      "alls": 7179,
      "Ġabst": 7180,
      "Ġstandards": 7181,
      "lebr": 7182,
      "utive": 7183,
      "otch": 7184,
      "Ġwearily": 7185,
      "Ġsquad": 7186,
      "ĠHarvey": 7187,
      "Ġexpecting": 7188,
      "Ġspotted": 7189,
      "ĠMeanwhile": 7190,
      "standing": 7191,
      "Ġattractive": 7192,
      "ĠSubsc": 7193,
      "oubtedly": 7194,
      "ipper": 7195,
      "Ġreception": 7196,
      "oret": 7197,
      "ĠLight": 7198,
      "Ġseeking": 7199,
      "Ġcharged": 7200,
      "Ġfifth": 7201,
      "zard": 7202,
      "ĠLy": 7203,
      "akers": 7204,
      "Ġchecking": 7205,
      "Ġactions": 7206,
      "Ġinfinite": 7207,
      "Ġsolve": 7208,
      "Ġprecious": 7209,
      "Ġsafely": 7210,
      "Ġdeclared": 7211,
      "Ġshattered": 7212,
      "Ġnut": 7213,
      "Ġfraction": 7214,
      "ĠFore": 7215,
      "ĠFire": 7216,
      "Ġdisaster": 7217,
      "Ġhappily": 7218,
      "Ġdistrib": 7219,
      "Ġideal": 7220,
      "Ġwandered": 7221,
      "Ġcann": 7222,
      "Ġseek": 7223,
      "ĠMorgan": 7224,
      "ĠSenator": 7225,
      "Ġhalted": 7226,
      "ij": 7227,
      "Ġgau": 7228,
      "Ġhers": 7229,
      "ĠOct": 7230,
      "Ġenemies": 7231,
      "Ġsets": 7232,
      "Ġmarvel": 7233,
      "Ġappears": 7234,
      "Ġrubber": 7235,
      "Ġridge": 7236,
      "respond": 7237,
      "Ġwars": 7238,
      "leton": 7239,
      "oped": 7240,
      "Ġpolicy": 7241,
      "uate": 7242,
      "iture": 7243,
      "Ġfate": 7244,
      "Ġpitch": 7245,
      "Ġswinging": 7246,
      "Ġstring": 7247,
      "Ġdram": 7248,
      "Ġcounted": 7249,
      "orage": 7250,
      "anked": 7251,
      "ader": 7252,
      "Ġflut": 7253,
      "rett": 7254,
      "Ġeaten": 7255,
      "away": 7256,
      "sen": 7257,
      "Ġpad": 7258,
      "apor": 7259,
      "ĠKn": 7260,
      "Ġchill": 7261,
      "Ġdrifting": 7262,
      "Like": 7263,
      "ĠHo": 7264,
      "osaur": 7265,
      "Ġunst": 7266,
      "Ġlargest": 7267,
      "Ġpresented": 7268,
      "Ġessential": 7269,
      "bly": 7270,
      "ĠTex": 7271,
      "emen": 7272,
      "ĠRun": 7273,
      "lings": 7274,
      "Ġgrateful": 7275,
      "ĠChandler": 7276,
      "\",": 7277,
      "Ġshed": 7278,
      "ĠTar": 7279,
      "unior": 7280,
      "inding": 7281,
      "Ġfet": 7282,
      "Ġlic": 7283,
      "Ġreward": 7284,
      "Ġagony": 7285,
      "Ġrigid": 7286,
      "hall": 7287,
      "amiliar": 7288,
      "Ġupright": 7289,
      "Ġvote": 7290,
      "Ġcorp": 7291,
      "Ġsque": 7292,
      "Ġapproxim": 7293,
      "ĠEveryone": 7294,
      "Ġgigg": 7295,
      "ĠTor": 7296,
      "Ġuh": 7297,
      "ĠSeveral": 7298,
      "ulted": 7299,
      "Ġflipped": 7300,
      "Ġargue": 7301,
      "Ġencou": 7302,
      "Ġrhyth": 7303,
      "oning": 7304,
      "Ġspell": 7305,
      "Ġguilt": 7306,
      "Ġcapacity": 7307,
      "Ġbombs": 7308,
      "Ġ1": 7309,
      "hend": 7310,
      "Ġgalactic": 7311,
      "Ġstol": 7312,
      "ĠSven": 7313,
      "Ġash": 7314,
      "ili": 7315,
      "ĠEve": 7316,
      "ĠLady": 7317,
      "Ġelimin": 7318,
      "Ġpurcha": 7319,
      "Ġmessages": 7320,
      "Ġmilk": 7321,
      "Ġconcealed": 7322,
      "Ġgathering": 7323,
      "Ġlined": 7324,
      "Ġconfident": 7325,
      "Ġartist": 7326,
      "Ġlimits": 7327,
      "ĠFederation": 7328,
      "ĠEmpire": 7329,
      "green": 7330,
      "rict": 7331,
      "Ġfinds": 7332,
      "Ġcombat": 7333,
      "Ġstubborn": 7334,
      "outher": 7335,
      "plate": 7336,
      "ickers": 7337,
      "Ġcurved": 7338,
      "Ġparall": 7339,
      "ĠSuppose": 7340,
      "Ġdescribe": 7341,
      "hour": 7342,
      "Ġcore": 7343,
      "Ġvig": 7344,
      "ĠFort": 7345,
      "Ġpoet": 7346,
      "Ġsecure": 7347,
      "Ġequipped": 7348,
      "Ġflex": 7349,
      "Ġthrowing": 7350,
      "Ġseed": 7351,
      "Ġlighted": 7352,
      "Ġsuspicion": 7353,
      "Ġscrambled": 7354,
      "bited": 7355,
      "Ġrack": 7356,
      "Ġsevere": 7357,
      "osh": 7358,
      "Ġplates": 7359,
      "Ġhorrible": 7360,
      "After": 7361,
      "Ġdared": 7362,
      "Ġpul": 7363,
      "ĠHy": 7364,
      "Ġshuff": 7365,
      "Ġcapital": 7366,
      "ĠChinese": 7367,
      "Ġmissiles": 7368,
      "Ġinsects": 7369,
      "Ġdisgust": 7370,
      "Ġplunged": 7371,
      "Could": 7372,
      "Ġfists": 7373,
      "Ġcurtain": 7374,
      "Ġconsidering": 7375,
      "Ġfellows": 7376,
      "Ġdepos": 7377,
      "Ġtemple": 7378,
      "Ġconstantly": 7379,
      "Ġscarcely": 7380,
      "Ġeducation": 7381,
      "yon": 7382,
      "Ġdict": 7383,
      "Ġcompared": 7384,
      "Ġinnocent": 7385,
      "Ġcrouched": 7386,
      "Ch": 7387,
      "ĠCur": 7388,
      "ĠGive": 7389,
      "Ġassigned": 7390,
      "Ġsinging": 7391,
      "Ġblocks": 7392,
      "Ġmaximum": 7393,
      "ups": 7394,
      "Ġhomes": 7395,
      "Ġeth": 7396,
      "ĠFif": 7397,
      "ĠRal": 7398,
      "Ġfeels": 7399,
      "ĠBrun": 7400,
      "Ġtraveling": 7401,
      "Ġstaggered": 7402,
      "Com": 7403,
      "jo": 7404,
      "uated": 7405,
      "Ġtables": 7406,
      "Ġbread": 7407,
      "encies": 7408,
      "hers": 7409,
      "ĠWald": 7410,
      "ĠClass": 7411,
      "Ġpainful": 7412,
      "Ġsensitive": 7413,
      "Ġsuspicious": 7414,
      "Ġcollege": 7415,
      "ĠPen": 7416,
      "ĠDown": 7417,
      "Ġprompt": 7418,
      "Ġpsychiat": 7419,
      "Ġcasually": 7420,
      "Ġconcentrated": 7421,
      "Ġimpatiently": 7422,
      "ĠSecretary": 7423,
      "aved": 7424,
      "inge": 7425,
      "Ġwhim": 7426,
      "raged": 7427,
      "Ġpunched": 7428,
      "'.": 7429,
      "ĠDark": 7430,
      "Ġvoy": 7431,
      "osal": 7432,
      "Ġbrass": 7433,
      "Ġimpulse": 7434,
      "Ġnormally": 7435,
      "Ġcorridors": 7436,
      "Ġages": 7437,
      "Ġscrew": 7438,
      "hin": 7439,
      "water": 7440,
      "ĠRim": 7441,
      "Ġclung": 7442,
      "Ġsimult": 7443,
      "ieth": 7444,
      "Ġcompanions": 7445,
      "Ġinevitable": 7446,
      "Ġhumanoid": 7447,
      "Ġrecording": 7448,
      "Ġphysic": 7449,
      "Ġextend": 7450,
      "ĠLove": 7451,
      "Ġslave": 7452,
      "Ġcrater": 7453,
      "Ġarmy": 7454,
      "ervation": 7455,
      "Ġlocation": 7456,
      "Ġconvince": 7457,
      "Ġshower": 7458,
      "ĠStan": 7459,
      "Ġappar": 7460,
      "obs": 7461,
      "Ġpossibilities": 7462,
      "Ġliterature": 7463,
      "Ġassistant": 7464,
      "ĠChicago": 7465,
      "mare": 7466,
      "Ġjar": 7467,
      "ĠRiver": 7468,
      "ĠVict": 7469,
      "Ġcircular": 7470,
      "sibly": 7471,
      "Ġgroaned": 7472,
      "ez": 7473,
      "Ġwires": 7474,
      "Ġbits": 7475,
      "Ġbeating": 7476,
      "Ġappeal": 7477,
      "Ġamuse": 7478,
      "ĠAnth": 7479,
      "Ġexamine": 7480,
      "iance": 7481,
      "Ġnerves": 7482,
      "ĠHan": 7483,
      "rod": 7484,
      "Ġsho": 7485,
      "Ġvoc": 7486,
      "attering": 7487,
      "ĠClark": 7488,
      "Ġbuttons": 7489,
      "Ġbars": 7490,
      "seud": 7491,
      "Ġfrust": 7492,
      "ni": 7493,
      "Ġfinest": 7494,
      "Ġmagnific": 7495,
      "Ġswimming": 7496,
      "ĠCat": 7497,
      "ĠGann": 7498,
      "Ġcovers": 7499,
      "Ġwaving": 7500,
      "walk": 7501,
      "Ġpra": 7502,
      "asp": 7503,
      "Ġgre": 7504,
      "Ġyield": 7505,
      "Ġstern": 7506,
      "Ġtwin": 7507,
      "dding": 7508,
      "Ġspaceport": 7509,
      "Ġcommander": 7510,
      "iques": 7511,
      "Ġtested": 7512,
      "Ġdumb": 7513,
      "ĠAlf": 7514,
      "ussed": 7515,
      "Ġshared": 7516,
      "ibility": 7517,
      "Ġeighteen": 7518,
      "Ġsurrounding": 7519,
      "Ġresistance": 7520,
      "atus": 7521,
      "Ġseason": 7522,
      "Ġnoon": 7523,
      "Ġprime": 7524,
      "Ġglare": 7525,
      "Ġshallow": 7526,
      "Ġidiot": 7527,
      "boy": 7528,
      "Ġunl": 7529,
      "ishly": 7530,
      "Ġrelative": 7531,
      "Ġsignals": 7532,
      "Ġhyster": 7533,
      "Ġhypnot": 7534,
      "ĠGaramond": 7535,
      "Ġspinning": 7536,
      "Too": 7537,
      "Ġmate": 7538,
      "Ġratt": 7539,
      "Ġwherever": 7540,
      "ĠWalter": 7541,
      "Ġroughly": 7542,
      "ĠHonor": 7543,
      "ĠAfric": 7544,
      "Ġgam": 7545,
      "Ġerect": 7546,
      "Ġshots": 7547,
      "ĠLyn": 7548,
      "Ġclo": 7549,
      "Ġbrisk": 7550,
      "Ġengineering": 7551,
      "Ġinvented": 7552,
      "ĠGund": 7553,
      "Ġflowed": 7554,
      "Ġimages": 7555,
      "Ġintercom": 7556,
      "Ġinclude": 7557,
      "Ġdrinks": 7558,
      "ĠTit": 7559,
      "earch": 7560,
      "Ġprem": 7561,
      "Ġaffair": 7562,
      "Ġnearer": 7563,
      "Ġloyal": 7564,
      "Ġgazed": 7565,
      "acter": 7566,
      "Ġclam": 7567,
      "Ġamazing": 7568,
      "Ġmonst": 7569,
      "Ġedges": 7570,
      "Ġcuriously": 7571,
      "Ġcircled": 7572,
      "Ġcelebr": 7573,
      "Ġdescription": 7574,
      "Ġrapid": 7575,
      "Ġloudly": 7576,
      "Ġindividuals": 7577,
      "Ġintroduced": 7578,
      "Ġprinciple": 7579,
      "Ġchallenge": 7580,
      "yl": 7581,
      "Ġsang": 7582,
      "ĠDis": 7583,
      "ĠAtl": 7584,
      "Ġbranches": 7585,
      "Sp": 7586,
      "bound": 7587,
      "power": 7588,
      "Ġwaters": 7589,
      "Ġlamp": 7590,
      "Ġsale": 7591,
      "Ġremar": 7592,
      "Ġhighest": 7593,
      "bul": 7594,
      "Ġriding": 7595,
      "Ġmanip": 7596,
      "Ġbrand": 7597,
      "Ġdeserted": 7598,
      "Ġminimum": 7599,
      "Ġpatrol": 7600,
      "Ġcombination": 7601,
      "ĠTerrans": 7602,
      "Ġhem": 7603,
      "ĠAlex": 7604,
      "riff": 7605,
      "ĠDar": 7606,
      "erer": 7607,
      "Ġplanted": 7608,
      "ĠHarrison": 7609,
      "Ġcrept": 7610,
      "Ġsmoothly": 7611,
      "Ġdespair": 7612,
      "Ġdescended": 7613,
      "Ġgained": 7614,
      "ĠHot": 7615,
      "ddy": 7616,
      "Ġcharges": 7617,
      "Ġcovering": 7618,
      "outhern": 7619,
      "Cap": 7620,
      "mble": 7621,
      "stone": 7622,
      "Ġhandful": 7623,
      "Ġcontents": 7624,
      "ilding": 7625,
      "Ġshaped": 7626,
      "ĠTomorrow": 7627,
      "Ġaltogether": 7628,
      "Ġexperiments": 7629,
      "Ġ#:#": 7630,
      "ĠThings": 7631,
      "ellig": 7632,
      "ĠLat": 7633,
      "ĠKnight": 7634,
      "Ġinvited": 7635,
      "Ġreference": 7636,
      "Ġuncle": 7637,
      "Ġphrase": 7638,
      "Ġbreeze": 7639,
      "ino": 7640,
      "Ġnotion": 7641,
      "Ġwinds": 7642,
      "Ġtreated": 7643,
      "Ġhissed": 7644,
      "umably": 7645,
      "Ġfever": 7646,
      "Ġscore": 7647,
      "Ġcolored": 7648,
      "ĠSurely": 7649,
      "Ġphenomenon": 7650,
      "Ġsup": 7651,
      "Ġcock": 7652,
      "Ġblanket": 7653,
      "Ġhoarse": 7654,
      "Ġreligion": 7655,
      "ĠRoger": 7656,
      "Ġuncomfortable": 7657,
      "ĠMexico": 7658,
      "ini": 7659,
      "iral": 7660,
      "Ġbegins": 7661,
      "Ġfury": 7662,
      "Ġlifetime": 7663,
      "Ġdaily": 7664,
      "Ġprofession": 7665,
      "Ġwisdom": 7666,
      "fs": 7667,
      "hill": 7668,
      "Ġinward": 7669,
      "Ġraced": 7670,
      "Ġflashing": 7671,
      "ounded": 7672,
      "Ġexploration": 7673,
      "ĠAmal": 7674,
      "Ġgenetic": 7675,
      "Ġidentical": 7676,
      "Ġsolemn": 7677,
      "Ġadapt": 7678,
      "Ġinex": 7679,
      "utt": 7680,
      "ĠAug": 7681,
      "ifact": 7682,
      "ĠCemp": 7683,
      "ĠDad": 7684,
      "Ġswear": 7685,
      "Ġwarri": 7686,
      "ĠMarg": 7687,
      "Ġpainted": 7688,
      "Ġacknow": 7689,
      "Two": 7690,
      "unction": 7691,
      "Ġdece": 7692,
      "appy": 7693,
      "Ġtroubles": 7694,
      "ĠIndian": 7695,
      "Ġfortun": 7696,
      "Ġnois": 7697,
      "Ġresent": 7698,
      "Ġirre": 7699,
      "ĠGroac": 7700,
      "Ġreduced": 7701,
      "ĠSpecial": 7702,
      "wor": 7703,
      "imen": 7704,
      "Ġweigh": 7705,
      "illa": 7706,
      "ĠDaddy": 7707,
      "Ġslumped": 7708,
      "Ġnights": 7709,
      "Ġreasonably": 7710,
      "Ġmuscle": 7711,
      "Ġphysically": 7712,
      "fit": 7713,
      "velope": 7714,
      "Ġlimp": 7715,
      "Ġuneas": 7716,
      "Ġunlikely": 7717,
      "Re": 7718,
      "ellow": 7719,
      "Ġsurf": 7720,
      "Ġinternal": 7721,
      "Ġstaying": 7722,
      "ĠMichael": 7723,
      "ĠTT": 7724,
      "ĠHa": 7725,
      "Ġshrie": 7726,
      "ounding": 7727,
      "Ġmoves": 7728,
      "Ġpencil": 7729,
      "Ġoverwhel": 7730,
      "Ġtact": 7731,
      "ĠDal": 7732,
      "Ġsober": 7733,
      "Ġheadquarters": 7734,
      "Ġtray": 7735,
      "Ġmoral": 7736,
      "Ġleaders": 7737,
      "Ġexhausted": 7738,
      "ĠFrancis": 7739,
      "ĠBan": 7740,
      "Ġalike": 7741,
      "ĠMarie": 7742,
      "Ġcavern": 7743,
      "Ġcruel": 7744,
      "Ġmultip": 7745,
      "Ġinitial": 7746,
      "ĠAut": 7747,
      "ĠBureau": 7748,
      "thern": 7749,
      "Ġflickered": 7750,
      "These": 7751,
      "Ġreserved": 7752,
      "ramid": 7753,
      "ĠtEe": 7754,
      "Ġgigantic": 7755,
      "Ġtab": 7756,
      "onna": 7757,
      "Ġstorage": 7758,
      "Ġ#'": 7759,
      "Ġacted": 7760,
      "Ġcarpet": 7761,
      "upp": 7762,
      "Ġstations": 7763,
      "ĠAge": 7764,
      "olph": 7765,
      "ĠVickers": 7766,
      "Ġcrashed": 7767,
      "ailed": 7768,
      "Ġtransm": 7769,
      "ĠTwenty": 7770,
      "Ġradioact": 7771,
      "Ġannounce": 7772,
      "Ġsoldier": 7773,
      "Ġfabric": 7774,
      "Ġclen": 7775,
      "ĠVir": 7776,
      "Ġincon": 7777,
      "Ġregist": 7778,
      "Ġillusion": 7779,
      "Ġsacrif": 7780,
      "ĠMallory": 7781,
      "vals": 7782,
      "Ġward": 7783,
      "asped": 7784,
      "Ġdoctors": 7785,
      "eller": 7786,
      "Ġmanager": 7787,
      "ondition": 7788,
      "Ġpounding": 7789,
      "Jo": 7790,
      "Ġtons": 7791,
      "Ġcure": 7792,
      "orous": 7793,
      "Ġgn": 7794,
      "steps": 7795,
      "Ġrul": 7796,
      "erent": 7797,
      "ĠAlpha": 7798,
      "Ġsuitable": 7799,
      "riptions": 7800,
      "white": 7801,
      "Ġmarks": 7802,
      "bird": 7803,
      "mpt": 7804,
      "Ġdart": 7805,
      "ĠPot": 7806,
      "Ġintention": 7807,
      "osc": 7808,
      "ĠLo": 7809,
      "Ġsche": 7810,
      "Ġflicked": 7811,
      "Ġpermission": 7812,
      "Ġattacked": 7813,
      "Ġcorrespond": 7814,
      "Ġdrum": 7815,
      "Ġleaf": 7816,
      "ĠEverybody": 7817,
      "Ġtelescope": 7818,
      "Ġrecalled": 7819,
      "Ġsnorted": 7820,
      "ĠOthers": 7821,
      "ĠMercury": 7822,
      "Ġfolks": 7823,
      "Ġexercise": 7824,
      "bury": 7825,
      "Ġuses": 7826,
      "ĠTherefore": 7827,
      "Ġpolished": 7828,
      "Ġsurviv": 7829,
      "Ġportion": 7830,
      "Ġdrugs": 7831,
      "Ġcommitted": 7832,
      "Ġga": 7833,
      "Ġalley": 7834,
      "ĠJay": 7835,
      "Ġrole": 7836,
      "Ġsorts": 7837,
      "ĠInstitute": 7838,
      "Ġvisitors": 7839,
      "ĠLarry": 7840,
      "Ġfert": 7841,
      "ĠCertainly": 7842,
      "Ġresign": 7843,
      "Ġregion": 7844,
      "Ġdisturb": 7845,
      "Ġinquired": 7846,
      "mark": 7847,
      "mony": 7848,
      "Ġjets": 7849,
      "ĠNational": 7850,
      "Ġindign": 7851,
      "Ġrelieved": 7852,
      "Ġbol": 7853,
      "Ġmamm": 7854,
      "Ġheels": 7855,
      "Ġwasted": 7856,
      "Ġproced": 7857,
      "Ġclicked": 7858,
      "ondon": 7859,
      "Ġguest": 7860,
      "Ġrelatively": 7861,
      "Ġdirector": 7862,
      "Ġdelivered": 7863,
      "Ġtechnique": 7864,
      "Ġsalt": 7865,
      "ĠApparently": 7866,
      "Ġhover": 7867,
      "ĠTur": 7868,
      "Ġspots": 7869,
      "Ġbrings": 7870,
      "Ġhelping": 7871,
      "Ġarticles": 7872,
      "wart": 7873,
      "Ġther": 7874,
      "ĠVor": 7875,
      "Ġlandscape": 7876,
      "Ġprivacy": 7877,
      "Ġechoed": 7878,
      "ainted": 7879,
      "Ġseal": 7880,
      "ĠChild": 7881,
      "Ġdanced": 7882,
      "ĠMont": 7883,
      "Ġorg": 7884,
      "Ġnightmare": 7885,
      "Ġcommunity": 7886,
      "Ġprepar": 7887,
      "Ġpockets": 7888,
      "Ġjudgment": 7889,
      "Ġfluid": 7890,
      "ĠHans": 7891,
      "ĠPet": 7892,
      "achin": 7893,
      "Ġrecovered": 7894,
      "Ġinterp": 7895,
      "Ġpaying": 7896,
      "Ġfrightening": 7897,
      "Ġschedule": 7898,
      "called": 7899,
      "uting": 7900,
      "usive": 7901,
      "Ġseparated": 7902,
      "Ġdismiss": 7903,
      "ĠEnd": 7904,
      "rub": 7905,
      "ĠAndy": 7906,
      "Ġshade": 7907,
      "idding": 7908,
      "Ġnecessarily": 7909,
      "Ġchoked": 7910,
      "Ġcylinder": 7911,
      "box": 7912,
      "inter": 7913,
      "ĠBilly": 7914,
      "ĠPut": 7915,
      "ĠUntil": 7916,
      "Ġprofit": 7917,
      "ĠWheel": 7918,
      "Ab": 7919,
      "master": 7920,
      "ĠConn": 7921,
      "Ġstretch": 7922,
      "itution": 7923,
      "Ġsteep": 7924,
      "Ġaccum": 7925,
      "ĠQue": 7926,
      "Ġabsence": 7927,
      "Ġilleg": 7928,
      "Ġpeaceful": 7929,
      "Ġstiffly": 7930,
      "Ġowned": 7931,
      "Ġpip": 7932,
      "atical": 7933,
      "owachin": 7934,
      "Ġragged": 7935,
      "ĠDist": 7936,
      "Ġdownward": 7937,
      "Ġguests": 7938,
      "Ġtriumph": 7939,
      "ĠMarc": 7940,
      "Ġcoldly": 7941,
      "Ġhunger": 7942,
      "lette": 7943,
      "Ġnavig": 7944,
      "nne": 7945,
      "vant": 7946,
      "isters": 7947,
      "ĠMond": 7948,
      "empted": 7949,
      "Ġagents": 7950,
      "ĠVi": 7951,
      "Ġbund": 7952,
      "Ġgranted": 7953,
      "ĠGordon": 7954,
      "Pl": 7955,
      "Ġbers": 7956,
      "Ġconvey": 7957,
      "Ġbabies": 7958,
      "Ġcivilized": 7959,
      "ĠSecurity": 7960,
      "Ġstruggling": 7961,
      "Ġsuffered": 7962,
      "conscious": 7963,
      "Ġwitch": 7964,
      "Ġanten": 7965,
      "Ġrab": 7966,
      "Ġroots": 7967,
      "Ġactive": 7968,
      "ĠClay": 7969,
      "Ġprisoners": 7970,
      "Ġ(#)": 7971,
      "Ġdepths": 7972,
      "ĠBor": 7973,
      "ĠWor": 7974,
      "Ġnoises": 7975,
      "Ġfeared": 7976,
      "Ġenvelope": 7977,
      "Ġchart": 7978,
      "Ġmodest": 7979,
      "ĠMagaz": 7980,
      "Ġunfamiliar": 7981,
      "Ġbeasts": 7982,
      "Ġvirtually": 7983,
      "Ġfond": 7984,
      "Ġgy": 7985,
      "Ġrend": 7986,
      "Ġnod": 7987,
      "Ġflames": 7988,
      "Ġchess": 7989,
      "Ġdecent": 7990,
      "Ġoperator": 7991,
      "Ġillust": 7992,
      "Stop": 7993,
      "Ġsadly": 7994,
      "ĠDevlin": 7995,
      "Ġancestors": 7996,
      "Ġtissue": 7997,
      "ashes": 7998,
      "ustomed": 7999,
      "Ġpassion": 8000,
      "Ġclutched": 8001,
      "Ġaccurate": 8002,
      "Ġsnarled": 8003,
      "apers": 8004,
      "Ġcompon": 8005,
      "Ġstrangely": 8006,
      "Ġestim": 8007,
      "ĠMcKay": 8008,
      "Ġdarted": 8009,
      "vable": 8010,
      "utation": 8011,
      "ĠBert": 8012,
      "ĠCam": 8013,
      "Ġresting": 8014,
      "ĠAllen": 8015,
      "Ġterrit": 8016,
      "Ġreflex": 8017,
      "Ġaffect": 8018,
      "Ġparticles": 8019,
      "Ġcriminal": 8020,
      "Ar": 8021,
      "bors": 8022,
      "oting": 8023,
      "stream": 8024,
      "Ġram": 8025,
      "uments": 8026,
      "acking": 8027,
      "ĠGate": 8028,
      "Ġamused": 8029,
      "Ġ'#": 8030,
      "Ġfactory": 8031,
      "ĠHawkins": 8032,
      "Ġmovie": 8033,
      "tt": 8034,
      "Ġrational": 8035,
      "Ġliber": 8036,
      "Ġindicate": 8037,
      "Ġboxes": 8038,
      "Ġatom": 8039,
      "ĠLondon": 8040,
      "Ġmedium": 8041,
      "Ġdealing": 8042,
      "Ġincreasing": 8043,
      "Ġbranch": 8044,
      "ige": 8045,
      "Ġtlie": 8046,
      "ĠDamn": 8047,
      "Ġcurled": 8048,
      "Ġbrave": 8049,
      "Ġreactions": 8050,
      "rose": 8051,
      "ĠBax": 8052,
      "hann": 8053,
      "Ġlawyer": 8054,
      "Ġlouder": 8055,
      "Ġowe": 8056,
      "ila": 8057,
      "Ġsees": 8058,
      "ĠPress": 8059,
      "Ġalco": 8060,
      "Ġremove": 8061,
      "Ġvisited": 8062,
      "lights": 8063,
      "Ġtesting": 8064,
      "Ġapplication": 8065,
      "ĠNevertheless": 8066,
      "Ġglittering": 8067,
      "Ġfires": 8068,
      "Ġmyth": 8069,
      "Ġcomer": 8070,
      "Ġflag": 8071,
      "Ġflushed": 8072,
      "Ġexamination": 8073,
      "Ġtraveled": 8074,
      "ĠBruce": 8075,
      "bel": 8076,
      "ĠHol": 8077,
      "Ġshivered": 8078,
      "ĠPa": 8079,
      "ĠLos": 8080,
      "ĠLead": 8081,
      "Ġapply": 8082,
      "ĠTommy": 8083,
      "Ġbeams": 8084,
      "Ġcube": 8085,
      "ih": 8086,
      "uously": 8087,
      "Ġbud": 8088,
      "Ġbald": 8089,
      "ĠElect": 8090,
      "Ġcorrected": 8091,
      "Ġstrongly": 8092,
      "Ġcommunicate": 8093,
      "Ġbelonged": 8094,
      "ĠChristmas": 8095,
      "Ġlaz": 8096,
      "ĠBat": 8097,
      "ĠWrit": 8098,
      "Ġnewly": 8099,
      "ients": 8100,
      "Ġtransform": 8101,
      "ounted": 8102,
      "Ġexception": 8103,
      "Ġoperations": 8104,
      "Ġsmelled": 8105,
      "Ġscratched": 8106,
      "bula": 8107,
      "Ġbum": 8108,
      "ĠCale": 8109,
      "Ġhelic": 8110,
      "Ġprotected": 8111,
      "Ġdrawer": 8112,
      "ĠTrue": 8113,
      "vet": 8114,
      "Ġruns": 8115,
      "onnie": 8116,
      "inent": 8117,
      "Ġcous": 8118,
      "Ġmasters": 8119,
      "Ġpopped": 8120,
      "Ġwanting": 8121,
      "Ġimpressed": 8122,
      "Ġguided": 8123,
      "Ġwarn": 8124,
      "Ġdefinite": 8125,
      "ĠRoom": 8126,
      "Ġlaunched": 8127,
      "Ġprivile": 8128,
      "Ġviolently": 8129,
      "ĠJimmy": 8130,
      "Ġdelighted": 8131,
      "ĠSociety": 8132,
      "ĠBaxter": 8133,
      "Ġcable": 8134,
      "ĠBiron": 8135,
      "ĠMat": 8136,
      "Ġparaly": 8137,
      "ĠPrince": 8138,
      "Ġservices": 8139,
      "ĠGuinn": 8140,
      "ĠFreder": 8141,
      "ĠKirk": 8142,
      "Ġpolitely": 8143,
      "Ġencountered": 8144,
      "',": 8145,
      "ĠHart": 8146,
      "ĠBas": 8147,
      "actory": 8148,
      "Ġchick": 8149,
      "ensions": 8150,
      "ĠScient": 8151,
      "colored": 8152,
      "ĠJoseph": 8153,
      "Something": 8154,
      "ĠBrynne": 8155,
      "ae": 8156,
      "born": 8157,
      "pass": 8158,
      "ldom": 8159,
      "Ġshove": 8160,
      "Ġmomentarily": 8161,
      "zzle": 8162,
      "Ġurge": 8163,
      "Ġclaimed": 8164,
      "Ġhostile": 8165,
      "ĠActually": 8166,
      "Ġbubb": 8167,
      "itated": 8168,
      "ifer": 8169,
      "ĠCurt": 8170,
      "ĠDet": 8171,
      "Ġvault": 8172,
      "Ġsurre": 8173,
      "Ġsuns": 8174,
      "Ġreceiver": 8175,
      "ĠPublisher": 8176,
      "ĠAssoc": 8177,
      "Ġremarked": 8178,
      "Even": 8179,
      "Ġbast": 8180,
      "itudes": 8181,
      "antically": 8182,
      "ĠJason": 8183,
      "Ġdish": 8184,
      "Ġcontaining": 8185,
      "Ġcarbon": 8186,
      "Ġsnap": 8187,
      "Ġbarbar": 8188,
      "ĠExpl": 8189,
      "Ġsuffer": 8190,
      "Ġpositive": 8191,
      "Ġfourteen": 8192,
      "Ġodds": 8193,
      "Ġrepeat": 8194,
      "Ġsymbols": 8195,
      "rary": 8196,
      "ĠTal": 8197,
      "ĠGowachin": 8198,
      "Ġslaves": 8199,
      "Ġending": 8200,
      "Ġparad": 8201,
      "ĠSomewhere": 8202,
      "Ġlawn": 8203,
      "bet": 8204,
      "mody": 8205,
      "Ġsheets": 8206,
      "Ġscrap": 8207,
      "Ġparked": 8208,
      "Ġoddly": 8209,
      "Ġundoubtedly": 8210,
      "Ġinvestigation": 8211,
      "Ġtroops": 8212,
      "ĠGraham": 8213,
      "Ġpseud": 8214,
      "ĠSant": 8215,
      "Ġsliding": 8216,
      "Ġdisgu": 8217,
      "Ġterribly": 8218,
      "Ġpatiently": 8219,
      "Ġembarrassed": 8220,
      "iations": 8221,
      "Ġta": 8222,
      "Ġdried": 8223,
      "usk": 8224,
      "Ġfeather": 8225,
      "Ġteaching": 8226,
      "Ġstrained": 8227,
      "Ġpatted": 8228,
      "ĠMartians": 8229,
      "ĠTam": 8230,
      "ĠJes": 8231,
      "Ġhandled": 8232,
      "Ġsweep": 8233,
      "ĠSchool": 8234,
      "ĠOtherwise": 8235,
      "ĠVictor": 8236,
      "Ġlicked": 8237,
      "ĠSund": 8238,
      "ĠWolf": 8239,
      "Ġblunt": 8240,
      "ĠMarch": 8241,
      "Ġnecessity": 8242,
      "load": 8243,
      "Ġcycle": 8244,
      "fect": 8245,
      "ober": 8246,
      "rat": 8247,
      "Ġdiver": 8248,
      "Ġchildhood": 8249,
      "Ġhurled": 8250,
      "aneous": 8251,
      "Ġfeeding": 8252,
      "Ġshifting": 8253,
      "Ġmaintained": 8254,
      "ĠDesp": 8255,
      "ĠSilverberg": 8256,
      "Ġearnest": 8257,
      "planetary": 8258,
      "ĠRalph": 8259,
      "ĠGundersen": 8260,
      "herent": 8261,
      "Ġminer": 8262,
      "Ġpresently": 8263,
      "Ġsolved": 8264,
      "Ġelectrical": 8265,
      "Ġmeasured": 8266,
      "Ġaltitude": 8267,
      "fashion": 8268,
      "ĠSher": 8269,
      "ĠDec": 8270,
      "Ġcursed": 8271,
      "incing": 8272,
      "Ġaffairs": 8273,
      "ography": 8274,
      "entially": 8275,
      "rys": 8276,
      "actly": 8277,
      "Ġpron": 8278,
      "Ġpainfully": 8279,
      "ĠQuam": 8280,
      "Ġorganized": 8281,
      "Ġhatred": 8282,
      "Ġconcentration": 8283,
      "Ġsatellites": 8284,
      "Ġdwell": 8285,
      "Ġpier": 8286,
      "Ġreck": 8287,
      "ĠBaker": 8288,
      "Ġshelf": 8289,
      "aren": 8290,
      "Ġswam": 8291,
      "Ġobserve": 8292,
      "Ġhudd": 8293,
      "Ġthreatened": 8294,
      "Ġcaution": 8295,
      "proof": 8296,
      "Ġbathroom": 8297,
      "aus": 8298,
      "seven": 8299,
      "Ġblasted": 8300,
      "plus": 8301,
      "ĠThird": 8302,
      "gery": 8303,
      "Ġgrab": 8304,
      "Ġsettlement": 8305,
      "Ġbenefit": 8306,
      "Ġrecommend": 8307,
      "Ġappropriate": 8308,
      "Ġdwar": 8309,
      "Ġhors": 8310,
      "ĠDos": 8311,
      "Ġinte": 8312,
      "Ġlighter": 8313,
      "Ġfactors": 8314,
      "Ġawoke": 8315,
      "ĠUnfortunately": 8316,
      "Donald": 8317,
      "Ġelaborate": 8318,
      "bage": 8319,
      "riter": 8320,
      "Ġot": 8321,
      "imps": 8322,
      "Ġunm": 8323,
      "aph": 8324,
      "Ġtechniques": 8325,
      "Ġbasket": 8326,
      "Ġshuttle": 8327,
      "Ġidentify": 8328,
      "Ġfancy": 8329,
      "Ġrepresented": 8330,
      "Ġintensity": 8331,
      "Ġfears": 8332,
      "ĠYoung": 8333,
      "Ġsteal": 8334,
      "Ġripped": 8335,
      "ĠPresently": 8336,
      "Ġbrothers": 8337,
      "ĠSimon": 8338,
      "iveness": 8339,
      "May": 8340,
      "Ġti": 8341,
      "ĠWood": 8342,
      "Ġshrill": 8343,
      "ĠLast": 8344,
      "Ġafterward": 8345,
      "minded": 8346,
      "Give": 8347,
      "fare": 8348,
      "ĠWater": 8349,
      "Ġswore": 8350,
      "Ġstarts": 8351,
      "enced": 8352,
      "Ġ\"'": 8353,
      "ĠIss": 8354,
      "ĠShar": 8355,
      "orton": 8356,
      "Ġattempted": 8357,
      "Ġmidnight": 8358,
      "Ġvacation": 8359,
      "gaard": 8360,
      "Ġcorpse": 8361,
      "yes": 8362,
      "lets": 8363,
      "Ġstartling": 8364,
      "Ġsixteen": 8365,
      "Ġconduct": 8366,
      "Ġsuspended": 8367,
      "eff": 8368,
      "top": 8369,
      "Ġcough": 8370,
      "ĠSay": 8371,
      "ĠMund": 8372,
      "Ġslot": 8373,
      "Ġthoughtful": 8374,
      "Ġcorn": 8375,
      "Ġmarched": 8376,
      "Ġaffected": 8377,
      "Ġactivities": 8378,
      "Ġreveal": 8379,
      "Ġruined": 8380,
      "Ġphilosophy": 8381,
      "pit": 8382,
      "Ġbite": 8383,
      "Ġcared": 8384,
      "Ġthigh": 8385,
      "Ġspan": 8386,
      "osure": 8387,
      "ĠJuly": 8388,
      "Ġnostrils": 8389,
      "Captain": 8390,
      "ĠBickel": 8391,
      "Ġadequ": 8392,
      "hips": 8393,
      "Ġbrightly": 8394,
      "Ġballoon": 8395,
      "Ġtemporary": 8396,
      "Ġstrictly": 8397,
      "enes": 8398,
      "owell": 8399,
      "ĠTan": 8400,
      "Ġexists": 8401,
      "Those": 8402,
      "Ġcolumns": 8403,
      "Sc": 8404,
      "Ġrows": 8405,
      "Ġven": 8406,
      "iger": 8407,
      "ĠFam": 8408,
      "Ġtechnician": 8409,
      "Ġstripped": 8410,
      "ĠAngeles": 8411,
      "tur": 8412,
      "Ġpond": 8413,
      "ĠHay": 8414,
      "rigg": 8415,
      "ĠLooking": 8416,
      "apan": 8417,
      "Ġblown": 8418,
      "Ġeyed": 8419,
      "Ġdetected": 8420,
      "Ġbreed": 8421,
      "Ġdestination": 8422,
      "Ġtechnicians": 8423,
      "Ġrounded": 8424,
      "Ġfreight": 8425,
      "Ġtan": 8426,
      "olk": 8427,
      "Ġsoph": 8428,
      "Ġdecisions": 8429,
      "Ġbarrel": 8430,
      "ĠSomebody": 8431,
      "coming": 8432,
      "Ġneighbors": 8433,
      "ĠGreek": 8434,
      "Ġtelepathic": 8435,
      "Ġapparatus": 8436,
      "Ġantenna": 8437,
      "run": 8438,
      "Ġingen": 8439,
      "Ġachieved": 8440,
      "Ġabsorbed": 8441,
      "Ġlumin": 8442,
      "Ġnumer": 8443,
      "Ġlikes": 8444,
      "ĠPre": 8445,
      "Ġblowing": 8446,
      "Ġpeering": 8447,
      "Ġdaylight": 8448,
      "Ġeagerly": 8449,
      "Ġtypical": 8450,
      "Ġsom": 8451,
      "urg": 8452,
      "Ġexhib": 8453,
      "oph": 8454,
      "Ġmasses": 8455,
      "Ġcolonies": 8456,
      "ĠKeith": 8457,
      "Ġmildly": 8458,
      "Ġassignment": 8459,
      "Ġamusement": 8460,
      "ĠAugust": 8461,
      "dam": 8462,
      "erior": 8463,
      "oping": 8464,
      "Ġtrunk": 8465,
      "Ġtribe": 8466,
      "ĠSeaton": 8467,
      "Ġcubicle": 8468,
      "Ġsample": 8469,
      "Ġisolated": 8470,
      "Ġtilted": 8471,
      "inged": 8472,
      "seen": 8473,
      "umpled": 8474,
      "Ġcritical": 8475,
      "Ġgrasped": 8476,
      "!)": 8477,
      "mod": 8478,
      "Ġbutter": 8479,
      "Ġalter": 8480,
      "Ġaltered": 8481,
      "ĠLake": 8482,
      "Ġholds": 8483,
      "Ġdefin": 8484,
      "Ġlocate": 8485,
      "Ġsimilarity": 8486,
      "Ġpoliceman": 8487,
      "Ġclumsy": 8488,
      "ko": 8489,
      "chief": 8490,
      "Ġshimmer": 8491,
      "Ġclust": 8492,
      "Ġtract": 8493,
      "Ġprobability": 8494,
      "Ġcosts": 8495,
      "Ġinspection": 8496,
      "Ġresponded": 8497,
      "ĠBritish": 8498,
      "Ġaward": 8499,
      "Ġtoes": 8500,
      "Ġstates": 8501,
      "essions": 8502,
      "ĠDept": 8503,
      "hanged": 8504,
      "ĠLen": 8505,
      "Ġsemi": 8506,
      "Le": 8507,
      "Ġpunch": 8508,
      "Ġampl": 8509,
      "sia": 8510,
      "Ġsergeant": 8511,
      "Ġsnatched": 8512,
      "Ġstriking": 8513,
      "Ġurgent": 8514,
      "Ġcrawling": 8515,
      "Ġaccomplished": 8516,
      "Ġunhappy": 8517,
      "ĠToday": 8518,
      "Ġscheme": 8519,
      "Ġterritory": 8520,
      "ilies": 8521,
      "Ġlever": 8522,
      "Ġgrat": 8523,
      "Ġpositions": 8524,
      "Ġassure": 8525,
      "ĠApril": 8526,
      "Ġmedicine": 8527,
      "Ġcrisis": 8528,
      "iy": 8529,
      "urry": 8530,
      "Ġseldom": 8531,
      "uming": 8532,
      "ĠKane": 8533,
      "ĠUnless": 8534,
      "ĠShould": 8535,
      "ĠSeven": 8536,
      "ĠMcCull": 8537,
      "Ġinhabitants": 8538,
      "God": 8539,
      "rim": 8540,
      "ĠListen": 8541,
      "Ġtransmission": 8542,
      "Ġcontinent": 8543,
      "Ġmemor": 8544,
      "Ġslightest": 8545,
      "Ġruin": 8546,
      "ĠGovernment": 8547,
      "length": 8548,
      "Ġpuls": 8549,
      "ĠWind": 8550,
      "Ġrays": 8551,
      "Ġdrill": 8552,
      "Ġdetermine": 8553,
      "Ġwithdrew": 8554,
      "Ġcosmic": 8555,
      "ĠMust": 8556,
      "unting": 8557,
      "ola": 8558,
      "ĠGorm": 8559,
      "type": 8560,
      "Fiction": 8561,
      "mal": 8562,
      "neath": 8563,
      "Ġpartner": 8564,
      "ĠCarmody": 8565,
      "Ġfootsteps": 8566,
      "ĠLucy": 8567,
      "Ġscowled": 8568,
      "ĠObviously": 8569,
      "Ġclenched": 8570,
      "Ġnasty": 8571,
      "ĠSky": 8572,
      "olve": 8573,
      "iences": 8574,
      "Ġlayer": 8575,
      "Ġsecrets": 8576,
      "Ġfurniture": 8577,
      "ĠEllison": 8578,
      "Ġnational": 8579,
      "ĠHamm": 8580,
      "Ġconvent": 8581,
      "ĠPower": 8582,
      "estion": 8583,
      "Ġplac": 8584,
      "Ġapprehens": 8585,
      "ĠVe": 8586,
      "Ġtightened": 8587,
      "ĠCentaur": 8588,
      "Ġhammer": 8589,
      "Ġlasted": 8590,
      "Ġsul": 8591,
      "Ġcomet": 8592,
      "Ġconfirmed": 8593,
      "Ġpunishment": 8594,
      "ĠFantasy": 8595,
      "Ġstolen": 8596,
      "Ġloun": 8597,
      "imeter": 8598,
      "irable": 8599,
      "Ġrats": 8600,
      "ressing": 8601,
      "ĠArmy": 8602,
      "ĠRex": 8603,
      "Ġirreg": 8604,
      "Ġmotioned": 8605,
      "First": 8606,
      "Ġtheoret": 8607,
      "ooper": 8608,
      "ĠMasters": 8609,
      "antine": 8610,
      "ĠJapan": 8611,
      "Ġswir": 8612,
      "ĠAlbert": 8613,
      "Ġraising": 8614,
      "ĠDonald": 8615,
      "Ġdetailed": 8616,
      "ĠKeep": 8617,
      "iasm": 8618,
      "Su": 8619,
      "Ġbay": 8620,
      "irk": 8621,
      "ĠLey": 8622,
      "Ġflowing": 8623,
      "mann": 8624,
      "Ġhighway": 8625,
      "Ġdrained": 8626,
      "Ġimagin": 8627,
      "Ġflee": 8628,
      "ĠSaturn": 8629,
      "Ġsequence": 8630,
      "hable": 8631,
      "Ġwhipped": 8632,
      "ĠEight": 8633,
      "Ġgoal": 8634,
      "Ġsyn": 8635,
      "Ġrestaur": 8636,
      "Ġstored": 8637,
      "astern": 8638,
      "ĠUnion": 8639,
      "ĠPlut": 8640,
      "Ġwinked": 8641,
      "Ġsubjects": 8642,
      "fashioned": 8643,
      "ĠMcCullough": 8644,
      "Ġdazz": 8645,
      "Ġthrill": 8646,
      "Ġshiny": 8647,
      "Ġsplend": 8648,
      "ĠStep": 8649,
      "Ġdecades": 8650,
      "Ġstopping": 8651,
      "Ġcounting": 8652,
      "ĠAdams": 8653,
      "Ġdusty": 8654,
      "Ġignore": 8655,
      "ĠNavy": 8656,
      "Ġversion": 8657,
      "nie": 8658,
      "Ġmumbled": 8659,
      "Ġtoy": 8660,
      "Ġhood": 8661,
      "icit": 8662,
      "Ġscent": 8663,
      "Ġchaos": 8664,
      "Ġgenerator": 8665,
      "Ġattempts": 8666,
      "Ġvegetation": 8667,
      "Ġmagnificent": 8668,
      "ĠHill": 8669,
      "ĠMod": 8670,
      "Ġfrantically": 8671,
      "Ġdod": 8672,
      "Ġjaws": 8673,
      "ĠWere": 8674,
      "Ġcompass": 8675,
      "Ġrecover": 8676,
      "hesis": 8677,
      "rence": 8678,
      "Ġkiller": 8679,
      "Ġartifact": 8680,
      "Ġhopes": 8681,
      "Ġdescrib": 8682,
      "Ġannoyed": 8683,
      "Ġintellectual": 8684,
      "po": 8685,
      "entieth": 8686,
      "ĠBoss": 8687,
      "Ġseas": 8688,
      "Ġroot": 8689,
      "ĠKy": 8690,
      "Ġcircles": 8691,
      "force": 8692,
      "Ġfortune": 8693,
      "Ġsympathy": 8694,
      "Ġintegr": 8695,
      "just": 8696,
      "Ġtooth": 8697,
      "Ġseats": 8698,
      "Ġintern": 8699,
      "rer": 8700,
      "Ġbaff": 8701,
      "itches": 8702,
      "irs": 8703,
      "ĠLester": 8704,
      "Ġcluster": 8705,
      "Ġeyel": 8706,
      "Ġpsychological": 8707,
      "ĠMacDonald": 8708,
      "Ġterminal": 8709,
      "Ġtwisting": 8710,
      "fire": 8711,
      "rade": 8712,
      "Ġmaze": 8713,
      "Ġflared": 8714,
      "Ġwrinkled": 8715,
      "Ġdrain": 8716,
      "lands": 8717,
      "Ġengaged": 8718,
      "Ġphysics": 8719,
      "Ġtorch": 8720,
      "Ġtowers": 8721,
      "Ġspreading": 8722,
      "Ġfemales": 8723,
      "Ġcommented": 8724,
      "Ġscanned": 8725,
      "Ġsimultaneously": 8726,
      "Ġdom": 8727,
      "Ġyaw": 8728,
      "irts": 8729,
      "ura": 8730,
      "Ġacid": 8731,
      "enson": 8732,
      "Ġobst": 8733,
      "Ġmini": 8734,
      "Ġaircraft": 8735,
      "Ġpolar": 8736,
      "Ġservants": 8737,
      "Ġindustrial": 8738,
      "bu": 8739,
      "Ġcott": 8740,
      "Ġwhip": 8741,
      "ĠPur": 8742,
      "Ġtheme": 8743,
      "ĠForce": 8744,
      "Ġconstruct": 8745,
      "ĠCongress": 8746,
      "Ġvoyage": 8747,
      "ishes": 8748,
      "Ġweary": 8749,
      "ĠBase": 8750,
      "ĠMack": 8751,
      "Ġmanual": 8752,
      "Ġclaws": 8753,
      "Ġpole": 8754,
      "Ġmuse": 8755,
      "ĠMarvin": 8756,
      "Ġconstructed": 8757,
      "Ġgravit": 8758,
      "Ġdignity": 8759,
      "tly": 8760,
      "Ġbounced": 8761,
      "Ġhid": 8762,
      "Ġhey": 8763,
      "ĠHive": 8764,
      "irteen": 8765,
      "Ġgoods": 8766,
      "ĠAnne": 8767,
      "Ġidentified": 8768,
      "ĠOctober": 8769,
      "ĠDosadi": 8770,
      "nic": 8771,
      "oided": 8772,
      "Ġdazed": 8773,
      "atural": 8774,
      "aders": 8775,
      "ĠBre": 8776,
      "Ġsheep": 8777,
      "ĠJord": 8778,
      "Ġentering": 8779,
      "ĠHarlan": 8780,
      "Ġcloset": 8781,
      "Ġledge": 8782,
      "Ġfroze": 8783,
      "Ġlecture": 8784,
      "heres": 8785,
      "Ġbon": 8786,
      "ĠSqu": 8787,
      "ĠMake": 8788,
      "aines": 8789,
      "Ġgrain": 8790,
      "Ġdifferences": 8791,
      "Ġnorthern": 8792,
      "Ġcouncil": 8793,
      "Ġsuffering": 8794,
      "Ġapproximately": 8795,
      "Ġbor": 8796,
      "Ġbru": 8797,
      "elcome": 8798,
      "Ġsurge": 8799,
      "anger": 8800,
      "liest": 8801,
      "Ġsleeve": 8802,
      "Ġcabinet": 8803,
      "Ġmicrophone": 8804,
      "Ġassembled": 8805,
      "Ġmanufacture": 8806,
      "Ġmonstrous": 8807,
      "isure": 8808,
      "Ġpir": 8809,
      "Ġheap": 8810,
      "ethe": 8811,
      "ĠHold": 8812,
      "ĠAvenue": 8813,
      "Ġcomposed": 8814,
      "Ġglist": 8815,
      "Ġempha": 8816,
      "Ġcomplain": 8817,
      "Ġdisturbing": 8818,
      "Ġdials": 8819,
      "Which": 8820,
      "oked": 8821,
      "Ġhooked": 8822,
      "imal": 8823,
      "ĠProt": 8824,
      "Ġoriginally": 8825,
      "Ġtunnels": 8826,
      "chers": 8827,
      "About": 8828,
      "vas": 8829,
      "Ġdense": 8830,
      "ĠBird": 8831,
      "rab": 8832,
      "Ġoffering": 8833,
      "ĠUs": 8834,
      "Ġcoughed": 8835,
      "Ġjoint": 8836,
      "Ġpressing": 8837,
      "ĠCommand": 8838,
      "Ġprepare": 8839,
      "Ġenthusiasm": 8840,
      "ĠJedrik": 8841,
      "cut": 8842,
      "jud": 8843,
      "lit": 8844,
      "Ġelder": 8845,
      "ĠSpe": 8846,
      "Ġalpha": 8847,
      "Ġcontains": 8848,
      "Ġcorners": 8849,
      "Ġracing": 8850,
      "ĠPy": 8851,
      "ending": 8852,
      "Ġguild": 8853,
      "Ġhypot": 8854,
      "Ġconcluded": 8855,
      "ĠDespite": 8856,
      "Dr": 8857,
      "life": 8858,
      "rator": 8859,
      "onic": 8860,
      "Ġly": 8861,
      "ĠSept": 8862,
      "ĠAuth": 8863,
      "Ġanalog": 8864,
      "alling": 8865,
      "Ġnoble": 8866,
      "asting": 8867,
      "ĠLib": 8868,
      "Ġparties": 8869,
      "lessness": 8870,
      "ĠSov": 8871,
      "Ġsnake": 8872,
      "Ġeased": 8873,
      "Ġgrounds": 8874,
      "Ġbreasts": 8875,
      "Ġber": 8876,
      "Ġbug": 8877,
      "Ġaccord": 8878,
      "Ġaffection": 8879,
      "Ġerr": 8880,
      "Ġvolcan": 8881,
      "Ġclassic": 8882,
      "Ġcapture": 8883,
      "Ġprotective": 8884,
      "Ġbond": 8885,
      "Ġnu": 8886,
      "uter": 8887,
      "Ġjustice": 8888,
      "Ġera": 8889,
      "Ġpupp": 8890,
      "Ġenjoying": 8891,
      "vy": 8892,
      "this": 8893,
      "ulting": 8894,
      "ĠEver": 8895,
      "ĠJane": 8896,
      "Ġinfant": 8897,
      "ĠCarver": 8898,
      "ahl": 8899,
      "ĠDidn": 8900,
      "Ġlunar": 8901,
      "Ġbust": 8902,
      "orious": 8903,
      "ĠIron": 8904,
      "ĠPerson": 8905,
      "ĠFal": 8906,
      "Ġchron": 8907,
      "ollen": 8908,
      "Ġresumed": 8909,
      "Ġforming": 8910,
      "Ġbasement": 8911,
      "Ġconsiderably": 8912,
      "Ġcrawl": 8913,
      "Ġunbelie": 8914,
      "Ġtransportation": 8915,
      "ĠGroaci": 8916,
      "Ġcateg": 8917,
      "alp": 8918,
      "ĠLin": 8919,
      "Ġenvelop": 8920,
      "Ġadop": 8921,
      "Ġauthorities": 8922,
      "Ġcritic": 8923,
      "Ġfocused": 8924,
      "ĠResearch": 8925,
      "Ġflicker": 8926,
      "Ġpromptly": 8927,
      "Gu": 8928,
      "Ġtaut": 8929,
      "Ġlately": 8930,
      "eteen": 8931,
      "ĠAli": 8932,
      "ĠCole": 8933,
      "ĠCopy": 8934,
      "Ġintric": 8935,
      "Ġvul": 8936,
      "Ġwhoever": 8937,
      "ffled": 8938,
      "ouncing": 8939,
      "ĠPrinc": 8940,
      "Ġcatalog": 8941,
      "Ġpurely": 8942,
      "Ġfolk": 8943,
      "ĠMiller": 8944,
      "Ġawakened": 8945,
      "Ġbatt": 8946,
      "Ġinert": 8947,
      "Ġguts": 8948,
      "Ġration": 8949,
      "ĠGab": 8950,
      "Ġsket": 8951,
      "Ġunnecess": 8952,
      "ĠMundin": 8953,
      "ivery": 8954,
      "Ġhi": 8955,
      "Ġgut": 8956,
      "Ġjeal": 8957,
      "ĠEle": 8958,
      "ĠRam": 8959,
      "ĠOde": 8960,
      "ĠStone": 8961,
      "Ġreceiving": 8962,
      "Ġperiods": 8963,
      "Ġtrembled": 8964,
      "Ġphase": 8965,
      "piece": 8966,
      "uce": 8967,
      "pple": 8968,
      "ĠOkay": 8969,
      "Ġpeak": 8970,
      "Ġpatience": 8971,
      "Ġdevoted": 8972,
      "Ġconnect": 8973,
      "Ġmicrosc": 8974,
      "Ġindustry": 8975,
      "ĠCourt": 8976,
      "ĠMagazine": 8977,
      "Ġtones": 8978,
      "Ġsector": 8979,
      "arming": 8980,
      "Ġhaze": 8981,
      "ĠBened": 8982,
      "ifically": 8983,
      "ĠJr": 8984,
      "Ġlesson": 8985,
      "Ġweakness": 8986,
      "Ġvehicles": 8987,
      "Ġsignificant": 8988,
      "Ġvertical": 8989,
      "Ġshri": 8990,
      "ĠDy": 8991,
      "Ġclick": 8992,
      "Ġtroubled": 8993,
      "Ġlieutenant": 8994,
      "Ġfrost": 8995,
      "ĠImp": 8996,
      "Ġcrushed": 8997,
      "Ġanswering": 8998,
      "Ġfrowning": 8999,
      "Ġdigging": 9000,
      "ĠBetter": 9001,
      "Ġparallel": 9002,
      "phy": 9003,
      "Ġcran": 9004,
      "Ġfumbled": 9005,
      "Ġdies": 9006,
      "Ġducked": 9007,
      "ĠHank": 9008,
      "ilized": 9009,
      "ella": 9010,
      "ĠOt": 9011,
      "Ġamaz": 9012,
      "Ġdragon": 9013,
      "Ġstunned": 9014,
      "ĠMuller": 9015,
      "Ġawe": 9016,
      "Ġcush": 9017,
      "Ġcrest": 9018,
      "Ġnud": 9019,
      "ĠBern": 9020,
      "ĠWait": 9021,
      "Ġrings": 9022,
      "Ġexit": 9023,
      "ĠFound": 9024,
      "Ġcopper": 9025,
      "Ġdecor": 9026,
      "Ġexcess": 9027,
      "Ġguarded": 9028,
      "Ġacquired": 9029,
      "Ġregistered": 9030,
      "ĠSoviet": 9031,
      "vol": 9032,
      "ari": 9033,
      "Ġorn": 9034,
      "Ġjab": 9035,
      "ĠLow": 9036,
      "Ġbron": 9037,
      "Ġinvention": 9038,
      "Ġstores": 9039,
      "Ġfierce": 9040,
      ".#": 9041,
      "Hold": 9042,
      "Out": 9043,
      "don": 9044,
      "Ġpp": 9045,
      "Ġnuts": 9046,
      "road": 9047,
      "ĠBon": 9048,
      "ĠCount": 9049,
      "Ġworrying": 9050,
      "Ġhuh": 9051,
      "ĠCommun": 9052,
      "ĠPos": 9053,
      "Ġhumming": 9054,
      "Ġstrangers": 9055,
      "Ġperformance": 9056,
      "Ġguarantee": 9057,
      "hamed": 9058,
      "Ġpills": 9059,
      "ideo": 9060,
      "Ġcarved": 9061,
      "aware": 9062,
      "Ġbottles": 9063,
      "Ġconcerning": 9064,
      "Ġeditorial": 9065,
      "Ġsurvivors": 9066,
      "town": 9067,
      "Ġcats": 9068,
      "Ġfount": 9069,
      "ĠHist": 9070,
      "ĠHey": 9071,
      "Ġexter": 9072,
      "opic": 9073,
      "Ġtheirs": 9074,
      "Ġbush": 9075,
      "uity": 9076,
      "Ġrevers": 9077,
      "chi": 9078,
      "Ġcoordin": 9079,
      "ĠKar": 9080,
      "spe": 9081,
      "Ġavoided": 9082,
      "Ġdisappointed": 9083,
      "Ġcreation": 9084,
      "Ġgentleman": 9085,
      "ĠFurther": 9086,
      "gm": 9087,
      "Ġbiped": 9088,
      "ĠDrive": 9089,
      "ĠKend": 9090,
      "Ġglo": 9091,
      "Ġbushes": 9092,
      "Ġcollected": 9093,
      "they": 9094,
      "ĠPrinted": 9095,
      "-\"": 9096,
      "cup": 9097,
      "nett": 9098,
      "Ġbacter": 9099,
      "Ġreject": 9100,
      "Ġreaches": 9101,
      "Ġrenew": 9102,
      "ĠLim": 9103,
      "Ġclan": 9104,
      "izations": 9105,
      "ĠKarl": 9106,
      "ĠChris": 9107,
      "ĠEdith": 9108,
      "Ġprize": 9109,
      "Ġblurred": 9110,
      "ĠJulie": 9111,
      "inued": 9112,
      "Ġsled": 9113,
      "Ġfrank": 9114,
      "obile": 9115,
      "iah": 9116,
      "Ġmonsters": 9117,
      "ĠGuy": 9118,
      "ĠFlattery": 9119,
      "Ġincredibly": 9120,
      "Ġsenior": 9121,
      "Ġtumbled": 9122,
      "Ġtheories": 9123,
      "Ġlump": 9124,
      "Ġhip": 9125,
      "acious": 9126,
      "ĠAv": 9127,
      "child": 9128,
      "ĠPowell": 9129,
      "ĠRack": 9130,
      "Ġcompens": 9131,
      "ĠBea": 9132,
      "Ġstrapped": 9133,
      "Ġlifting": 9134,
      "ĠLeon": 9135,
      "Ġmiserable": 9136,
      "Ġsession": 9137,
      "veled": 9138,
      "Ġweb": 9139,
      "tenance": 9140,
      "Ġdimin": 9141,
      "handed": 9142,
      "Ġactivated": 9143,
      "Ġcalculated": 9144,
      "Ġwishes": 9145,
      "Ġwandering": 9146,
      "ĠAustral": 9147,
      "Ġabstract": 9148,
      "Ġsore": 9149,
      "rehend": 9150,
      "ĠSwe": 9151,
      "ĠBus": 9152,
      "Ġvapor": 9153,
      "ĠEither": 9154,
      "ĠFig": 9155,
      "Ġqueer": 9156,
      "Ġdeliver": 9157,
      "legged": 9158,
      "adel": 9159,
      "ĠCare": 9160,
      "ĠPri": 9161,
      "ĠNight": 9162,
      "Ġglancing": 9163,
      "fulness": 9164,
      "Ġspecimen": 9165,
      "ĠChurch": 9166,
      "ĠSteven": 9167,
      "Ġdimly": 9168,
      "which": 9169,
      "Ġeconomic": 9170,
      "Ġsupplied": 9171,
      "ĠRelief": 9172,
      "ĠThank": 9173,
      "Ġadvertising": 9174,
      "Ġcloak": 9175,
      "Ġinterpret": 9176,
      "Ġdwarf": 9177,
      "iam": 9178,
      "Ġshone": 9179,
      "Ġdiscussed": 9180,
      "Ġribs": 9181,
      "Ġdrops": 9182,
      "Ġreplace": 9183,
      "Ġsalv": 9184,
      "ĠAnything": 9185,
      "Ġsmoking": 9186,
      "Ġmiracle": 9187,
      "Ġdeny": 9188,
      "Ġsympathe": 9189,
      "Ġsucked": 9190,
      "ĠFriend": 9191,
      "agram": 9192,
      "Ġpilgrim": 9193,
      "Ġfacilities": 9194,
      "Ġnegative": 9195,
      "Ġtasted": 9196,
      "Ġnic": 9197,
      "uty": 9198,
      "ĠWat": 9199,
      "Ġsilvery": 9200,
      "Ġinterests": 9201,
      "ĠJohnson": 9202,
      "Ġcrossing": 9203,
      "Ġprocesses": 9204,
      "Ġfatig": 9205,
      "Ġpalace": 9206,
      "Ġuneasy": 9207,
      "Ġtearing": 9208,
      "Ġirregular": 9209,
      "Fine": 9210,
      "Ġhom": 9211,
      "Ġupstairs": 9212,
      "Ġvit": 9213,
      "heads": 9214,
      "Ġissued": 9215,
      "Ġorganic": 9216,
      "Ġfragments": 9217,
      "Ġdefeat": 9218,
      "Ġillegal": 9219,
      "lance": 9220,
      "there": 9221,
      "Ġion": 9222,
      "Ġfading": 9223,
      "Ġselling": 9224,
      "Ġjunk": 9225,
      "Ġwheeled": 9226,
      "agen": 9227,
      "Ġblu": 9228,
      "Ġoldest": 9229,
      "Ġkeys": 9230,
      "Ġpresumably": 9231,
      "Ġwinning": 9232,
      "Ġconceal": 9233,
      "Ġinvestigate": 9234,
      "ĠSandra": 9235,
      "Ġfascinated": 9236,
      "Ġwidened": 9237,
      "Ġentertainment": 9238,
      "imensional": 9239,
      "ras": 9240,
      "Ġwives": 9241,
      "Ġbolt": 9242,
      "Ġstable": 9243,
      "roying": 9244,
      "quis": 9245,
      "ĠDuck": 9246,
      "Ġvia": 9247,
      "Ġunim": 9248,
      "ĠAbruptly": 9249,
      "Ġliquor": 9250,
      "Ġpreviously": 9251,
      "Shut": 9252,
      "Ġreluctantly": 9253,
      "din": 9254,
      "hole": 9255,
      "Ġsections": 9256,
      "Ġcream": 9257,
      "ĠTon": 9258,
      "Ġrein": 9259,
      "ĠTheodore": 9260,
      "ummy": 9261,
      "ĠNumber": 9262,
      "Ġroaring": 9263,
      "Ġpercept": 9264,
      "Ġexpense": 9265,
      "Ġburden": 9266,
      "Ġvictory": 9267,
      "Ġgreeted": 9268,
      "From": 9269,
      "Ġtops": 9270,
      "asis": 9271,
      "ĠAld": 9272,
      "arson": 9273,
      "ĠSpac": 9274,
      "Ġdamaged": 9275,
      "ridge": 9276,
      "Ġdeveloping": 9277,
      "ĠJean": 9278,
[...]
