{
  "version": "1.0",
  "truncation": null,
  "padding": null,
  "added_tokens": [],
  "normalizer": null,
  "pre_tokenizer": {
    "type": "ByteLevel",
    "add_prefix_space": true,
    "trim_offsets": true,
    "use_regex": true
  },
  "post_processor": {
    "type": "ByteLevel",
    "add_prefix_space": true,
    "trim_offsets": true,
    "use_regex": true
  },
  "decoder": {
    "type": "ByteLevel",
    "add_prefix_space": true,
    "trim_offsets": true,
    "use_regex": true
  },
  "model": {
    "type": "BPE",
    "dropout": null,
    "unk_token": null,
    "continuing_subword_prefix": null,
    "end_of_word_suffix": null,
    "fuse_unk": false,
    "byte_fallback": false,
    "vocab": {
      "!": 0,
      "\"": 1,
      "#": 2,
      "$": 3,
      "%": 4,
      "&": 5,
      "'": 6,
      "(": 7,
      ")": 8,
      "*": 9,
      "+": 10,
      ",": 11,
      "-": 12,
      ".": 13,
      "/": 14,
      "0": 15,
      "1": 16,
      "2": 17,
      "3": 18,
      "4": 19,
      "5": 20,
      "6": 21,
      "7": 22,
      "8": 23,
      "9": 24,
      ":": 25,
      ";": 26,
      "<": 27,
      "=": 28,
      ">": 29,
      "?": 30,
      "@": 31,
      "A": 32,
      "B": 33,
      "C": 34,
      "D": 35,
      "E": 36,
      "F": 37,
      "G": 38,
      "H": 39,
      "I": 40,
      "J": 41,
      "K": 42,
      "L": 43,
      "M": 44,
      "N": 45,
      "O": 46,
      "P": 47,
      "Q": 48,
      "R": 49,
      "S": 50,
      "T": 51,
      "U": 52,
      "V": 53,
      "W": 54,
      "X": 55,
      "Y": 56,
      "Z": 57,
      "[": 58,
      "\\": 59,
      "]": 60,
      "^": 61,
      "_": 62,
      "`": 63,
      "a": 64,
      "b": 65,
      "c": 66,
      "d": 67,
      "e": 68,
      "f": 69,
      "g": 70,
      "h": 71,
      "i": 72,
      "j": 73,
      "k": 74,
      "l": 75,
      "m": 76,
      "n": 77,
      "o": 78,
      "p": 79,
      "q": 80,
      "r": 81,
      "s": 82,
      "t": 83,
      "u": 84,
      "v": 85,
      "w": 86,
      "x": 87,
      "y": 88,
      "z": 89,
      "{": 90,
      "|": 91,
      "}": 92,
      "~": 93,
      "¡": 94,
      "¢": 95,
      "£": 96,
      "¤": 97,
      "¥": 98,
      "¦": 99,
      "§": 100,
      "¨": 101,
      "©": 102,
      "ª": 103,
      "«": 104,
      "¬": 105,
      "®": 106,
      "¯": 107,
      "°": 108,
      "±": 109,
      "²": 110,
      "³": 111,
      "´": 112,
      "µ": 113,
      "¶": 114,
      "·": 115,
      "¸": 116,
      "¹": 117,
      "º": 118,
      "»": 119,
      "¼": 120,
      "½": 121,
      "¾": 122,
      "¿": 123,
      "À": 124,
      "Á": 125,
      "Â": 126,
      "Ã": 127,
      "Ä": 128,
      "Å": 129,
      "Æ": 130,
      "Ç": 131,
      "È": 132,
      "É": 133,
      "Ê": 134,
      "Ë": 135,
      "Ì": 136,
      "Í": 137,
      "Î": 138,
      "Ï": 139,
      "Ð": 140,
      "Ñ": 141,
      "Ò": 142,
      "Ó": 143,
      "Ô": 144,
      "Õ": 145,
      "Ö": 146,
      "×": 147,
      "Ø": 148,
      "Ù": 149,
      "Ú": 150,
      "Û": 151,
      "Ü": 152,
      "Ý": 153,
      "Þ": 154,
      "ß": 155,
      "à": 156,
      "á": 157,
      "â": 158,
      "ã": 159,
      "ä": 160,
      "å": 161,
      "æ": 162,
      "ç": 163,
      "è": 164,
      "é": 165,
      "ê": 166,
      "ë": 167,
      "ì": 168,
      "í": 169,
      "î": 170,
      "ï": 171,
      "ð": 172,
      "ñ": 173,
      "ò": 174,
      "ó": 175,
      "ô": 176,
      "õ": 177,
      "ö": 178,
      "÷": 179,
      "ø": 180,
      "ù": 181,
      "ú": 182,
      "û": 183,
      "ü": 184,
      "ý": 185,
      "þ": 186,
      "ÿ": 187,
      "Ā": 188,
      "ā": 189,
      "Ă": 190,
      "ă": 191,
      "Ą": 192,
      "ą": 193,
      "Ć": 194,
      "ć": 195,
      "Ĉ": 196,
      "ĉ": 197,
      "Ċ": 198,
      "ċ": 199,
      "Č": 200,
      "č": 201,
      "Ď": 202,
      "ď": 203,
      "Đ": 204,
      "đ": 205,
      "Ē": 206,
      "ē": 207,
      "Ĕ": 208,
      "ĕ": 209,
      "Ė": 210,
      "ė": 211,
      "Ę": 212,
      "ę": 213,
      "Ě": 214,
      "ě": 215,
      "Ĝ": 216,
      "ĝ": 217,
      "Ğ": 218,
      "ğ": 219,
      "Ġ": 220,
      "ġ": 221,
      "Ģ": 222,
      "ģ": 223,
      "Ĥ": 224,
      "ĥ": 225,
      "Ħ": 226,
      "ħ": 227,
      "Ĩ": 228,
      "ĩ": 229,
      "Ī": 230,
      "ī": 231,
      "Ĭ": 232,
      "ĭ": 233,
      "Į": 234,
      "į": 235,
      "İ": 236,
      "ı": 237,
      "Ĳ": 238,
      "ĳ": 239,
      "Ĵ": 240,
      "ĵ": 241,
      "Ķ": 242,
      "ķ": 243,
      "ĸ": 244,
      "Ĺ": 245,
      "ĺ": 246,
      "Ļ": 247,
      "ļ": 248,
      "Ľ": 249,
      "ľ": 250,
      "Ŀ": 251,
      "ŀ": 252,
      "Ł": 253,
      "ł": 254,
      "Ń": 255,
      "čĊ": 256,
      "ĠčĊ": 257,
      "ĠĠčĊ": 258,
      "Ġt": 259,
      "he": 260,
      "ou": 261,
      "in": 262,
      "Ġa": 263,
      "ĠI": 264,
      "Ġs": 265,
      "Ġw": 266,
      "Ġm": 267,
      "on": 268,
      "Ġy": 269,
      "re": 270,
      "Ġthe": 271,
      "Ġyou": 272,
      "nd": 273,
      "Ġb": 274,
      "ve": 275,
      "Ġl": 276,
      "ll": 277,
      "ha": 278,
      "Ġd": 279,
      "Ġf": 280,
      "Ġc": 281,
      "it": 282,
      "ing": 283,
      "Ġg": 284,
      "Ġto": 285,
      "is": 286,
      "ow": 287,
      "an": 288,
      "Ġn": 289,
      "or": 290,
      "ar": 291,
      "me": 292,
      "ay": 293,
      "ee": 294,
      "Ġme": 295,
      "ĠA": 296,
      "Ġo": 297,
      "ĠT": 298,
      "hat": 299,
      "er": 300,
      "us": 301,
      "es": 302,
      "'s": 303,
      "gh": 304,
      "Ġp": 305,
      "ĠW": 306,
      "'t": 307,
      "Ġin": 308,
      "ot": 309,
      "ke": 310,
      "Ġit": 311,
      "Ġ<": 312,
      "Ġbe": 313,
      "Ġhe": 314,
      "Ġon": 315,
      "ri": 316,
      "Ġand": 317,
      "ĠS": 318,
      "Ġmy": 319,
      "Ġh": 320,
      "ver": 321,
      "as": 322,
      "ld": 323,
      "Ġof": 324,
      "Ġlo": 325,
      "et": 326,
      "Ġe": 327,
      "ght": 328,
      "Ġth": 329,
      "Ġk": 330,
      "le": 331,
      "Ġli": 332,
      "ĠY": 333,
      "at": 334,
      "ome": 335,
      "ĠAnd": 336,
      "ĠB": 337,
      "ly": 338,
      "art": 339,
      "Ġst": 340,
      "ut": 341,
      "Ġha": 342,
      "Ġyour": 343,
      "ong": 344,
      "ro": 345,
      "Ġthat": 346,
      "ed": 347,
      "ac": 348,
      "ĠYou": 349,
      "'m": 350,
      "Ġwe": 351,
      "ad": 352,
      "id": 353,
      "ĠThe": 354,
      "ĠH": 355,
      "Ġkn": 356,
      "Ġlove": 357,
      "ill": 358,
      "oo": 359,
      "Ġfor": 360,
      "ĠO": 361,
      "ĠC": 362,
      "Ġis": 363,
      "ist": 364,
      "ĠL": 365,
      "ust": 366,
      "out": 367,
      "Ġcan": 368,
      "end": 369,
      "Ġu": 370,
      "ith": 371,
      "Ġall": 372,
      "Ġknow": 373,
      "al": 374,
      "ĠM": 375,
      "ight": 376,
      "one": 377,
      "ĠD": 378,
      "se": 379,
      "Ġre": 380,
      "ir": 381,
      "ake": 382,
      "Ġdo": 383,
      "Ġj": 384,
      "ic": 385,
      "en": 386,
      "ea": 387,
      "ric": 388,
      "all": 389,
      "own": 390,
      "ĠN": 391,
      "Ġgo": 392,
      "Ġ(": 393,
      "ra": 394,
      "Ġwith": 395,
      "hen": 396,
      "'re": 397,
      "of": 398,
      "ime": 399,
      "ind": 400,
      "Ġdon": 401,
      "'ll": 402,
      "ĠG": 403,
      "Ġwan": 404,
      "ould": 405,
      "song": 406,
      "rics": 407,
      "ur": 408,
      "lyrics": 409,
      "endof": 410,
      "artist": 411,
      "endofsong": 412,
      "un": 413,
      "rou": 414,
      "Ġso": 415,
      "Ġup": 416,
      "ab": 417,
      "ore": 418,
      "Ġlike": 419,
      "Ġgot": 420,
      "ell": 421,
      "ĠF": 422,
      "Ġne": 423,
      "Ġno": 424,
      "Ġsee": 425,
      "ch": 426,
      "st": 427,
      "Ġjust": 428,
      "ĠBut": 429,
      "her": 430,
      "am": 431,
      "ry": 432,
      "way": 433,
      "ĠIt": 434,
      "na": 435,
      "Ġan": 436,
      "Ġwas": 437,
      "Ġsh": 438,
      "very": 439,
      "Ġwhat": 440,
      "Ġget": 441,
      "Ġtime": 442,
      "ack": 443,
      "Ġwh": 444,
      "hing": 445,
      "Ġnot": 446,
      "Ġout": 447,
      "Ġwant": 448,
      "Ġthis": 449,
      "'ve": 450,
      "if": 451,
      "Ġwor": 452,
      "ain": 453,
      "Ġdown": 454,
      "..": 455,
      "aby": 456,
      "Ġal": 457,
      "ion": 458,
      "om": 459,
      "ce": 460,
      "Ġsome": 461,
      "ck": 462,
      "eel": 463,
      "ie": 464,
      "ĠJ": 465,
      "op": 466,
      "use": 467,
      "nt": 468,
      "rom": 469,
      "Ġsa": 470,
      "Ġr": 471,
      "ood": 472,
      "ter": 473,
      "Ġare": 474,
      "ĠP": 475,
      "od": 476,
      "Ġone": 477,
      "ĠHe": 478,
      "Ġsay": 479,
      "Ġnow": 480,
      "Ġhave": 481,
      "il": 482,
      "Ġ'": 483,
      "ive": 484,
      "Ġwill": 485,
      "and": 486,
      "ĠWe": 487,
      "Ġfeel": 488,
      "ine": 489,
      "ause": 490,
      "ĠR": 491,
      "eep": 492,
      "ear": 493,
      "eah": 494,
      "Ġbl": 495,
      "ĠE": 496,
      "fe": 497,
      "Ġri": 498,
      "Ġway": 499,
      "Ġnever": 500,
      "ak": 501,
      "ĠOh": 502,
      "here": 503,
      "Ġas": 504,
      "im": 505,
      "ide": 506,
      "eed": 507,
      "Ġcome": 508,
      "Ġthere": 509,
      "een": 510,
      "ig": 511,
      "Ġbaby": 512,
      "Ġwhen": 513,
      "Ġshe": 514,
      "Ġheart": 515,
      "ink": 516,
      "han": 517,
      "Ġday": 518,
      "ge": 519,
      "Ġat": 520,
      "Ġthey": 521,
      "Ġher": 522,
      "ace": 523,
      "ame": 524,
      "Ġro": 525,
      "Ġman": 526,
      "our": 527,
      "Ġ[": 528,
      "ess": 529,
      "ok": 530,
      "round": 531,
      "onna": 532,
      "ĠWhen": 533,
      "Ġevery": 534,
      "Ġpl": 535,
      "Ġfrom": 536,
      "Ġback": 537,
      "ĠSo": 538,
      "Ġlet": 539,
      "pp": 540,
      "Ġnight": 541,
      "um": 542,
      "ast": 543,
      "thing": 544,
      "Ġaway": 545,
      "Ġneed": 546,
      "urn": 547,
      "itt": 548,
      "Ġmake": 549,
      "Ġlife": 550,
      "Ġcould": 551,
      "old": 552,
      "Ġoh": 553,
      "Ġgonna": 554,
      "alk": 555,
      "irl": 556,
      "Ġbut": 557,
      "ĠThat": 558,
      "Ġif": 559,
      "ody": 560,
      "ĠShe": 561,
      "Ġtake": 562,
      "ue": 563,
      "ĠIf": 564,
      "ĠTh": 565,
      "Ġsp": 566,
      "Ġde": 567,
      "Ġbeen": 568,
      "ream": 569,
      "Ġgood": 570,
      "Ġby": 571,
      "Ġab": 572,
      "ĠIn": 573,
      "Ġag": 574,
      "ĠTo": 575,
      "Ġright": 576,
      "Ġthing": 577,
      "Ġmore": 578,
      "est": 579,
      "Ġwon": 580,
      "ove": 581,
      "Ġthink": 582,
      "ĠWh": 583,
      "Ġhere": 584,
      "hor": 585,
      "ĠDon": 586,
      "Ġus": 587,
      "Ġyeah": 588,
      "are": 589,
      "rough": 590,
      "Ġlook": 591,
      "ven": 592,
      "Ġworld": 593,
      "horus": 594,
      "ittle": 595,
      "Ġwho": 596,
      "Ġcl": 597,
      "ure": 598,
      "Ġgirl": 599,
      "Ġey": 600,
      "ving": 601,
      "ĠAll": 602,
      "Ġagain": 603,
      "'d": 604,
      "ile": 605,
      "Ġtr": 606,
      "Ġtell": 607,
      "el": 608,
      "ss": 609,
      "ĠThere": 610,
      "other": 611,
      "ĠOn": 612,
      "body": 613,
      "oy": 614,
      "ĠK": 615,
      "Ġlittle": 616,
      "Ġlong": 617,
      "Ġtoo": 618,
      "Ġthrough": 619,
      "ers": 620,
      "...": 621,
      "ĠNo": 622,
      "eet": 623,
      "ct": 624,
      "Ġhow": 625,
      "ĠSt": 626,
      "Ġhear": 627,
      "uck": 628,
      "Ġla": 629,
      "ree": 630,
      "Ġgive": 631,
      "Ġour": 632,
      "Ġonly": 633,
      "iss": 634,
      "ĠMy": 635,
      "Ġabout": 636,
      "ul": 637,
      "ĠNow": 638,
      "Ġhis": 639,
      "Chorus": 640,
      "ire": 641,
      "Ġch": 642,
      "Ġeyes": 643,
      "Ġwould": 644,
      "oh": 645,
      "Ġdream": 646,
      "Ġain": 647,
      "ound": 648,
      "Ġhome": 649,
      "Ġaround": 650,
      "ĠJust": 651,
      "ose": 652,
      "Ġfl": 653,
      "Ġsl": 654,
      "Ġover": 655,
      "Ġany": 656,
      "row": 657,
      "Ġsaid": 658,
      "Ġbel": 659,
      "uch": 660,
      "Ġhad": 661,
      "ĠWhat": 662,
      "Ġle": 663,
      "orn": 664,
      "ta": 665,
      "ol": 666,
      "ĠSome": 667,
      "Ġv": 668,
      "Ġkeep": 669,
      "ate": 670,
      "Ġwhere": 671,
      "ally": 672,
      "Ġsw": 673,
      "ways": 674,
      "Ġor": 675,
      "Ġra": 676,
      "ĠThey": 677,
      "ick": 678,
      "Ġmind": 679,
      "Ġam": 680,
      "Ġwa": 681,
      "Ġfind": 682,
      "Ġhand": 683,
      "Ġbet": 684,
      "Ġwere": 685,
      "Ġchan": 686,
      "lf": 687,
      "Ġcom": 688,
      "Ġsha": 689,
      "Ġbre": 690,
      "Ġlight": 691,
      "Ġrun": 692,
      "Ġever": 693,
      "Ġcall": 694,
      "Ġtry": 695,
      "ade": 696,
      "Ġstill": 697,
      "ĠEvery": 698,
      "th": 699,
      "ough": 700,
      "nder": 701,
      "ĠFor": 702,
      "ise": 703,
      "Ġdid": 704,
      "Ġlive": 705,
      "rong": 706,
      "ase": 707,
      "Ġfall": 708,
      "ĠLet": 709,
      "ĠWell": 710,
      "day": 711,
      "ds": 712,
      "ies": 713,
      "ĠWith": 714,
      "ty": 715,
      "Ġturn": 716,
      "ag": 717,
      "Ġlea": 718,
      "Ġwanna": 719,
      "Ġalways": 720,
      "ation": 721,
      "ild": 722,
      "qu": 723,
      "Ġthem": 724,
      "ang": 725,
      "ice": 726,
      "side": 727,
      "ieve": 728,
      "Ġ\"": 729,
      "get": 730,
      "riend": 731,
      "ĠU": 732,
      "ked": 733,
      "ber": 734,
      "Ġhold": 735,
      "Ġmo": 736,
      "Ġsm": 737,
      "ng": 738,
      "Ġhar": 739,
      "ool": 740,
      "to": 741,
      "ĠThis": 742,
      "Ġhim": 743,
      "self": 744,
      "Ġsun": 745,
      "ent": 746,
      "Ġthings": 747,
      "Ġwait": 748,
      "ĠYour": 749,
      "Ġcon": 750,
      "ew": 751,
      "Ġmuch": 752,
      "Ġgone": 753,
      "ft": 754,
      "ms": 755,
      "igh": 756,
      "Ġthan": 757,
      "ĠLi": 758,
      "fore": 759,
      "Ġpe": 760,
      "Ġhead": 761,
      "ach": 762,
      "oney": 763,
      "Cause": 764,
      "Ġsk": 765,
      "ite": 766,
      "cause": 767,
      "ant": 768,
      "Ġcry": 769,
      "Ġbelieve": 770,
      "Ġplay": 771,
      "em": 772,
      "atch": 773,
      "ring": 774,
      "ord": 775,
      "onight": 776,
      "ous": 777,
      "Ġfriend": 778,
      "pe": 779,
      "Ġoff": 780,
      "ance": 781,
      "ears": 782,
      "Ġold": 783,
      "Ġsc": 784,
      "ook": 785,
      "ought": 786,
      "ĠBe": 787,
      "ĠYeah": 788,
      "ish": 789,
      "ass": 790,
      "Ġwhy": 791,
      "Ġwalk": 792,
      "Ġreally": 793,
      "Ġbetter": 794,
      "Ġsing": 795,
      "ull": 796,
      "Ġse": 797,
      "Ġend": 798,
      "ark": 799,
      "Ġhard": 800,
      "os": 801,
      "Ġboy": 802,
      "Ġgu": 803,
      "Ġthen": 804,
      "ret": 805,
      "ble": 806,
      "ath": 807,
      "ĠDo": 808,
      "de": 809,
      "Ġleave": 810,
      "ĠCh": 811,
      "ĠIs": 812,
      "ity": 813,
      "Ġalone": 814,
      "Ġinto": 815,
      "ip": 816,
      "ĠCan": 817,
      "Ġshould": 818,
      "right": 819,
      "Ġnothing": 820,
      "ĠHow": 821,
      "ople": 822,
      "ady": 823,
      "Ġstay": 824,
      "Ġunder": 825,
      "ave": 826,
      "Ġtw": 827,
      "be": 828,
      "oll": 829,
      "Ġface": 830,
      "igg": 831,
      "ĠCome": 832,
      "Ġnew": 833,
      "Ġtonight": 834,
      "ah": 835,
      "lease": 836,
      "Ġstop": 837,
      "Ġstand": 838,
      "akes": 839,
      "ever": 840,
      "der": 841,
      "Ġtalk": 842,
      "ap": 843,
      "Ġhapp": 844,
      "Ġreal": 845,
      "ther": 846,
      "Ġya": 847,
      "Ġmade": 848,
      "Ġcare": 849,
      "ĠWho": 850,
      "Ġhas": 851,
      "Ġname": 852,
      "Ġshow": 853,
      "ĠLike": 854,
      "ny": 855,
      "Ġstart": 856,
      "Ġsu": 857,
      "ning": 858,
      "Ġbefore": 859,
      "ting": 860,
      "Ġgoing": 861,
      "ĠBaby": 862,
      "Ġen": 863,
      "oul": 864,
      "Ġsong": 865,
      "ars": 866,
      "Ġgotta": 867,
      "Ġlast": 868,
      "Ġplace": 869,
      "Ġinside": 870,
      "Ġsomething": 871,
      "ock": 872,
      "Ġfree": 873,
      "red": 874,
      "Ġbreak": 875,
      "vin": 876,
      "ard": 877,
      "Ġgl": 878,
      "ĠAs": 879,
      "Ġaf": 880,
      "Ġar": 881,
      "wn": 882,
      "Ġmine": 883,
      "Ġeverything": 884,
      "Ġqu": 885,
      "Ġrain": 886,
      "ount": 887,
      "Ġanother": 888,
      "Ġmay": 889,
      "Ġhigh": 890,
      "Ġwrong": 891,
      "Ġtheir": 892,
      "Ġwind": 893,
      "Ġtrue": 894,
      "ĠGod": 895,
      "ĠLove": 896,
      "Ġleft": 897,
      "Ġsoul": 898,
      "time": 899,
      "Ġpeople": 900,
      "ĠWhere": 901,
      "ory": 902,
      "Ġput": 903,
      "ĠCause": 904,
      "Ġdr": 905,
      "Ġex": 906,
      "Ġeven": 907,
      "ne": 908,
      "mber": 909,
      "zy": 910,
      "Ġthought": 911,
      "Ġfeeling": 912,
      "Ġother": 913,
      "rist": 914,
      "Ġhop": 915,
      "ĠThen": 916,
      "Ġpain": 917,
      "Ġcha": 918,
      "Ġ-": 919,
      "Ġbad": 920,
      "ĠHey": 921,
      "lp": 922,
      "orever": 923,
      "reat": 924,
      "ried": 925,
      "Ġown": 926,
      "Ġsame": 927,
      "Ġmust": 928,
      "Ġbu": 929,
      "Ġmean": 930,
      "Ġfire": 931,
      "ze": 932,
      "Ġun": 933,
      "Ġsweet": 934,
      "Ġstre": 935,
      "member": 936,
      "ness": 937,
      "ĠOne": 938,
      "Ġbit": 939,
      "Ġdoor": 940,
      "ĠNot": 941,
      "Ġthese": 942,
      "Ġfa": 943,
      "Ġcra": 944,
      "Ġhur": 945,
      "ĠTake": 946,
      "Ġfar": 947,
      "ĠWhy": 948,
      "ĠV": 949,
      "Ġlost": 950,
      "Ġpr": 951,
      "Ġburn": 952,
      "Ġkiss": 953,
      "by": 954,
      "Ġda": 955,
      "Ġdie": 956,
      "gether": 957,
      "Ġpart": 958,
      "Ġpo": 959,
      "Ġdone": 960,
      "Ġchange": 961,
      "Ġrock": 962,
      "Ġsky": 963,
      "ather": 964,
      "ĠRe": 965,
      "hes": 966,
      "pen": 967,
      "Ġcar": 968,
      "Ġmorn": 969,
      "ĠGot": 970,
      "Ġmight": 971,
      "Ġna": 972,
      "Ġblue": 973,
      "ĠLord": 974,
      "less": 975,
      "ĠSh": 976,
      "Ġdays": 977,
      "ps": 978,
      "ĠChrist": 979,
      "Ġcomes": 980,
      "Ġdark": 981,
      "Ġchild": 982,
      "Ġcame": 983,
      "pl": 984,
      "Ġwithout": 985,
      "Ġside": 986,
      "per": 987,
      "Ġfound": 988,
      "Ġmyself": 989,
      "ken": 990,
      "Ġlone": 991,
      "Ġcr": 992,
      "Ġnigg": 993,
      "hed": 994,
      "Ġsomeone": 995,
      "pt": 996,
      "ling": 997,
      "aking": 998,
      "ĠOr": 999,
      "Ġbring": 1000,
      "Ġforever": 1001,
      "Ġenough": 1002,
      "Ġdreams": 1003,
      "Ġtou": 1004,
      "oman": 1005,
      "Ġmoney": 1006,
      "Ġroll": 1007,
      "where": 1008,
      "Ġtogether": 1009,
      "Ġhea": 1010,
      "rain": 1011,
      "Ġwell": 1012,
      "Ġbeg": 1013,
      "Ġfly": 1014,
      "Ġdi": 1015,
      "irst": 1016,
      "Ġgr": 1017,
      "les": 1018,
      "Ġbro": 1019,
      "Ġcold": 1020,
      "ĠOf": 1021,
      "Ġbig": 1022,
      "ĠAl": 1023,
      "Ġtown": 1024,
      "Ġwork": 1025,
      "dy": 1026,
      "ross": 1027,
      "Ġhelp": 1028,
      "ater": 1029,
      "ĠGet": 1030,
      "Ġkind": 1031,
      "Ġknew": 1032,
      "Ġhands": 1033,
      "Ġtwo": 1034,
      "Ġsleep": 1035,
      "Ġmiss": 1036,
      "Ġdance": 1037,
      "Ġthose": 1038,
      "ĠLook": 1039,
      "Ġwar": 1040,
      "ond": 1041,
      "Ġfool": 1042,
      "ost": 1043,
      "ĠTell": 1044,
      "Ġpro": 1045,
      "Ġfuck": 1046,
      "Ġmove": 1047,
      "Ġremember": 1048,
      "Ġbest": 1049,
      "Ġem": 1050,
      "anc": 1051,
      "Ġmorning": 1052,
      "ason": 1053,
      "Ġhat": 1054,
      "Ġdidn": 1055,
      "isten": 1056,
      "asy": 1057,
      "atter": 1058,
      "mas": 1059,
      "ts": 1060,
      "ĠBl": 1061,
      "Ġdoes": 1062,
      "Ġcoming": 1063,
      "Ġdri": 1064,
      "Ġroad": 1065,
      "Ġfun": 1066,
      "Ġplease": 1067,
      "ress": 1068,
      "ĠAn": 1069,
      "Ġche": 1070,
      "Ġlonely": 1071,
      "Ġstreet": 1072,
      "Ġfight": 1073,
      "orrow": 1074,
      "Ġwoman": 1075,
      "Ġsmile": 1076,
      "Ġwonder": 1077,
      "Ġhope": 1078,
      "Ġmany": 1079,
      "ci": 1080,
      "stand": 1081,
      "Ġwatch": 1082,
      "age": 1083,
      "Ġtimes": 1084,
      "Ġwish": 1085,
      "ĠFrom": 1086,
      "oot": 1087,
      "Ġhey": 1088,
      "ren": 1089,
      "ug": 1090,
      "Ġtold": 1091,
      "mer": 1092,
      "Ġsure": 1093,
      "hh": 1094,
      "ĠWill": 1095,
      "Ġdis": 1096,
      "times": 1097,
      "ĠYes": 1098,
      "bye": 1099,
      "Ġste": 1100,
      "Ġel": 1101,
      "Ġwords": 1102,
      "sh": 1103,
      "Ġtouch": 1104,
      "Ġused": 1105,
      "Ġdes": 1106,
      "usic": 1107,
      "Ġseen": 1108,
      "Ġstr": 1109,
      "Ġho": 1110,
      "Ġmoon": 1111,
      "Ġknows": 1112,
      "ught": 1113,
      "',": 1114,
      "Ġcrazy": 1115,
      "Ġlose": 1116,
      "ff": 1117,
      "ĠMay": 1118,
      "ign": 1119,
      "ump": 1120,
      "Ġgoes": 1121,
      "gel": 1122,
      "ama": 1123,
      "Ġmatter": 1124,
      "Ġwaiting": 1125,
      "Ġunderstand": 1126,
      "Ġsur": 1127,
      "Ġclose": 1128,
      "Ġkill": 1129,
      "Ġopen": 1130,
      "ful": 1131,
      "Ġline": 1132,
      "ans": 1133,
      "Ġpass": 1134,
      "Ġpret": 1135,
      "ĠChristmas": 1136,
      "Ġlooking": 1137,
      "now": 1138,
      "ud": 1139,
      "Ġbr": 1140,
      "Ġheaven": 1141,
      "Ġfriends": 1142,
      "Ġdeep": 1143,
      "ĠNever": 1144,
      "Ġyes": 1145,
      "ĠSee": 1146,
      "ĠGo": 1147,
      "Ġstrong": 1148,
      "Ġsound": 1149,
      "Ġbeat": 1150,
      "Ġfirst": 1151,
      "Ġgame": 1152,
      "hind": 1153,
      "ash": 1154,
      "Ġsin": 1155,
      "Ġbot": 1156,
      "Ġdead": 1157,
      "ĠHere": 1158,
      "ia": 1159,
      "ouse": 1160,
      "ict": 1161,
      "ife": 1162,
      "Ġelse": 1163,
      "ĠSp": 1164,
      "Ġtook": 1165,
      "ows": 1166,
      "Ġalright": 1167,
      "Ġask": 1168,
      "te": 1169,
      "Ġtoday": 1170,
      "Ġyoung": 1171,
      "Ġheard": 1172,
      "lin": 1173,
      "oc": 1174,
      "Ġarms": 1175,
      "Ġwhile": 1176,
      "Ġtears": 1177,
      "ub": 1178,
      "ary": 1179,
      "Ġset": 1180,
      "Ġhell": 1181,
      "ntil": 1182,
      "ions": 1183,
      "Ġliving": 1184,
      "Ġbehind": 1185,
      "Ġi": 1186,
      "Ġhappy": 1187,
      "Ġcle": 1188,
      "ort": 1189,
      "Ġmakes": 1190,
      "Ġlot": 1191,
      "Ġlear": 1192,
      "Ġreason": 1193,
      "ane": 1194,
      "Ġonce": 1195,
      "Ġpray": 1196,
      "Ġyourself": 1197,
      "Ġmusic": 1198,
      "aut": 1199,
      "ĠGive": 1200,
      "Ġstar": 1201,
      "Ġshit": 1202,
      "Ġyears": 1203,
      "Ġlate": 1204,
      "Ġride": 1205,
      "ush": 1206,
      "ings": 1207,
      "Ġwin": 1208,
      "uth": 1209,
      "xt": 1210,
      "Ġblack": 1211,
      "Ġforget": 1212,
      "ower": 1213,
      "Ġsaw": 1214,
      "Ġwall": 1215,
      "Ġlie": 1216,
      ":]": 1217,
      "Ġac": 1218,
      "Ġafter": 1219,
      "Ġalong": 1220,
      "Ġeasy": 1221,
      "Ġsec": 1222,
      "Ġlover": 1223,
      "Ġbeaut": 1224,
      "ĠCl": 1225,
      "ĠAre": 1226,
      "Ġround": 1227,
      "Ġfine": 1228,
      "Ġblood": 1229,
      "Ġnigga": 1230,
      "Ġgrow": 1231,
      "Ġgre": 1232,
      "Ġcont": 1233,
      "Ġ2": 1234,
      "Ġpre": 1235,
      "oke": 1236,
      "Ġcause": 1237,
      "Ġchance": 1238,
      "ins": 1239,
      "Ġhurt": 1240,
      "Ġcount": 1241,
      "imp": 1242,
      "Ġvery": 1243,
      "ĠSay": 1244,
      "iful": 1245,
      "Ġmother": 1246,
      "Ġ1": 1247,
      "ĠDe": 1248,
      "Ġready": 1249,
      "ma": 1250,
      "Ġlearn": 1251,
      "Ġroom": 1252,
      "Ġeach": 1253,
      "Ġflo": 1254,
      "Ġsad": 1255,
      "Ġbody": 1256,
      "ĠEverybody": 1257,
      "Ġwhole": 1258,
      "Ġwent": 1259,
      "Ġground": 1260,
      "ung": 1261,
      "Ġhit": 1262,
      "ĠMe": 1263,
      "ks": 1264,
      "ying": 1265,
      "Ġper": 1266,
      "Ġhot": 1267,
      "ues": 1268,
      "Ġbed": 1269,
      "Ġsea": 1270,
      "Ġvo": 1271,
      "up": 1272,
      "led": 1273,
      "Ġad": 1274,
      "ob": 1275,
      "ones": 1276,
      "ĠOoh": 1277,
      "Ġland": 1278,
      "act": 1279,
      "ĠMaybe": 1280,
      "Ġgetting": 1281,
      "Ġlisten": 1282,
      "gg": 1283,
      "Ġalive": 1284,
      "Ġooh": 1285,
      "rave": 1286,
      "ollow": 1287,
      "oment": 1288,
      "ix": 1289,
      "ugh": 1290,
      "Ġgoodbye": 1291,
      "hy": 1292,
      "Ġtruth": 1293,
      "Ġhide": 1294,
      "Ġbroken": 1295,
      "Ġangel": 1296,
      "Ġhappen": 1297,
      "more": 1298,
      "Ġfeet": 1299,
      "ĠAt": 1300,
      "ĠJes": 1301,
      "bout": 1302,
      "Ġap": 1303,
      "Ġmoment": 1304,
      "ction": 1305,
      "Ġwater": 1306,
      "Ġbab": 1307,
      "Ġfre": 1308,
      "Ġguess": 1309,
      "Ġanything": 1310,
      "ment": 1311,
      "vil": 1312,
      "Ġstars": 1313,
      "key": 1314,
      "Ġlay": 1315,
      "ank": 1316,
      "Ġslow": 1317,
      "Ġsomebody": 1318,
      "Ġseems": 1319,
      "my": 1320,
      "Ġtom": 1321,
      "Ġair": 1322,
      "Ġdrink": 1323,
      "Ġgave": 1324,
      "Ġhouse": 1325,
      "come": 1326,
      "Ġlies": 1327,
      "ĠSa": 1328,
      "Ġsave": 1329,
      "Ġgirls": 1330,
      "Ġriver": 1331,
      "Ġgold": 1332,
      "Ġnobody": 1333,
      "Ġrest": 1334,
      "ĠJesus": 1335,
      "light": 1336,
      "Ġits": 1337,
      "Ġdar": 1338,
      "ummer": 1339,
      "ĠWon": 1340,
      "ĠLa": 1341,
      "Ġshine": 1342,
      "Ġtried": 1343,
      "Ġhate": 1344,
      "Ġwhite": 1345,
      "ĠKeep": 1346,
      "arth": 1347,
      "ĠAin": 1348,
      "addy": 1349,
      "Ġtrying": 1350,
      "Ġred": 1351,
      "Ġtill": 1352,
      "Ġcouldn": 1353,
      "Ġrunning": 1354,
      "Ġfalling": 1355,
      "Ġwr": 1356,
      "Ġco": 1357,
      "ĠGirl": 1358,
      "Ġdanc": 1359,
      "Ġprom": 1360,
      "app": 1361,
      "Ġmem": 1362,
      "tin": 1363,
      "Ġfin": 1364,
      "ĠSometimes": 1365,
      "Ġbo": 1366,
      "Ġpay": 1367,
      "Ġabove": 1368,
      "ons": 1369,
      "ohn": 1370,
      "Ġlights": 1371,
      "Ġhang": 1372,
      "ĠChorus": 1373,
      "Ġmeet": 1374,
      "ĠMake": 1375,
      "io": 1376,
      "la": 1377,
      "peat": 1378,
      "Ġborn": 1379,
      "Ġloved": 1380,
      "uh": 1381,
      "Ġte": 1382,
      "ĠDown": 1383,
      "Ġcity": 1384,
      "uc": 1385,
      "ĠFeel": 1386,
      "outh": 1387,
      "ves": 1388,
      "Ġchang": 1389,
      "ors": 1390,
      "og": 1391,
      "ĠPlease": 1392,
      "man": 1393,
      "Ġbright": 1394,
      "Ġsoon": 1395,
      "Ġlaugh": 1396,
      "ied": 1397,
      "Ġgun": 1398,
      "Ġsit": 1399,
      "umb": 1400,
      "Ġupon": 1401,
      "aught": 1402,
      "eak": 1403,
      "Ġhoney": 1404,
      "Ġpretty": 1405,
      "Ġwanted": 1406,
      "Ġblow": 1407,
      "Ġfull": 1408,
      "Ġfear": 1409,
      "ize": 1410,
      "Ġaw": 1411,
      "iz": 1412,
      "Ġbeautiful": 1413,
      "erse": 1414,
      "Ġfill": 1415,
      "rand": 1416,
      "Ġgreat": 1417,
      "tle": 1418,
      "amn": 1419,
      "Ġshin": 1420,
      "Ġbir": 1421,
      "Ġfr": 1422,
      "Ġeye": 1423,
      "ĠSw": 1424,
      "ĠBecause": 1425,
      "Ġanymore": 1426,
      "Ġtomorrow": 1427,
      "ired": 1428,
      "Ġeverybody": 1429,
      "Ġapart": 1430,
      "dge": 1431,
      "Ġsuch": 1432,
      "ipp": 1433,
      "Ġword": 1434,
      "Ġmag": 1435,
      "sw": 1436,
      "Ġwild": 1437,
      "Ġnext": 1438,
      "und": 1439,
      "rol": 1440,
      "ĠDid": 1441,
      "Ġkid": 1442,
      "iffe": 1443,
      "raid": 1444,
      "Ġsays": 1445,
      "ĠHold": 1446,
      "Ġbabe": 1447,
      "hin": 1448,
      "ĠAny": 1449,
      "Ġdro": 1450,
      "ween": 1451,
      "Ġlow": 1452,
      "ĠHis": 1453,
      "ountain": 1454,
      "Ġtrou": 1455,
      "Ġmid": 1456,
      "Ġpast": 1457,
      "Ġblind": 1458,
      "Ġthough": 1459,
      "ence": 1460,
      "ĠNothing": 1461,
      "Ġph": 1462,
      "Ġgoin": 1463,
      "Ġpull": 1464,
      "Ġhair": 1465,
      "ĠTry": 1466,
      "ily": 1467,
      "Ġmist": 1468,
      "anger": 1469,
      "ĠPe": 1470,
      "Ġtight": 1471,
      "ĠJohn": 1472,
      "ket": 1473,
      "ont": 1474,
      "ail": 1475,
      "ees": 1476,
      "Ġah": 1477,
      "ĠOut": 1478,
      "Ġtre": 1479,
      "uff": 1480,
      "Ġpri": 1481,
      "Ġmen": 1482,
      "elt": 1483,
      "Ġtakes": 1484,
      "ĠBet": 1485,
      "Ġmet": 1486,
      "Ġgets": 1487,
      "Ġshad": 1488,
      "Ġfast": 1489,
      "Ġfeels": 1490,
      "Ġdoesn": 1491,
      "mm": 1492,
      "Ġfloor": 1493,
      "Ġthinking": 1494,
      "fect": 1495,
      "Ġforg": 1496,
      "Ġlead": 1497,
      "Ġfollow": 1498,
      "ĠSha": 1499,
      "dle": 1500,
      "Ġboys": 1501,
      "Ġdiffe": 1502,
      "aces": 1503,
      "ĠGood": 1504,
      "not": 1505,
      "Ġloving": 1506,
      "Ġpower": 1507,
      "Ġnear": 1508,
      "Ġclos": 1509,
      "ĠBy": 1510,
      "az": 1511,
      "ait": 1512,
      "Ġmess": 1513,
      "orm": 1514,
      "ale": 1515,
      "ich": 1516,
      "Ġseem": 1517,
      "ĠLe": 1518,
      "Ġring": 1519,
      "Ġmaybe": 1520,
      "Ġtri": 1521,
      "ange": 1522,
      "ph": 1523,
      "ĠOnly": 1524,
      "Ġvoice": 1525,
      "int": 1526,
      "Ġearth": 1527,
      "ĠTime": 1528,
      "ey": 1529,
      "Ġpeace": 1530,
      "Ġchildren": 1531,
      "air": 1532,
      "Ġfell": 1533,
      "able": 1534,
      "Ġdou": 1535,
      "ĠEverything": 1536,
      "oes": 1537,
      "Ġcontrol": 1538,
      "Ġpie": 1539,
      "Ġbitch": 1540,
      "Ġrec": 1541,
      "Ġparty": 1542,
      "Ġuntil": 1543,
      "nce": 1544,
      "ĠGonna": 1545,
      "Ġafraid": 1546,
      "Ġx": 1547,
      "iles": 1548,
      "Ġflow": 1549,
      "Ġluck": 1550,
      "ories": 1551,
      "Ġcut": 1552,
      "ian": 1553,
      "Ġhearts": 1554,
      "Ġscream": 1555,
      "oud": 1556,
      "ĠNew": 1557,
      "ĠEven": 1558,
      "Ġhour": 1559,
      "unk": 1560,
      "Ġuse": 1561,
      "Ġcri": 1562,
      "Ġbrother": 1563,
      "ĠTurn": 1564,
      "Ġansw": 1565,
      "Ġdog": 1566,
      "Ġmin": 1567,
      "ĠHave": 1568,
      "ĠQ": 1569,
      "ĠOur": 1570,
      "Ġtrain": 1571,
      "Ġcross": 1572,
      "iness": 1573,
      "ĠWhile": 1574,
      "Ġsummer": 1575,
      "night": 1576,
      "Ġwants": 1577,
      "Ġmill": 1578,
      "ert": 1579,
      "raight": 1580,
      "Ġass": 1581,
      "Ġdeath": 1582,
      "Ġdra": 1583,
      "Ġres": 1584,
      "Ġwouldn": 1585,
      "Ġyear": 1586,
      "Ġclear": 1587,
      "Ġmar": 1588,
      "ison": 1589,
      "ĠMar": 1590,
      "Ġfelt": 1591,
      "Ġcool": 1592,
      "Ġtop": 1593,
      "Ġmama": 1594,
      "Ġwake": 1595,
      "ery": 1596,
      "Ġstory": 1597,
      "Ġmountain": 1598,
      "ĠAh": 1599,
      "ched": 1600,
      "med": 1601,
      "Ġsnow": 1602,
      "ching": 1603,
      "Ġbeing": 1604,
      "ĠSl": 1605,
      "Ġfaith": 1606,
      "ĠWas": 1607,
      "ĠTw": 1608,
      "Ġlives": 1609,
      "oked": 1610,
      "Ġturned": 1611,
      "Ġlady": 1612,
      "ĠBr": 1613,
      "Ġim": 1614,
      "Ġbecause": 1615,
      "ĠPut": 1616,
      "Ġguy": 1617,
      "Ġmad": 1618,
      "Ġworth": 1619,
      "ĠMan": 1620,
      "Ġbell": 1621,
      "Ġmir": 1622,
      "ĠWould": 1623,
      "Ġrem": 1624,
      "ĠPl": 1625,
      "rent": 1626,
      "iving": 1627,
      "Ġblues": 1628,
      "ches": 1629,
      "land": 1630,
      "Ġapp": 1631,
      "Ġsen": 1632,
      "Verse": 1633,
      "ious": 1634,
      "ĠCould": 1635,
      "akin": 1636,
      "Ġstanding": 1637,
      "Ġbelong": 1638,
      "ĠBefore": 1639,
      "sing": 1640,
      "Ġrhy": 1641,
      "orry": 1642,
      "Ġsat": 1643,
      "Ġburning": 1644,
      "den": 1645,
      "Ġsign": 1646,
      "Ġcalling": 1647,
      "oom": 1648,
      "Ġlovin": 1649,
      "Ġboth": 1650,
      "Ġwalking": 1651,
      "Ġdoing": 1652,
      "Ġsince": 1653,
      "Ġtear": 1654,
      "Ġwarm": 1655,
      "uture": 1656,
      "ated": 1657,
      "als": 1658,
      "icture": 1659,
      "Ġbetween": 1660,
      "Ġbus": 1661,
      "Ġpar": 1662,
      "Ġbreat": 1663,
      "Ġbreath": 1664,
      "head": 1665,
      "Ġjoy": 1666,
      "ole": 1667,
      "ĠQu": 1668,
      "Ġact": 1669,
      "Ġfam": 1670,
      "Ġshot": 1671,
      "aster": 1672,
      "Ġson": 1673,
      "Ġdear": 1674,
      "irty": 1675,
      "Ġtired": 1676,
      "ĠStill": 1677,
      "Ġcomp": 1678,
      "alked": 1679,
      "Ġnights": 1680,
      "ork": 1681,
      "Ġconf": 1682,
      "Ġwit": 1683,
      "Ġtalking": 1684,
      "Ġbegin": 1685,
      "Ġeveryone": 1686,
      "ating": 1687,
      "pped": 1688,
      "ĠCha": 1689,
      "Ġcol": 1690,
      "Ġreach": 1691,
      "Ġdaddy": 1692,
      "Ġtra": 1693,
      "ib": 1694,
      "ern": 1695,
      "Ġple": 1696,
      "Ġplan": 1697,
      "Ġcatch": 1698,
      "Ġmer": 1699,
      "Ġking": 1700,
      "Ġdec": 1701,
      "Ġball": 1702,
      "ĠLife": 1703,
      "Ġhum": 1704,
      "Ġloves": 1705,
      "oe": 1706,
      "ared": 1707,
      "Ġread": 1708,
      "Ġfuture": 1709,
      "Ġthrow": 1710,
      "pty": 1711,
      "Ġear": 1712,
      "Ġatt": 1713,
      "ier": 1714,
      "ĠHea": 1715,
      "Ġnothin": 1716,
      "Ġcrying": 1717,
      "Ġacross": 1718,
      "ĠUn": 1719,
      "Ġsecret": 1720,
      "ute": 1721,
      "iver": 1722,
      "how": 1723,
      "ĠWait": 1724,
      "Ġbar": 1725,
      "Ġspeak": 1726,
      "Ġspend": 1727,
      "Ġniggas": 1728,
      "ĠBoy": 1729,
      "Ġmon": 1730,
      "Ġknown": 1731,
      "Ġwindow": 1732,
      "Ġma": 1733,
      "ince": 1734,
      "Ġdamn": 1735,
      "ĠBack": 1736,
      "ĠThrough": 1737,
      "Ġins": 1738,
      "ted": 1739,
      "Ġtrouble": 1740,
      "Ġskin": 1741,
      "Ġdifferent": 1742,
      "ces": 1743,
      "Ġthree": 1744,
      "Ġcalled": 1745,
      "Ġdrive": 1746,
      "Ġwhis": 1747,
      "Ġbuy": 1748,
      "ste": 1749,
      "ĠHell": 1750,
      "ĠSomething": 1751,
      "Ġworry": 1752,
      "ible": 1753,
      "Ġhalf": 1754,
      "ĠThese": 1755,
      "vy": 1756,
      "ĠThough": 1757,
      "nin": 1758,
      "Ġsight": 1759,
      "Ġshake": 1760,
      "Ġknees": 1761,
      "Ġkeeps": 1762,
      "Ġperfect": 1763,
      "Ġmeant": 1764,
      "Ġwasn": 1765,
      "ĠSomeone": 1766,
      "Ġsch": 1767,
      "Ġtrust": 1768,
      "Ġfing": 1769,
      "Ġlips": 1770,
      "Ġwhe": 1771,
      "Ġwear": 1772,
      "Ġpicture": 1773,
      "ines": 1774,
      "ĠSe": 1775,
      "ooh": 1776,
      "Ġmagic": 1777,
      "ised": 1778,
      "Ġnice": 1779,
      "Ġyours": 1780,
      "Ġdarling": 1781,
      "Ġneeds": 1782,
      "Ġtree": 1783,
      "ĠWatch": 1784,
      "Ġcomin": 1785,
      "!)": 1786,
      "Ġlooked": 1787,
      "ĠHer": 1788,
      "ĠRun": 1789,
      "cha": 1790,
      "ple": 1791,
      "Ġstep": 1792,
      "Ġmillion": 1793,
      "ĠRight": 1794,
      "ĠFl": 1795,
      "Ġhig": 1796,
      "ĠAf": 1797,
      "Ġmaking": 1798,
      "Ġtast": 1799,
      "ten": 1800,
      "Ġsear": 1801,
      "Ġuh": 1802,
      "iling": 1803,
      "Ġpa": 1804,
      "Ġstreets": 1805,
      "Ġmost": 1806,
      "iv": 1807,
      "Ġsile": 1808,
      "ĠKing": 1809,
      "oon": 1810,
      "ĠCar": 1811,
      "ĠCom": 1812,
      "ousand": 1813,
      "Ġcannot": 1814,
      "Ġstraight": 1815,
      "Ġgreen": 1816,
      "els": 1817,
      "Ġcorn": 1818,
      "ĠAme": 1819,
      "pect": 1820,
      "ĠLea": 1821,
      "ĠLittle": 1822,
      "Ġshare": 1823,
      "irit": 1824,
      "ĠHeaven": 1825,
      "irt": 1826,
      "ĠWalk": 1827,
      "Ġoutside": 1828,
      "une": 1829,
      "Ġknock": 1830,
      "Ġstarted": 1831,
      "Ġdress": 1832,
      "Ġempty": 1833,
      "ĠThan": 1834,
      "Ġsorry": 1835,
      "asure": 1836,
      "Ġanswer": 1837,
      "ĠNobody": 1838,
      "Re": 1839,
      "ĠSing": 1840,
      "aw": 1841,
      "ister": 1842,
      "Ġnowhere": 1843,
      "Ġways": 1844,
      "ote": 1845,
      "Ġshoes": 1846,
      "Ġpromise": 1847,
      "ĠToo": 1848,
      "ĠThink": 1849,
      "Ġpick": 1850,
      "Ġeat": 1851,
      "Ġlookin": 1852,
      "Ġtreat": 1853,
      "read": 1854,
      "ner": 1855,
      "Ġsend": 1856,
      "pr": 1857,
      "cy": 1858,
      "umber": 1859,
      "Ġthousand": 1860,
      "ĠCall": 1861,
      "Ġsometimes": 1862,
      "ield": 1863,
      "aa": 1864,
      "ĠUp": 1865,
      "Ġret": 1866,
      "bt": 1867,
      "Ġrid": 1868,
      "ĠMr": 1869,
      "ĠZ": 1870,
      "Ġ?": 1871,
      "Ġwee": 1872,
      "neath": 1873,
      "Ġschool": 1874,
      "Ġlooks": 1875,
      "ky": 1876,
      "Ġdist": 1877,
      "adio": 1878,
      "ĠPeople": 1879,
      "mp": 1880,
      "oose": 1881,
      "Ġyo": 1882,
      "ina": 1883,
      "Ġbrain": 1884,
      "Ġhung": 1885,
      "Ġsaying": 1886,
      "Ġdancing": 1887,
      "Ġsick": 1888,
      "ĠGotta": 1889,
      "Ġcarry": 1890,
      "Ġjump": 1891,
      "ĠSc": 1892,
      "Ġsinging": 1893,
      "ror": 1894,
      "ĠStand": 1895,
      "ana": 1896,
      "ĠUntil": 1897,
      "br": 1898,
      "Ġdarkness": 1899,
      "Ġcur": 1900,
      "illy": 1901,
      "Ġcrow": 1902,
      "Ġpra": 1903,
      "ridge": 1904,
      "ene": 1905,
      "Ġexpl": 1906,
      "ĠWithout": 1907,
      "ĠAm": 1908,
      "terday": 1909,
      "imb": 1910,
      "Ġphone": 1911,
      "imme": 1912,
      "itting": 1913,
      "acks": 1914,
      "otion": 1915,
      "Ġsomewhere": 1916,
      "isf": 1917,
      "most": 1918,
      "Ġmiles": 1919,
      "Ġfront": 1920,
      "edom": 1921,
      "ips": 1922,
      "ations": 1923,
      "Ġve": 1924,
      "Ġwalked": 1925,
      "Ġshame": 1926,
      "cle": 1927,
      "erve": 1928,
      "Ġblame": 1929,
      "Ġleaving": 1930,
      "Ġisn": 1931,
      "oft": 1932,
      "Ġbroke": 1933,
      "Ġones": 1934,
      "reak": 1935,
      "Ġless": 1936,
      "ton": 1937,
      "Ġglad": 1938,
      "Ġyet": 1939,
      "ĠDay": 1940,
      "co": 1941,
      "Ġdem": 1942,
      "ney": 1943,
      "ĠBlack": 1944,
      "Ġsupp": 1945,
      "Ġfour": 1946,
      "ĠChe": 1947,
      "You": 1948,
      "Ġmouth": 1949,
      "ats": 1950,
      "ĠTill": 1951,
      "Ġcountry": 1952,
      "ift": 1953,
      "Ġtaking": 1954,
      "Ġdoll": 1955,
      "nto": 1956,
      "Ġholding": 1957,
      "rew": 1958,
      "ĠSm": 1959,
      "Ġsand": 1960,
      "ĠRock": 1961,
      "fuck": 1962,
      "ru": 1963,
      "ĠNe": 1964,
      "ger": 1965,
      "ses": 1966,
      "Ġrise": 1967,
      "Ġpap": 1968,
      "Ġcompl": 1969,
      "anta": 1970,
      "Ġfeelin": 1971,
      "Ġwhoa": 1972,
      "Ġgod": 1973,
      "Ġstone": 1974,
      "Ġden": 1975,
      "ĠAmeric": 1976,
      "Ġstrange": 1977,
      "ets": 1978,
      "Ġhigher": 1979,
      "Ġfather": 1980,
      "Ġgettin": 1981,
      "shine": 1982,
      "ĠAnother": 1983,
      "ition": 1984,
      "iding": 1985,
      "Ġkick": 1986,
      "Ġwine": 1987,
      "ony": 1988,
      "Ġsmall": 1989,
      "kes": 1990,
      "Ġwings": 1991,
      "Ġcaught": 1992,
      "eer": 1993,
      "ĠLo": 1994,
      "til": 1995,
      "ĠOver": 1996,
      "Ġdest": 1997,
      "Ġflame": 1998,
      "ĠSte": 1999,
      "Ġkey": 2000,
      "omen": 2001,
      "Ġeverywhere": 2002,
      "Ġfinally": 2003,
      "Ġbecome": 2004,
      "ĠKnow": 2005,
      "Ġbuild": 2006,
      "ĠOnce": 2007,
      "Ġdrop": 2008,
      "cial": 2009,
      "ĠSweet": 2010,
      "iam": 2011,
      "uss": 2012,
      "ĠLooking": 2013,
      "Ġchanged": 2014,
      "its": 2015,
      "Ġmel": 2016,
      "Ġago": 2017,
      "Ġdevil": 2018,
      "Ġband": 2019,
      "ills": 2020,
      "ision": 2021,
      "Ġbreathe": 2022,
      "rill": 2023,
      "Ġz": 2024,
      "Ġangels": 2025,
      "ĠAlways": 2026,
      "ready": 2027,
      "Repeat": 2028,
      "Ġsil": 2029,
      "Ġsongs": 2030,
      "Ġref": 2031,
      "Ġwis": 2032,
      "Ġpop": 2033,
      "atur": 2034,
      "ĠTr": 2035,
      "Ġanyone": 2036,
      "Ġkids": 2037,
      "Ġpoor": 2038,
      "ĠBring": 2039,
      "Ġok": 2040,
      "Ġoce": 2041,
      "vers": 2042,
      "ĠUnder": 2043,
      "Ġglory": 2044,
      "Ġshining": 2045,
      "Ġquest": 2046,
      "ĠShow": 2047,
      "ĠSaid": 2048,
      "....": 2049,
      "Ġpretend": 2050,
      "iet": 2051,
      "Ġplaying": 2052,
      "Ġtaste": 2053,
      "?)": 2054,
      "Ġloud": 2055,
      "amb": 2056,
      "Ġten": 2057,
      "ĠBig": 2058,
      "Ġsimp": 2059,
      "Ġdying": 2060,
      "Ġshall": 2061,
      "Ġshoot": 2062,
      "ĠDream": 2063,
      "Ġclou": 2064,
      "Ġce": 2065,
      "Ġshout": 2066,
      "Ġrather": 2067,
      "Ġwide": 2068,
      "Ġimp": 2069,
      "Ġfade": 2070,
      "Ġwalls": 2071,
      "ĠTalk": 2072,
      "Ġdoubt": 2073,
      "Ġric": 2074,
      "ĠWhoa": 2075,
      "av": 2076,
      "Ġ3": 2077,
      "Ġmemory": 2078,
      "Ġspace": 2079,
      "Ġswear": 2080,
      "yeah": 2081,
      "Ġru": 2082,
      "Ġhon": 2083,
      "Ġmemories": 2084,
      "Ġreg": 2085,
      "Ġsurv": 2086,
      "Ġgiving": 2087,
      "Ġradio": 2088,
      "Ġnumber": 2089,
      "Oh": 2090,
      "ices": 2091,
      "Ġbless": 2092,
      "Ġspirit": 2093,
      "ĠAfter": 2094,
      "Ġpride": 2095,
      "ender": 2096,
      "ray": 2097,
      "Ġlovers": 2098,
      "bs": 2099,
      "Ġdesire": 2100,
      "Ġdirty": 2101,
      "under": 2102,
      "itch": 2103,
      "lect": 2104,
      "Ġstri": 2105,
      "ĠWor": 2106,
      "Ġcried": 2107,
      "Ġreturn": 2108,
      "Ġclot": 2109,
      "Ġris": 2110,
      "ĠDr": 2111,
      "Ġtryin": 2112,
      "yle": 2113,
      "Ġleg": 2114,
      "ury": 2115,
      "Ġsecond": 2116,
      "ĠGu": 2117,
      "),": 2118,
      "Ġsy": 2119,
      "Ġalmost": 2120,
      "Ġagainst": 2121,
      "Ġglass": 2122,
      "Ġheal": 2123,
      "Ġgon": 2124,
      "Ġcir": 2125,
      "ĠFall": 2126,
      "ped": 2127,
      "ĠRoll": 2128,
      "ird": 2129,
      "ĠGl": 2130,
      "Ġke": 2131,
      "itar": 2132,
      "Ġmis": 2133,
      "Ġchar": 2134,
      "thm": 2135,
      "icha": 2136,
      "Ġdied": 2137,
      "Ġbes": 2138,
      "Ġmiddle": 2139,
      "ĠTonight": 2140,
      "Ġstorm": 2141,
      "Ġcrowd": 2142,
      "ĠListen": 2143,
      "ĠAr": 2144,
      "Ġfamily": 2145,
      "ĠHar": 2146,
      "reame": 2147,
      "Ġcou": 2148,
      "Ġdreaming": 2149,
      "Ġdawn": 2150,
      "Ġalready": 2151,
      "ughter": 2152,
      "Ġsorrow": 2153,
      "you": 2154,
      "Ġbye": 2155,
      "Ġspe": 2156,
      "Ġlift": 2157,
      "Ġturning": 2158,
      "Ġwithin": 2159,
      "Ġcorner": 2160,
      "Ġdoin": 2161,
      "Ġheat": 2162,
      "ris": 2163,
      "Ġgrace": 2164,
      "ned": 2165,
      "Ġet": 2166,
      ".\"": 2167,
      "Ġwat": 2168,
      "esc": 2169,
      "ĠSomebody": 2170,
      "ming": 2171,
      "Ġgra": 2172,
      "ult": 2173,
      "king": 2174,
      "ĠPlay": 2175,
      "lo": 2176,
      "Ġheld": 2177,
      "Ġlaw": 2178,
      "Ġhor": 2179,
      "Ġ.": 2180,
      "ĠHall": 2181,
      "elu": 2182,
      "ĠSince": 2183,
      "Ġfew": 2184,
      "icked": 2185,
      "Ġdoo": 2186,
      "Ġfad": 2187,
      "ĠDoes": 2188,
      "Ġmoving": 2189,
      "Ġsoft": 2190,
      "Ġsteal": 2191,
      "Ġstick": 2192,
      "rought": 2193,
      "Ġje": 2194,
      "Ġminute": 2195,
      "olly": 2196,
      "Ġforgive": 2197,
      "Ġfair": 2198,
      "undred": 2199,
      "ĠTwo": 2200,
      "bo": 2201,
      "ĠWay": 2202,
      "Ġbook": 2203,
      "Ġyesterday": 2204,
      "ugg": 2205,
      "Ġspin": 2206,
      "Ġtelling": 2207,
      "Ġproble": 2208,
      "Ġcloser": 2209,
      "Ġwomen": 2210,
      "Ġfucking": 2211,
      "Ġsold": 2212,
      "Ġlivin": 2213,
      "Ġsingle": 2214,
      "Ġfreedom": 2215,
      "ĠLight": 2216,
      "Ġlonger": 2217,
      "uz": 2218,
      "ape": 2219,
      "Ġsmoke": 2220,
      "Ġmeans": 2221,
      "Ġdeal": 2222,
      "que": 2223,
      "Ġsurpr": 2224,
      "Ġdry": 2225,
      "Ġnews": 2226,
      "Ġsatisf": 2227,
      "amp": 2228,
      "ĠHa": 2229,
      "ope": 2230,
      "Ġsail": 2231,
      "Ġice": 2232,
      "ete": 2233,
      "Ġfunny": 2234,
      "Ġocean": 2235,
      "Ġwinter": 2236,
      "vi": 2237,
      "Ġsn": 2238,
      "Ġbat": 2239,
      "iew": 2240,
      "Ġtrave": 2241,
      "yond": 2242,
      "ĠRemember": 2243,
      "Ġclothes": 2244,
      "ical": 2245,
      "Ġwhich": 2246,
      "ĠLiving": 2247,
      "Ġwaste": 2248,
      "Ġsunshine": 2249,
      "Ġskies": 2250,
      "Ġdust": 2251,
      "Ġbleed": 2252,
      "iny": 2253,
      "Ġ4": 2254,
      "Ġlosing": 2255,
      "ĠGe": 2256,
      "Ġpoint": 2257,
      "Ġshadows": 2258,
      "Ġcand": 2259,
      "ĠIts": 2260,
      "Ġpraise": 2261,
      "Ġtrees": 2262,
      "Ġfeelings": 2263,
      "Ġbeside": 2264,
      "ĠEx": 2265,
      "Ġclimb": 2266,
      "Ġclouds": 2267,
      "ude": 2268,
      "Ġbull": 2269,
      "ĠHear": 2270,
      "elf": 2271,
      "Ġcheck": 2272,
      "gu": 2273,
      "Ġcat": 2274,
      "Ġdisapp": 2275,
      "Ġwife": 2276,
      "Ġplayed": 2277,
      "Ġlearned": 2278,
      "Ġcomm": 2279,
      "Ġhuman": 2280,
      "Ġmom": 2281,
      "Ġdiam": 2282,
      "Ġwatching": 2283,
      "ster": 2284,
      "Ġscared": 2285,
      "Ġweak": 2286,
      "Ġholy": 2287,
      "Ġpric": 2288,
      "ards": 2289,
      "Ġthank": 2290,
      "bb": 2291,
      "Ġimag": 2292,
      "Ġhundred": 2293,
      "vent": 2294,
      "Ġrel": 2295,
      "ĠInto": 2296,
      "Ġrealize": 2297,
      "Ġhurts": 2298,
      "Ġquite": 2299,
      "cept": 2300,
      "ĠSanta": 2301,
      "ĠUh": 2302,
      "osed": 2303,
      "ises": 2304,
      "ĠFr": 2305,
      "Ġdanger": 2306,
      "enny": 2307,
      "Ġqueen": 2308,
      "Ġwrite": 2309,
      "Ġgrave": 2310,
      "Ġsense": 2311,
      "ĠTom": 2312,
      "kin": 2313,
      "ĠStay": 2314,
      "reen": 2315,
      "Ġrom": 2316,
      "Ġclean": 2317,
      "boy": 2318,
      "Ġbott": 2319,
      "Ġtalkin": 2320,
      "ĠGr": 2321,
      "!!": 2322,
      "Ġahead": 2323,
      "Ġexc": 2324,
      "thin": 2325,
      "Ġsomehow": 2326,
      "ĠGeor": 2327,
      "che": 2328,
      "Ġsafe": 2329,
      "ĠCon": 2330,
      "ĠMon": 2331,
      "oin": 2332,
      "ĠMore": 2333,
      "ates": 2334,
      "ides": 2335,
      "Ġsent": 2336,
      "Ġchoose": 2337,
      "adise": 2338,
      "Ġbrand": 2339,
      "Ġneeded": 2340,
      "ution": 2341,
      "ual": 2342,
      "Ġpiece": 2343,
      "Ġlucky": 2344,
      "Ġdreame": 2345,
      "ĠLong": 2346,
      "Ġanyway": 2347,
      "Ġguitar": 2348,
      "Ġbow": 2349,
      "mb": 2350,
      "Ġfoot": 2351,
      "ĠRed": 2352,
      "vis": 2353,
      "Ġbound": 2354,
      "Ġgent": 2355,
      "ĠMiss": 2356,
      "Ġsomeday": 2357,
      "min": 2358,
      "ĠHo": 2359,
      "ĠLou": 2360,
      "Ġforgot": 2361,
      "Ġfav": 2362,
      "jah": 2363,
      "ilt": 2364,
      "Ġthoughts": 2365,
      "Ġfive": 2366,
      "ngth": 2367,
      "Ġsqu": 2368,
      "ĠMary": 2369,
      "ĠBetter": 2370,
      "oss": 2371,
      "Ġbells": 2372,
      "Ġmirror": 2373,
      "ĠStop": 2374,
      "wood": 2375,
      "Ġstranger": 2376,
      "Ġstyle": 2377,
      "ĠHelp": 2378,
      "Ġbird": 2379,
      "Ġletter": 2380,
      "ertain": 2381,
      "cked": 2382,
      "Ġlad": 2383,
      "unt": 2384,
      "Ġleaves": 2385,
      "Ġspecial": 2386,
      "Ġ...": 2387,
      "Ġjob": 2388,
      "Ġrhythm": 2389,
      "Ġdep": 2390,
      "ley": 2391,
      "Ġhole": 2392,
      "Ġsurvive": 2393,
      "Ġmercy": 2394,
      "erry": 2395,
      "host": 2396,
      "stead": 2397,
      "Ġhall": 2398,
      "Ġsell": 2399,
      "ik": 2400,
      "Ġsimple": 2401,
      "anna": 2402,
      "uel": 2403,
      "cious": 2404,
      "Ġpol": 2405,
      "ctor": 2406,
      "Ġtor": 2407,
      "Ġbreaking": 2408,
      "Ġint": 2409,
      "ĠForever": 2410,
      "any": 2411,
      "Ġbag": 2412,
      "Ġkept": 2413,
      "Ġgolden": 2414,
      "Ġevening": 2415,
      "ature": 2416,
      "Ġtaken": 2417,
      "Ġmidnight": 2418,
      "Ġturns": 2419,
      "used": 2420,
      "Ġcraw": 2421,
      "Ġtem": 2422,
      "ĠBurn": 2423,
      "ĠMama": 2424,
      "ĠShould": 2425,
      "ĠWant": 2426,
      "Ġshadow": 2427,
      "Ġgro": 2428,
      "oooo": 2429,
      "Ġbrought": 2430,
      "pin": 2431,
      "Ġthrill": 2432,
      "elujah": 2433,
      "ĠOpen": 2434,
      "Ġlord": 2435,
      "Ġclub": 2436,
      "Ġstrength": 2437,
      "?\"": 2438,
      "Ġpum": 2439,
      "lcome": 2440,
      "Ġbout": 2441,
      "Ġsex": 2442,
      "ĠEl": 2443,
      "Ġsilver": 2444,
      "ward": 2445,
      "Ġview": 2446,
      "ike": 2447,
      "roud": 2448,
      "Ġrunnin": 2449,
      "ho": 2450,
      "Ġtender": 2451,
      "rie": 2452,
      "sel": 2453,
      "Ġstarts": 2454,
      "Ġhappened": 2455,
      "usion": 2456,
      "Ġdef": 2457,
      "Ġcho": 2458,
      "mell": 2459,
      "Ġpush": 2460,
      "att": 2461,
      "Ġang": 2462,
      "Ġhol": 2463,
      "ĠWaiting": 2464,
      "Ġsuper": 2465,
      "Ġokay": 2466,
      "ĠLay": 2467,
      "Ġmotherfuck": 2468,
      "ĠLeave": 2469,
      "Ġser": 2470,
      "off": 2471,
      "ĠFuck": 2472,
      "Ġhaven": 2473,
      "umble": 2474,
      "ial": 2475,
      "Ġloose": 2476,
      "Ġhighway": 2477,
      "ĠAbout": 2478,
      "Ġgen": 2479,
      "ĠBel": 2480,
      "Ġeveryday": 2481,
      "ging": 2482,
      "ĠHim": 2483,
      "Ġprice": 2484,
      "ĠTe": 2485,
      "Ġhours": 2486,
      "mit": 2487,
      "no": 2488,
      "Ġawake": 2489,
      "Ġfaces": 2490,
      "Ġill": 2491,
      "ains": 2492,
      "Ġyea": 2493,
      "Ġrep": 2494,
      "go": 2495,
      "Ġself": 2496,
      "Ġquick": 2497,
      "Ġfact": 2498,
      "cl": 2499,
      "erson": 2500,
      "apt": 2501,
      "ĠQueen": 2502,
      "Ġyell": 2503,
      "Ġmissing": 2504,
      "Ġfreak": 2505,
      "ittin": 2506,
      "Ġedge": 2507,
      "ĠHeart": 2508,
      "cket": 2509,
      "Ġswe": 2510,
      "Ġbang": 2511,
      "Ġlying": 2512,
      "ĠHapp": 2513,
      "Ġsleeping": 2514,
      "Ġba": 2515,
      "Ġcoll": 2516,
      "Ġdrown": 2517,
      "Ġsal": 2518,
      "Ġhero": 2519,
      "gar": 2520,
      "ĠEveryone": 2521,
      "ĠDeep": 2522,
      "Ġsilence": 2523,
      "ering": 2524,
      "Ġbelie": 2525,
      "Ġmach": 2526,
      "Ġstood": 2527,
      "Ġhill": 2528,
      "Ġgiven": 2529,
      "ĠMa": 2530,
      "Ġhuh": 2531,
      "vol": 2532,
      "Ġcrime": 2533,
      "Ġfol": 2534,
      "Ġregret": 2535,
      "ils": 2536,
      "rick": 2537,
      "Ġexplain": 2538,
      "cc": 2539,
      "ĠKiss": 2540,
      "Ġtall": 2541,
      "ĠHoney": 2542,
      "ĠFind": 2543,
      "Ġrul": 2544,
      "Ġmot": 2545,
      "ĠSomewhere": 2546,
      "dom": 2547,
      "town": 2548,
      "ĠAmerica": 2549,
      "Ġrich": 2550,
      "ries": 2551,
      "Ġtrack": 2552,
      "Ġdiv": 2553,
      "Ġworking": 2554,
      "Ġevil": 2555,
      "Ġasked": 2556,
      "ĠJim": 2557,
      "Ġesc": 2558,
      "Ġinsane": 2559,
      "fl": 2560,
      "upid": 2561,
      "arden": 2562,
      "ping": 2563,
      "Ġsix": 2564,
      "Ġmov": 2565,
      "Ġends": 2566,
      "enty": 2567,
      "Ġpur": 2568,
      "ĠNa": 2569,
      "Ġheavy": 2570,
      "ĠNight": 2571,
      "Ġrace": 2572,
      "Ġfield": 2573,
      "Ġrhyme": 2574,
      "Ġstare": 2575,
      "Ġlovely": 2576,
      "ized": 2577,
      "Ġfat": 2578,
      "Ġwhatever": 2579,
      "Ġdarlin": 2580,
      "ache": 2581,
      "Ġparadise": 2582,
      "Ġsuck": 2583,
      "Ġanybody": 2584,
      "Ġpaper": 2585,
      "onds": 2586,
      "Ġpat": 2587,
      "Ġrose": 2588,
      "Ġhanging": 2589,
      "Ġcast": 2590,
      "ĠDar": 2591,
      "Ġplaces": 2592,
      "Ġblock": 2593,
      "Ġfilled": 2594,
      "Ġwhisper": 2595,
      "gin": 2596,
      "Ġsmell": 2597,
      "room": 2598,
      "Ġ5": 2599,
      "Ġcow": 2600,
      "itten": 2601,
      "Ġslowly": 2602,
      "alm": 2603,
      "Ġbrings": 2604,
      "Ġbirth": 2605,
      "ect": 2606,
      "ĠThing": 2607,
      "ots": 2608,
      "fet": 2609,
      "ĠEm": 2610,
      "Ġproud": 2611,
      "Ġran": 2612,
      "Ġkinda": 2613,
      "Ġbottle": 2614,
      "Ġmistake": 2615,
      "ĠTrying": 2616,
      "Ġsister": 2617,
      "ĠThose": 2618,
      "Ġtwice": 2619,
      "ship": 2620,
      "00": 2621,
      "Ġfingers": 2622,
      "raw": 2623,
      "igure": 2624,
      "ĠIm": 2625,
      "Ġstuff": 2626,
      "da": 2627,
      "Ġspell": 2628,
      "Ġbeyond": 2629,
      "ited": 2630,
      "ĠSun": 2631,
      "Ġsol": 2632,
      "Ġload": 2633,
      "Ġter": 2634,
      "rif": 2635,
      "Ġweather": 2636,
      "Ġetern": 2637,
      "Ġghost": 2638,
      "lly": 2639,
      "unday": 2640,
      "ĠJohnny": 2641,
      "Ġmyst": 2642,
      "Ġent": 2643,
      "ĠBea": 2644,
      "ĠYoung": 2645,
      "ĠHad": 2646,
      "Ġshut": 2647,
      "ĠEver": 2648,
      "Ġund": 2649,
      "iff": 2650,
      "Ġdel": 2651,
      "Ġwheel": 2652,
      "ination": 2653,
      "omb": 2654,
      "iled": 2655,
      "Ġlived": 2656,
      "ĠYork": 2657,
      "Ġcrack": 2658,
      "Ġflying": 2659,
      "ĠMicha": 2660,
      "ĠDaddy": 2661,
      "Ġcour": 2662,
      "Ġstuck": 2663,
      "Ġthinkin": 2664,
      "ĠSu": 2665,
      "Ġflowers": 2666,
      "Ġfeed": 2667,
      "ĠNigg": 2668,
      "ler": 2669,
      "noc": 2670,
      "Ġcons": 2671,
      "friend": 2672,
      "ĠDri": 2673,
      "Ġscene": 2674,
      "Ġchain": 2675,
      "ĠBlue": 2676,
      "let": 2677,
      "rap": 2678,
      "Ġmighty": 2679,
      "Ġfalls": 2680,
      "!\"": 2681,
      "ĠWhatever": 2682,
      "Ġfuckin": 2683,
      "Ġdig": 2684,
      "Ġfore": 2685,
      "Ġcirc": 2686,
      "Ġlines": 2687,
      "ĠSunday": 2688,
      "Ġsomethin": 2689,
      "ĠFly": 2690,
      "reet": 2691,
      "Ġcase": 2692,
      "Ġdrift": 2693,
      "Ġboo": 2694,
      "Ġfant": 2695,
      "Ġshore": 2696,
      "hey": 2697,
      "itty": 2698,
      "Ġbusiness": 2699,
      "ĠThings": 2700,
      "sent": 2701,
      "Ġrules": 2702,
      "Ġbree": 2703,
      "ĠBro": 2704,
      "Ġbur": 2705,
      "ĠAd": 2706,
      "ĠJe": 2707,
      "Ġpieces": 2708,
      "ĠBob": 2709,
      "Ġsearch": 2710,
      "ged": 2711,
      "Ġsitting": 2712,
      "Ġoutta": 2713,
      "Ġvict": 2714,
      "ding": 2715,
      "Ġleast": 2716,
      "Ġbeauty": 2717,
      "Ġsac": 2718,
      "ĠYo": 2719,
      "ls": 2720,
      "Ġsurprise": 2721,
      "selves": 2722,
      "Ġfavor": 2723,
      "Ġthunder": 2724,
      "ba": 2725,
      "Ġta": 2726,
      "Ġwood": 2727,
      "Ġharm": 2728,
      "Ġslip": 2729,
      "ĠMc": 2730,
      "Ġfate": 2731,
      "ĠCity": 2732,
      "Ġromance": 2733,
      "Ġfigure": 2734,
      "Ġprove": 2735,
      "hhhh": 2736,
      "Ġgrown": 2737,
      "Ġgimme": 2738,
      "pping": 2739,
      "Ġspent": 2740,
      "Ġwonderful": 2741,
      "Ġtele": 2742,
      "ĠBreak": 2743,
      "ĠX": 2744,
      "Ġwand": 2745,
      "aked": 2746,
      "OR": 2747,
      "ĠOld": 2748,
      "Ġsupposed": 2749,
      "Ġboot": 2750,
      "ĠPa": 2751,
      "Ġaut": 2752,
      "Ġaff": 2753,
      "ĠMichael": 2754,
      "ĠEach": 2755,
      "ĠBeen": 2756,
      "bab": 2757,
      "line": 2758,
      "Ġcover": 2759,
      "res": 2760,
      "aint": 2761,
      "Ġfro": 2762,
      "ĠCry": 2763,
      "atin": 2764,
      "Ġgang": 2765,
      "ident": 2766,
      "Ġhello": 2767,
      "Ġearly": 2768,
      "acked": 2769,
      "tered": 2770,
      "Ġreac": 2771,
      "Ġspring": 2772,
      "Ġothers": 2773,
      "Ġhaving": 2774,
      "Ġchains": 2775,
      "bow": 2776,
      "nie": 2777,
      "ĠPr": 2778,
      "Ġbend": 2779,
      "oop": 2780,
      "Ġtest": 2781,
      "ĠMother": 2782,
      "Ġcryin": 2783,
      "Ġfighting": 2784,
      "Ġstronger": 2785,
      "render": 2786,
      "ĠHigh": 2787,
      "Ġseason": 2788,
      "Ġpress": 2789,
      "Ġfolks": 2790,
      "ĠRo": 2791,
      "Ġswing": 2792,
      "Ġcop": 2793,
      "Ġsink": 2794,
      "Ġhappiness": 2795,
      "rd": 2796,
      "acher": 2797,
      "Ġtong": 2798,
      "ĠEn": 2799,
      "Ġlater": 2800,
      "iday": 2801,
      "Ġbone": 2802,
      "Ġbottom": 2803,
      "roll": 2804,
      "ode": 2805,
      "Ġbitches": 2806,
      "ĠWonder": 2807,
      "ither": 2808,
      "ĠBu": 2809,
      "ĠHello": 2810,
      "Ġpour": 2811,
      "Ġjoin": 2812,
      "Ġshort": 2813,
      "Ġgames": 2814,
      "fort": 2815,
      "Ġcares": 2816,
      "ĠHot": 2817,
      "Ġpaid": 2818,
      "ĠCal": 2819,
      "Ġprayer": 2820,
      "Ġmirac": 2821,
      "ĠFa": 2822,
      "Ġenem": 2823,
      "Ġweek": 2824,
      "Ġneck": 2825,
      "Ġlaughing": 2826,
      "Ġwalkin": 2827,
      "ĠWilliam": 2828,
      "ĠInd": 2829,
      "ĠPro": 2830,
      "Ġquestion": 2831,
      "rest": 2832,
      "Ġstate": 2833,
      "ĠMo": 2834,
      "Ġdraw": 2835,
      "ored": 2836,
      "men": 2837,
      "Ġbear": 2838,
      "ĠHead": 2839,
      "Ġtwist": 2840,
      "ĠChan": 2841,
      "Ġsayin": 2842,
      "Ġgrowing": 2843,
      "ĠOoo": 2844,
      "Ġquiet": 2845,
      "ered": 2846,
      "Ġbox": 2847,
      "Ġfinger": 2848,
      "ĠWish": 2849,
      "Ġwave": 2850,
      "Ġmachine": 2851,
      "Ġslipp": 2852,
      "bel": 2853,
      "Ġnone": 2854,
      "ĠGoing": 2855,
      "Ġmessage": 2856,
      "Ġbigg": 2857,
      "ĠKill": 2858,
      "yn": 2859,
      "unch": 2860,
      "Ġship": 2861,
      "ĠRa": 2862,
      "ĠAngel": 2863,
      "Ġbare": 2864,
      "Ġfit": 2865,
      "ron": 2866,
      "ants": 2867,
      "Ġremind": 2868,
      "ĠPret": 2869,
      "It": 2870,
      "Ġgarden": 2871,
      "ĠLast": 2872,
      "esh": 2873,
      "Ġfix": 2874,
      "Ġglow": 2875,
      "onesome": 2876,
      "liness": 2877,
      "Ġtough": 2878,
      "iting": 2879,
      "ĠDidn": 2880,
      "oah": 2881,
      "Ġpen": 2882,
      "Ġhy": 2883,
      "hile": 2884,
      "gain": 2885,
      "Ġsteel": 2886,
      "ĠCount": 2887,
      "ppin": 2888,
      "phone": 2889,
      "US": 2890,
      "ĠTra": 2891,
      "Ġought": 2892,
      "Ġdrunk": 2893,
      "Ġdriving": 2894,
      "Til": 2895,
      "ĠTV": 2896,
      "Ġpassed": 2897,
      "Ġfe": 2898,
      "Ġinnoc": 2899,
      "Ġdrum": 2900,
      "ĠSeems": 2901,
      "Ġsilent": 2902,
      "ighb": 2903,
      "Ġshoulder": 2904,
      "Ġacc": 2905,
      "Ġbones": 2906,
      "Ġconc": 2907,
      "Ġdistance": 2908,
      "Ġsearching": 2909,
      "Ġign": 2910,
      "Ġlos": 2911,
      "ĠHas": 2912,
      "ĠHang": 2913,
      "ĠStanding": 2914,
      "ĠHoly": 2915,
      "Ġspot": 2916,
      "Ġraise": 2917,
      "Ġkilling": 2918,
      "ground": 2919,
      "ye": 2920,
      "Ġmakin": 2921,
      "Ġcup": 2922,
      "Ġjud": 2923,
      "elly": 2924,
      "Ġbought": 2925,
      "ĠGeorge": 2926,
      "ĠWar": 2927,
      "Ġrolling": 2928,
      "oth": 2929,
      "Ġlifet": 2930,
      "ala": 2931,
      "Ġcalls": 2932,
      "Ġdisappear": 2933,
      "Ġdire": 2934,
      "rop": 2935,
      "Ġsugar": 2936,
      "ĠGoodbye": 2937,
      "gie": 2938,
      "leep": 2939,
      "aced": 2940,
      "Ġanywhere": 2941,
      "Ġcomplete": 2942,
      "Ġlifetime": 2943,
      "Ġvoices": 2944,
      "Ġendless": 2945,
      "Ġadd": 2946,
      "Ġpleasure": 2947,
      "Ġmystery": 2948,
      "Ġpack": 2949,
      "Ġkissed": 2950,
      "lew": 2951,
      "Ġswim": 2952,
      "ĠBeaut": 2953,
      "Ġpath": 2954,
      "cho": 2955,
      "Ġbeginning": 2956,
      "Ġmur": 2957,
      "ĠTen": 2958,
      "Ġsub": 2959,
      "Ġgrass": 2960,
      "Ġbeneath": 2961,
      "ĠLive": 2962,
      "aus": 2963,
      "Ġgrand": 2964,
      "ator": 2965,
      "ceive": 2966,
      "Ġseven": 2967,
      "ĠChild": 2968,
      "ĠChar": 2969,
      "Ġgives": 2970,
      "Ġbelow": 2971,
      "denly": 2972,
      "Ġgentle": 2973,
      "Ġpark": 2974,
      "Ġfort": 2975,
      "Ġmountains": 2976,
      "Ġage": 2977,
      "we": 2978,
      "Ġdime": 2979,
      "Ġdrug": 2980,
      "Ġshines": 2981,
      "do": 2982,
      "ĠYa": 2983,
      "ĠFrank": 2984,
      "ĠPh": 2985,
      "ĠSave": 2986,
      "Ġhungry": 2987,
      "itc": 2988,
      "Ġmovin": 2989,
      "Ġdouble": 2990,
      "ĠWilliams": 2991,
      "alous": 2992,
      "Ġinf": 2993,
      "the": 2994,
      "Ġeas": 2995,
      "Ġdollar": 2996,
      "sed": 2997,
      "ĠCr": 2998,
      "ĠSomeday": 2999,
      "Ġprison": 3000,
      "Ġpassing": 3001,
      "sy": 3002,
      "ided": 3003,
      "ics": 3004,
      "Ġfra": 3005,
      "Ġinstead": 3006,
      "Ġprecious": 3007,
      "bles": 3008,
      "Ġbri": 3009,
      "ĠFight": 3010,
      "ĠSoon": 3011,
      "Ġlaid": 3012,
      "Ġdeny": 3013,
      "--": 3014,
      "Ġneighb": 3015,
      "Ġstupid": 3016,
      "ĠPo": 3017,
      "Ġposs": 3018,
      "ĠPer": 3019,
      "Ġcries": 3020,
      "aturday": 3021,
      "Ġescape": 3022,
      "Ġbirds": 3023,
      "Ġtea": 3024,
      "ĠDance": 3025,
      "Ġarm": 3026,
      "het": 3027,
      "Ġbust": 3028,
      "ĠMaking": 3029,
      "ĠMakes": 3030,
      "ĠMusic": 3031,
      "alley": 3032,
      "Ġspark": 3033,
      "Ġhurry": 3034,
      "Ġty": 3035,
      "urch": 3036,
      "ĠJones": 3037,
      "Ġbreeze": 3038,
      "Ġpassion": 3039,
      "Ġthr": 3040,
      "ĠLost": 3041,
      "Ġtune": 3042,
      "Ġnah": 3043,
      "Ġsouth": 3044,
      "Ġpus": 3045,
      "Ġclass": 3046,
      "Ġcloud": 3047,
      "Ġsuff": 3048,
      "Ġbrown": 3049,
      "Ġdare": 3050,
      "Ġcree": 3051,
      "din": 3052,
      "Ġlock": 3053,
      "away": 3054,
      "ĠJack": 3055,
      "Ġexpect": 3056,
      "down": 3057,
      "Ġseemed": 3058,
      "Ġbegan": 3059,
      "ĠHallelujah": 3060,
      "Ġcars": 3061,
      "Ġhoo": 3062,
      "Ġstore": 3063,
      "istory": 3064,
      "Ġclock": 3065,
      "Ġbegun": 3066,
      "ames": 3067,
      "Ġplans": 3068,
      "ume": 3069,
      "ĠBoys": 3070,
      "ĠSaturday": 3071,
      "ĠBorn": 3072,
      "Ġmoves": 3073,
      "Ġmi": 3074,
      "Ġlonesome": 3075,
      "Ġfears": 3076,
      "Ġknowing": 3077,
      "ĠFather": 3078,
      "Ġbattle": 3079,
      "Ġ,": 3080,
      "ĠCo": 3081,
      "Ġcolor": 3082,
      "Ġeight": 3083,
      "ĠBar": 3084,
      "ita": 3085,
      "Ġchanges": 3086,
      "Ġmoonlight": 3087,
      "ĠThrow": 3088,
      "ĠWhite": 3089,
      "Ġtongue": 3090,
      "ĠWork": 3091,
      "lebr": 3092,
      "ify": 3093,
      "Ġperson": 3094,
      "Ġlikes": 3095,
      "Ġroses": 3096,
      "Ġchill": 3097,
      "Ġwound": 3098,
      "Ġtow": 3099,
      "Ġproblem": 3100,
      "ili": 3101,
      "Ġsounds": 3102,
      "uly": 3103,
      "Ġtaught": 3104,
      "ĠFre": 3105,
      "ĠPull": 3106,
      "Ġchair": 3107,
      "vel": 3108,
      "Ġstrang": 3109,
      "ĠPar": 3110,
      "rence": 3111,
      "Ġflesh": 3112,
      "Ġsaved": 3113,
      "ns": 3114,
      "Ġer": 3115,
      "Ġsurrender": 3116,
      "iole": 3117,
      "ges": 3118,
      "Don": 3119,
      "Ġpill": 3120,
      "ĠWanna": 3121,
      "Ġtells": 3122,
      "Ġguns": 3123,
      "ashing": 3124,
      "ĠBrown": 3125,
      "Ġchoice": 3126,
      "ĠHappy": 3127,
      "bably": 3128,
      "Ġfame": 3129,
      "ĠMade": 3130,
      "Ġstole": 3131,
      "ĠThought": 3132,
      "Ġburned": 3133,
      "Ġladies": 3134,
      "Ġkisses": 3135,
      "ience": 3136,
      "ined": 3137,
      "Ġdumb": 3138,
      "well": 3139,
      "Ġinc": 3140,
      "Ġsatisfied": 3141,
      "Ġspread": 3142,
      "Ġvision": 3143,
      "ucked": 3144,
      "ĠSend": 3145,
      "Ġboat": 3146,
      "yin": 3147,
      "Ġwet": 3148,
      "ĠWest": 3149,
      "Ġasleep": 3150,
      "Ġharder": 3151,
      "Ġhoes": 3152,
      "ĠLady": 3153,
      "Ġhorse": 3154,
      "sc": 3155,
      "Ġstring": 3156,
      "Ġtrip": 3157,
      "Ġmisery": 3158,
      "Ġgrows": 3159,
      "Ġboom": 3160,
      "Ġcor": 3161,
      "Ġdoctor": 3162,
      "ĠFree": 3163,
      "ĠDa": 3164,
      "Ġbreaks": 3165,
      "iforn": 3166,
      "Ġfish": 3167,
      "Ġunk": 3168,
      "ĠMoney": 3169,
      "ĠKn": 3170,
      "Ġtwenty": 3171,
      "Ġfever": 3172,
      "ĠFirst": 3173,
      "lectric": 3174,
      "Ġmovie": 3175,
      "Ġcruel": 3176,
      "Ġdreamed": 3177,
      "ĠHolly": 3178,
      "Ġbuilt": 3179,
      "ĠVan": 3180,
      "Ġgener": 3181,
      "sp": 3182,
      "Ġver": 3183,
      "ention": 3184,
      "Ġolder": 3185,
      "hhh": 3186,
      "Ġcreat": 3187,
      "Ġscreaming": 3188,
      "ĠBelieve": 3189,
      "Ġbeer": 3190,
      "Ġdirt": 3191,
      "atic": 3192,
      "eeth": 3193,
      "Ġlaughter": 3194,
      "Ġlean": 3195,
      "ĠHit": 3196,
      "Ġcomfort": 3197,
      "Ġheads": 3198,
      "Ġasking": 3199,
      "ĠFeeling": 3200,
      "Ġid": 3201,
      "Ġsle": 3202,
      "Ġcertain": 3203,
      "Ġwrote": 3204,
      "so": 3205,
      "Ġmornin": 3206,
      "Ġyellow": 3207,
      "Ġcoff": 3208,
      "Ġsud": 3209,
      "ball": 3210,
      "ĠBrother": 3211,
      "Ġfavorite": 3212,
      "Ġhid": 3213,
      "rapped": 3214,
      "Ġclown": 3215,
      "Ġdick": 3216,
      "Ġhood": 3217,
      "Ġdrag": 3218,
      "ĠRunning": 3219,
      "Ġruns": 3220,
      "Ġsweat": 3221,
      "ĠStar": 3222,
      "eter": 3223,
      "Ġev": 3224,
      "Ġwaited": 3225,
      "Ġspeed": 3226,
      "ingle": 3227,
      "action": 3228,
      "ured": 3229,
      "Ġsmok": 3230,
      "zen": 3231,
      "ĠJo": 3232,
      "ifornia": 3233,
      "ved": 3234,
      "ters": 3235,
      "Ġtroubles": 3236,
      "Bridge": 3237,
      "uts": 3238,
      "ĠJacks": 3239,
      "Ġchick": 3240,
      "full": 3241,
      "Ġwaitin": 3242,
      "Ġtoy": 3243,
      "ĠNeed": 3244,
      "ĠFar": 3245,
      "Ġwash": 3246,
      "Ġrising": 3247,
      "allow": 3248,
      "Ġsouls": 3249,
      "Ġrockin": 3250,
      "ka": 3251,
      "razy": 3252,
      "ĠRea": 3253,
      "cross": 3254,
      "vation": 3255,
      "ĠCold": 3256,
      "Ġdeserve": 3257,
      "Ġir": 3258,
      "Ġtable": 3259,
      "Ġcre": 3260,
      "Ġfallin": 3261,
      "Hook": 3262,
      "Ġhistory": 3263,
      "Ġdesert": 3264,
      "Ġart": 3265,
      "Ġow": 3266,
      "Ġnine": 3267,
      "Ġchee": 3268,
      "ĠClose": 3269,
      "Ġye": 3270,
      "Ġcost": 3271,
      "Ġmeaning": 3272,
      "though": 3273,
      "Ġfools": 3274,
      "bl": 3275,
      "uation": 3276,
      "ĠTod": 3277,
      "Ġlocked": 3278,
      "icken": 3279,
      "Yeah": 3280,
      "Ġsigh": 3281,
      "ourney": 3282,
      "Ġstopped": 3283,
      "Ġreasons": 3284,
      "Ġchanging": 3285,
      "ced": 3286,
      "ĠLone": 3287,
      "Ġrub": 3288,
      "HOR": 3289,
      "Ġbitter": 3290,
      "Ġbegins": 3291,
      "orth": 3292,
      "ĠRain": 3293,
      "ĠStr": 3294,
      "Ġplayin": 3295,
      "Ġcouple": 3296,
      "ĠGimme": 3297,
      "Ġdoors": 3298,
      "Ġchurch": 3299,
      "ĠGuess": 3300,
      "Ġgi": 3301,
      "Ġamaz": 3302,
      "ussy": 3303,
      "ĠHand": 3304,
      "HORUS": 3305,
      "set": 3306,
      "Ġfood": 3307,
      "ĠJoe": 3308,
      "ĠInside": 3309,
      "Ġfail": 3310,
      "ider": 3311,
      "ĠMove": 3312,
      "Ġvalley": 3313,
      "airs": 3314,
      "heart": 3315,
      "Ġmissed": 3316,
      "Ġment": 3317,
      "Ġhappens": 3318,
      "Ġwheels": 3319,
      "Ġdestiny": 3320,
      "vior": 3321,
      "Ġdiamond": 3322,
      "oken": 3323,
      "zz": 3324,
      "Ġsang": 3325,
      "The": 3326,
      "uce": 3327,
      "Ġbrave": 3328,
      "ĠAgain": 3329,
      "ĠHill": 3330,
      "ief": 3331,
      "Ġrollin": 3332,
      "Ġdisc": 3333,
      "What": 3334,
      "lla": 3335,
      "Ġdad": 3336,
      "Ġind": 3337,
      "Ġwaves": 3338,
      "Ġbite": 3339,
      "Ġthin": 3340,
      "Ġweight": 3341,
      "Ġworse": 3342,
      "ĠWatching": 3343,
      "gr": 3344,
      "Ġtouched": 3345,
      "Ġpromised": 3346,
      "hood": 3347,
      "Ġwise": 3348,
      "ĠPart": 3349,
      "Ġadv": 3350,
      "Ġban": 3351,
      "Ġease": 3352,
      "Ġknife": 3353,
      "for": 3354,
      "ĠAb": 3355,
      "ĠToday": 3356,
      "Ġcook": 3357,
      "Ġpound": 3358,
      "ĠSet": 3359,
      "ĠShake": 3360,
      "Ġdressed": 3361,
      "Ġwatched": 3362,
      "Ġwoke": 3363,
      "ĠMust": 3364,
      "Ġteach": 3365,
      "ĠWalking": 3366,
      "ĠHollywood": 3367,
      "ĠBeautiful": 3368,
      "Ġteeth": 3369,
      "Ġchorus": 3370,
      "Ġcapt": 3371,
      "ĠForget": 3372,
      "Ġrainbow": 3373,
      "ĠAnything": 3374,
      "Ġrum": 3375,
      "Ġreality": 3376,
      "ising": 3377,
      "Ġnumb": 3378,
      "Ġko": 3379,
      "aret": 3380,
      "Ġslave": 3381,
      "ĠBand": 3382,
      "Ġseeing": 3383,
      "Ġrush": 3384,
      "Ġtruck": 3385,
      "Ġmerry": 3386,
      "Ġburns": 3387,
      "vous": 3388,
      "Ġgas": 3389,
      "Ġfantasy": 3390,
      "ĠFaith": 3391,
      "itude": 3392,
      "Ġpaint": 3393,
      "Ġguys": 3394,
      "Ġwest": 3395,
      "Ġlets": 3396,
      "Ġwinds": 3397,
      "Ġmed": 3398,
      "Ġinv": 3399,
      "Ġfinal": 3400,
      "ĠPop": 3401,
      "Ġblows": 3402,
      "Ġdev": 3403,
      "Ġdeeper": 3404,
      "Ġriding": 3405,
      "Ġmaster": 3406,
      "ĠBilly": 3407,
      "ilty": 3408,
      "ĠStart": 3409,
      "Ġguide": 3410,
      "Ġtide": 3411,
      "Ġmas": 3412,
      "Ġgri": 3413,
      "ining": 3414,
      "Ġbou": 3415,
      "Ġcig": 3416,
      "Ġchose": 3417,
      "Ġkeeping": 3418,
      "Ġsmiling": 3419,
      "ĠMid": 3420,
      "ĠDanc": 3421,
      "Ġbeating": 3422,
      "Ġrule": 3423,
      "ĠCalifornia": 3424,
      "Ġlang": 3425,
      "ased": 3426,
      "ĠDamn": 3427,
      "ject": 3428,
      "Ġcrown": 3429,
      "ĠJackson": 3430,
      "Ġtick": 3431,
      "ĠGirls": 3432,
      "Ġol": 3433,
      "Ġshouldn": 3434,
      "Ġemotion": 3435,
      "Ġsecrets": 3436,
      "yl": 3437,
      "ĠWake": 3438,
      "ages": 3439,
      "Ġju": 3440,
      "beat": 3441,
      "Ġcolors": 3442,
      "ĠComing": 3443,
      "volution": 3444,
      "ya": 3445,
      "Ġvis": 3446,
      "Ġsurely": 3447,
      "Ġwondering": 3448,
      "kets": 3449,
      "Ġvain": 3450,
      "ti": 3451,
      "Ġfur": 3452,
      "Ġminds": 3453,
      "ĠBad": 3454,
      "Ġsees": 3455,
      "Ġclosed": 3456,
      "aine": 3457,
      "yes": 3458,
      "Ġleavin": 3459,
      "Ġpulled": 3460,
      "??": 3461,
      "ĠSuch": 3462,
      "Ġdifference": 3463,
      "Ġjail": 3464,
      "Ġnose": 3465,
      "Ġrap": 3466,
      "Ġseat": 3467,
      "ĠRepeat": 3468,
      "Ġgrey": 3469,
      "Ġmelody": 3470,
      "Ġrough": 3471,
      "Ġdisgu": 3472,
      "Ġforgotten": 3473,
      "Ġwoo": 3474,
      "ĠSummer": 3475,
      "ĠGreen": 3476,
      "Ġthinks": 3477,
      "Ġprobably": 3478,
      "ĠThank": 3479,
      "lter": 3480,
      "Ġstage": 3481,
      "ĠHop": 3482,
      "Ġshop": 3483,
      "ĠSim": 3484,
      "Ġhonest": 3485,
      "Ġhiding": 3486,
      "ette": 3487,
      "ĠHome": 3488,
      "Ġpocket": 3489,
      "Ġtu": 3490,
      "Ġtic": 3491,
      "ille": 3492,
      "Ġworship": 3493,
      "ĠHank": 3494,
      "ĠDis": 3495,
      "Ġplain": 3496,
      "Ġdaughter": 3497,
      "Ġwasted": 3498,
      "ures": 3499,
      "Ġquit": 3500,
      "ĠSpring": 3501,
      "Ġadore": 3502,
      "Ġpromises": 3503,
      "Ġmiracle": 3504,
      "par": 3505,
      "Ġdies": 3506,
      "eeze": 3507,
      "Ġcent": 3508,
      "ĠHolding": 3509,
      "Ġcelebr": 3510,
      "xic": 3511,
      "Ġweep": 3512,
      "ĠMem": 3513,
      "ĠWere": 3514,
      "Ġfo": 3515,
      "ities": 3516,
      "Ġwed": 3517,
      "Ġholiday": 3518,
      "Ġpure": 3519,
      "Ġsurround": 3520,
      "Ġopened": 3521,
      "ĠSleep": 3522,
      "ĠTou": 3523,
      "Ġdiamonds": 3524,
      "HE": 3525,
      "Ġmod": 3526,
      "ĠSon": 3527,
      "com": 3528,
      "ĠSat": 3529,
      "Ġrecord": 3530,
      "ocked": 3531,
      "ancy": 3532,
      "Ġsi": 3533,
      "ĠRay": 3534,
      "overed": 3535,
      "ĠCole": 3536,
      "joy": 3537,
      "Ġfake": 3538,
      "odies": 3539,
      "ĠStreet": 3540,
      "Ġmoved": 3541,
      "iana": 3542,
      "Ġbusy": 3543,
      "Ġnation": 3544,
      "ĠDead": 3545,
      "Ġcash": 3546,
      "ĠDes": 3547,
      "ĠDav": 3548,
      "Ġstands": 3549,
      "Ġrecall": 3550,
      "ai": 3551,
      "Ġthro": 3552,
      "acing": 3553,
      "ĠThree": 3554,
      "Ġprote": 3555,
      "Ġmonkey": 3556,
      "ĠYea": 3557,
      "Ġnoise": 3558,
      "vo": 3559,
      "Ġnature": 3560,
      "ĠSure": 3561,
      "Ġears": 3562,
      "Ġ9": 3563,
      "Ġmood": 3564,
      "ĠTogether": 3565,
      "olog": 3566,
      "Ġending": 3567,
      "Ġspinning": 3568,
      "Ġtha": 3569,
      "Ġchase": 3570,
      "Ġbrothers": 3571,
      "va": 3572,
      "ĠSlow": 3573,
      "Ġlegs": 3574,
      "ĠDarling": 3575,
      "Ġpos": 3576,
      "Ġfallen": 3577,
      "Ġbill": 3578,
      "ĠMad": 3579,
      "Ġanim": 3580,
      "ĠLeft": 3581,
      "Ġmomma": 3582,
      "No": 3583,
      "Ġwalks": 3584,
      "ĠVerse": 3585,
      "And": 3586,
      "Ġeh": 3587,
      "ica": 3588,
      "Ġtelephone": 3589,
      "ient": 3590,
      "ending": 3591,
      "Ġrocks": 3592,
      "ĠWords": 3593,
      "Ġproblems": 3594,
      "Ġbay": 3595,
      "aker": 3596,
      "ĠWhenever": 3597,
      "asting": 3598,
      "Ġcheap": 3599,
      "ĠFalling": 3600,
      "Ġchest": 3601,
      "ĠJud": 3602,
      "Ġlistening": 3603,
      "Ġay": 3604,
      "Ġkilled": 3605,
      "Ġfaster": 3606,
      "ĠSouth": 3607,
      "Ġlots": 3608,
      "aim": 3609,
      "Ġdam": 3610,
      "ĠBlood": 3611,
      "ipe": 3612,
      "Ġtil": 3613,
      "ĠTheir": 3614,
      "ĠNick": 3615,
      "Ġflower": 3616,
      "Ġgift": 3617,
      "ĠAw": 3618,
      "Ġbreathing": 3619,
      "Ġfields": 3620,
      "break": 3621,
      "Ġtakin": 3622,
      "riday": 3623,
      "fection": 3624,
      "Ġbutter": 3625,
      "Ġgray": 3626,
      "Ġremain": 3627,
      "ĠGrand": 3628,
      "Ġfading": 3629,
      "actly": 3630,
      "Ġenemy": 3631,
      "ading": 3632,
      "ĠGone": 3633,
      "ĠFollow": 3634,
      "roy": 3635,
      "Ġcallin": 3636,
      "dd": 3637,
      "Ġner": 3638,
      "andy": 3639,
      "ĠWelcome": 3640,
      "Ġloneliness": 3641,
      "Ġdisco": 3642,
      "Ġ19": 3643,
      "Ġjealous": 3644,
      "IN": 3645,
      "ners": 3646,
      "ĠHope": 3647,
      "ĠJames": 3648,
      "ĠEarth": 3649,
      "empt": 3650,
      "Ġmatters": 3651,
      "pa": 3652,
      "Ġbridge": 3653,
      "ĠTalking": 3654,
      "Ġstream": 3655,
      "Ġcompany": 3656,
      "Ġcourse": 3657,
      "Ġgal": 3658,
      "ĠJump": 3659,
      "ĠPeace": 3660,
      "Ġanswers": 3661,
      "Ġcowboy": 3662,
      "Pre": 3663,
      "aze": 3664,
      "ually": 3665,
      "Ġmil": 3666,
      "repeat": 3667,
      "Ġworst": 3668,
      "Ġplane": 3669,
      "Ġpussy": 3670,
      "Ġwelcome": 3671,
      "Ġext": 3672,
      "Ġdecide": 3673,
      "Ġtale": 3674,
      "Ġfi": 3675,
      "Ġnatur": 3676,
      "Ġheartache": 3677,
      "till": 3678,
      "Ġoften": 3679,
      "Ġbelieved": 3680,
      "Ġcrawl": 3681,
      "Ġfright": 3682,
      "Ġourselves": 3683,
      "Ġcandle": 3684,
      ".)": 3685,
      "In": 3686,
      "Ġ6": 3687,
      "Ġfucked": 3688,
      "Ġinter": 3689,
      "ĠSur": 3690,
      "Ġlied": 3691,
      "road": 3692,
      "Ġgreatest": 3693,
      "itchen": 3694,
      "Ġstories": 3695,
      "Ġbeats": 3696,
      "Ġrespect": 3697,
      "Ġbomb": 3698,
      "Ġca": 3699,
      "ogn": 3700,
      "ĠCheck": 3701,
      "Ġtorn": 3702,
      "gs": 3703,
      "arter": 3704,
      "ĠCut": 3705,
      "stant": 3706,
      "Ġexp": 3707,
      "ĠDeath": 3708,
      "ĠAmerican": 3709,
      "Ġimagine": 3710,
      "Ġseek": 3711,
      "Ġpoison": 3712,
      "Ġquestions": 3713,
      "Ġele": 3714,
      "Ġmistakes": 3715,
      "Hey": 3716,
      "Ġmotion": 3717,
      "ĠDavid": 3718,
      "Ġton": 3719,
      "Ġled": 3720,
      "Ġooo": 3721,
      "ĠDel": 3722,
      "ricks": 3723,
      "Ġcell": 3724,
      "ĠDan": 3725,
      "Ġflight": 3726,
      "ĠSinging": 3727,
      "Ġcoffee": 3728,
      "Ġmile": 3729,
      "ĠCle": 3730,
      "sta": 3731,
      "Ġshows": 3732,
      "Ġtied": 3733,
      "aches": 3734,
      "ĠHard": 3735,
      "Ġboss": 3736,
      "Ġfresh": 3737,
      "ĠMom": 3738,
      "ĠPick": 3739,
      "Ġwindows": 3740,
      "Ġtype": 3741,
      "ĠLouis": 3742,
      "Ġbirthday": 3743,
      "Ġvictim": 3744,
      "Ġthee": 3745,
      "utes": 3746,
      "ĠOff": 3747,
      "Ġpictures": 3748,
      "Ġgrab": 3749,
      "ĠTomorrow": 3750,
      "Ġbum": 3751,
      "Ġembr": 3752,
      "Ġsoldier": 3753,
      "Ġdisguise": 3754,
      "ĠWr": 3755,
      "ĠMight": 3756,
      "ĠFriday": 3757,
      "Ġswallow": 3758,
      "inc": 3759,
      "Ġrow": 3760,
      "ĠReal": 3761,
      "ressed": 3762,
      "Ġdesper": 3763,
      "ggy": 3764,
      "Ġjudge": 3765,
      "Ġhoping": 3766,
      "ĠAlright": 3767,
      "bird": 3768,
      "ĠEnd": 3769,
      "Ġtreasure": 3770,
      "ara": 3771,
      "ĠTook": 3772,
      "Ġspl": 3773,
      "Ġdirection": 3774,
      "Ġmurder": 3775,
      "Th": 3776,
      "Ġnames": 3777,
      "Ġdangerous": 3778,
      "fly": 3779,
      "Ġbread": 3780,
      "Ġmonth": 3781,
      "Ġfortune": 3782,
      "Ġkitchen": 3783,
      "ĠBang": 3784,
      "Ġholds": 3785,
      "Ġsings": 3786,
      "sit": 3787,
      "ished": 3788,
      "ĠSn": 3789,
      "ĠNat": 3790,
      "Ġfoolish": 3791,
      "ĠPaul": 3792,
      "Ġstrangers": 3793,
      "Ġsittin": 3794,
      "ĠWhich": 3795,
      "Ġwire": 3796,
      "Ġnaked": 3797,
      "ĠBon": 3798,
      "Ġstayed": 3799,
      "Ġchamp": 3800,
      "Ġresist": 3801,
      "ĠTaking": 3802,
      "Ġham": 3803,
      "ĠEveryday": 3804,
      "Ġguilty": 3805,
      "Ġeternity": 3806,
      "Ġmarried": 3807,
      "Ġdivine": 3808,
      "Ġdin": 3809,
      "astic": 3810,
      "ondon": 3811,
      "Ġdancin": 3812,
      "Ġawhile": 3813,
      "ĠCol": 3814,
      "Ġaint": 3815,
      "Ġbullet": 3816,
      "gy": 3817,
      "eless": 3818,
      "Ġshar": 3819,
      "ĠDrink": 3820,
      "Ġbother": 3821,
      "Ġunf": 3822,
      "zzy": 3823,
      "Ġbump": 3824,
      "Ġdesp": 3825,
      "ords": 3826,
      "Ġhills": 3827,
      "place": 3828,
      "ĠClaus": 3829,
      "ien": 3830,
      "Ġeng": 3831,
      "Ġconfess": 3832,
      "Ġcigaret": 3833,
      "Ġwicked": 3834,
      "reck": 3835,
      "itz": 3836,
      "Ġhom": 3837,
      "Ġplays": 3838,
      "Ġadmit": 3839,
      "Ġsigns": 3840,
      "ĠJimmy": 3841,
      "Ġpage": 3842,
      "ucci": 3843,
      "Ġattack": 3844,
      "zing": 3845,
      "Ġmix": 3846,
      "ĠFace": 3847,
      "ĠKelly": 3848,
      "ĠStraight": 3849,
      "Ġbigger": 3850,
      "Ġaction": 3851,
      "Ġbeach": 3852,
      "ĠNigga": 3853,
      "Ġsacrif": 3854,
      "Ġpity": 3855,
      "ĠSear": 3856,
      "ety": 3857,
      "ĠBa": 3858,
      "ĠBre": 3859,
      "Ġunt": 3860,
      "ĠFill": 3861,
      "ives": 3862,
      "Ġpresent": 3863,
      "Ġgrew": 3864,
      "umbling": 3865,
      "Ġtravel": 3866,
      "Ġpot": 3867,
      "raph": 3868,
      "ĠShine": 3869,
      "ĠGetting": 3870,
      "Ġwishing": 3871,
      "Ġobs": 3872,
      "ram": 3873,
      "Ġroam": 3874,
      "Ġflies": 3875,
      "Ġblessed": 3876,
      "We": 3877,
      "ders": 3878,
      "Ġstation": 3879,
      "Ġjok": 3880,
      "ified": 3881,
      "order": 3882,
      "Ġdrinking": 3883,
      "Ġjeans": 3884,
      "back": 3885,
      "Ġrings": 3886,
      "ĠBeat": 3887,
      "Ġdistant": 3888,
      "Ġmic": 3889,
      "Ġcro": 3890,
      "ĠHur": 3891,
      "Ġisland": 3892,
      "ĠBetween": 3893,
      "ĠMonday": 3894,
      "Ġgroove": 3895,
      "Ġka": 3896,
      "')": 3897,
      "jo": 3898,
      "Ġshy": 3899,
      "ĠKenny": 3900,
      "ĠPretty": 3901,
      "oned": 3902,
      "ĠMag": 3903,
      "hered": 3904,
      "ucky": 3905,
      "Ġattention": 3906,
      "abb": 3907,
      "Ġtie": 3908,
      "ites": 3909,
      "ĠCool": 3910,
      "Ġjourney": 3911,
      "Ġletting": 3912,
      "Ġcher": 3913,
      "Ġpan": 3914,
      "Ġflash": 3915,
      "Ġuniver": 3916,
      "Ġstrugg": 3917,
      "ĠStep": 3918,
      "nown": 3919,
      "ada": 3920,
      "Ġslide": 3921,
      "Ġdogs": 3922,
      "ĠCarry": 3923,
      "don": 3924,
      "son": 3925,
      "Ġunderneath": 3926,
      "OU": 3927,
      "mare": 3928,
      "ĠAway": 3929,
      "Ġholl": 3930,
      "Ġclaim": 3931,
      "ĠKid": 3932,
      "Ġblowing": 3933,
      "ĠNext": 3934,
      "ĠPass": 3935,
      "Ġsituation": 3936,
      "rs": 3937,
      "Ġcalm": 3938,
      "Ġwritten": 3939,
      "Ġcoast": 3940,
      "Ġyouth": 3941,
      "ĠMet": 3942,
      "Ġlightning": 3943,
      "Ġsmiles": 3944,
      "Ġhardly": 3945,
      "ĠThinking": 3946,
      "Ġticket": 3947,
      "yps": 3948,
      "ĠRob": 3949,
      "Ġunc": 3950,
      "ĠElvis": 3951,
      "ĠEng": 3952,
      "ER": 3953,
      "Ġsilly": 3954,
      "Ġweary": 3955,
      "ĠLondon": 3956,
      "romise": 3957,
      "Ġbuck": 3958,
      "kend": 3959,
      "Ġjam": 3960,
      "Ġchicken": 3961,
      "ĠFeels": 3962,
      "Ġinnocent": 3963,
      "fully": 3964,
      "Ġexactly": 3965,
      "ments": 3966,
      "oint": 3967,
      "Ġfist": 3968,
      "ĠMmm": 3969,
      "stood": 3970,
      "Ġarri": 3971,
      "Ġsingin": 3972,
      "Ġhopes": 3973,
      "ere": 3974,
      "yo": 3975,
      "ĠGreat": 3976,
      "Ġdarkest": 3977,
      "Ġcandy": 3978,
      "Ġpump": 3979,
      "Ġtruly": 3980,
      "Ġwarning": 3981,
      "ĠGoin": 3982,
      "lon": 3983,
      "Ġling": 3984,
      "Ġthrew": 3985,
      "ĠWhis": 3986,
      "Ġgirlfriend": 3987,
      "Ġsadness": 3988,
      "Ġcircle": 3989,
      "Ġweed": 3990,
      "anity": 3991,
      "Ġheartbeat": 3992,
      "Ġpin": 3993,
      "Ġthroat": 3994,
      "ĠBab": 3995,
      "ĠCHORUS": 3996,
      "ĠAlthough": 3997,
      "ĠChildren": 3998,
      "asc": 3999,
      "aded": 4000,
      "Ġwhist": 4001,
      "ĠAlab": 4002,
      "ipping": 4003,
      "Ġpolice": 4004,
      "Ġcure": 4005,
      "Ġcard": 4006,
      "Ġpu": 4007,
      "ĠRide": 4008,
      "Ġflag": 4009,
      "ately": 4010,
      "Ġaffair": 4011,
      "ium": 4012,
      "ĠHum": 4013,
      "ĠDiam": 4014,
      "Ġspit": 4015,
      "Ġsuddenly": 4016,
      "mon": 4017,
      "ino": 4018,
      "ĠDear": 4019,
      "ĠSmith": 4020,
      "mes": 4021,
      "Ġshowed": 4022,
      "Ġwhiskey": 4023,
      "Ġgeneration": 4024,
      "walk": 4025,
      "Ġchances": 4026,
      "Ġconne": 4027,
      "Ġscr": 4028,
      "ĠTex": 4029,
      "Ġbop": 4030,
      "Ġng": 4031,
      "ĠBo": 4032,
      "ĠDen": 4033,
      "Ġamong": 4034,
      "Ġconvers": 4035,
      "ashion": 4036,
      "pper": 4037,
      "Ġdreamin": 4038,
      "Ġhangin": 4039,
      "ĠNeil": 4040,
      "ĠWorld": 4041,
      "ĠDoesn": 4042,
      "ĠPre": 4043,
      "Ġwaters": 4044,
      "Ġtellin": 4045,
      "Ġtail": 4046,
      "Ġsunny": 4047,
      "ungle": 4048,
      "ĠGucci": 4049,
      "Ġringing": 4050,
      "Ġbuilding": 4051,
      "ĠRolling": 4052,
      "Ġflames": 4053,
      "Ġmark": 4054,
      "arant": 4055,
      "ĠTears": 4056,
      "Ġrepeat": 4057,
      "ĠWherever": 4058,
      "Ġmadness": 4059,
      "Ġhunger": 4060,
      "Ġbelieving": 4061,
      "Ġhook": 4062,
      "Ġanger": 4063,
      "Ġgoodnight": 4064,
      "Ġhurting": 4065,
      "play": 4066,
      "Ġmoments": 4067,
      "ival": 4068,
      "came": 4069,
      "hest": 4070,
      "Ġhip": 4071,
      "Ġwherever": 4072,
      "ĠDark": 4073,
      "Ġchrist": 4074,
      "Ġagree": 4075,
      "alt": 4076,
      "ĠFire": 4077,
      "Ġenjoy": 4078,
      "ĠBlow": 4079,
      "Ġwander": 4080,
      "love": 4081,
      "ishing": 4082,
      "ĠWild": 4083,
      "ĠBill": 4084,
      "Ġcards": 4085,
      "Ġmatch": 4086,
      "Ġdate": 4087,
      "Ġhi": 4088,
      "Ġlick": 4089,
      "Ġsteady": 4090,
      "rops": 4091,
      "Ġheavens": 4092,
      "Ġserve": 4093,
      "Ġfought": 4094,
      "ĠBen": 4095,
      "nty": 4096,
      "Ġroof": 4097,
      "Ġhandle": 4098,
      "Ġheaded": 4099,
      "dinary": 4100,
      "Ġminutes": 4101,
      "Ġboots": 4102,
      "ĠLonely": 4103,
      "All": 4104,
      "Ġlil": 4105,
      "ales": 4106,
      "ĠMac": 4107,
      "Ġreve": 4108,
      "ĠLets": 4109,
      "stem": 4110,
      "Ġcoat": 4111,
      "ossible": 4112,
      "noon": 4113,
      "ĠYet": 4114,
      "Ġform": 4115,
      "ĠTryin": 4116,
      "Ġconfused": 4117,
      "ham": 4118,
      "ĠPap": 4119,
      "Ġsettle": 4120,
      "Ġbank": 4121,
      "ĠIll": 4122,
      "ĠMor": 4123,
      "Ġnote": 4124,
      "Ġbee": 4125,
      "ĠAcross": 4126,
      "ushing": 4127,
      "Ġpool": 4128,
      "Ġbeast": 4129,
      "ĠCrazy": 4130,
      "inda": 4131,
      "ĠChris": 4132,
      "Ġsteps": 4133,
      "Ġpet": 4134,
      "ĠSam": 4135,
      "Ġsuit": 4136,
      "Ġphot": 4137,
      "aching": 4138,
      "Ġwanting": 4139,
      "Ġrecogn": 4140,
      "ĠMany": 4141,
      "ypsy": 4142,
      "ĠIsn": 4143,
      "Ġstarting": 4144,
      "ago": 4145,
      "Ġleads": 4146,
      "Ġgain": 4147,
      "ubl": 4148,
      "Ġgreed": 4149,
      "acy": 4150,
      "ĠRiver": 4151,
      "Ġburnin": 4152,
      "ograph": 4153,
      "Ġweekend": 4154,
      "Ġangry": 4155,
      "lor": 4156,
      "hern": 4157,
      "Ġohh": 4158,
      "Ġscars": 4159,
      "Ġwearing": 4160,
      "wty": 4161,
      "ades": 4162,
      "Ġhimself": 4163,
      "Ġtrail": 4164,
      "Ġplanet": 4165,
      "Ġveins": 4166,
      "ĠPri": 4167,
      "Ġrob": 4168,
      "Ġrage": 4169,
      "Ġscar": 4170,
      "tes": 4171,
      "Ġlust": 4172,
      "ĠSitting": 4173,
      "Ġlip": 4174,
      "ened": 4175,
      "Ġweren": 4176,
      "Ġgrind": 4177,
      "Ġkiller": 4178,
      "Ġneighbor": 4179,
      "Ġwreck": 4180,
      "tern": 4181,
      "Ġnightmare": 4182,
      "Ġsmart": 4183,
      "ĠLookin": 4184,
      "Ġrelig": 4185,
      "Ġgrie": 4186,
      "sence": 4187,
      "Ġkissing": 4188,
      "Ġsins": 4189,
      "ville": 4190,
      "Ġsna": 4191,
      "Ġlim": 4192,
      "ooo": 4193,
      "Ġaside": 4194,
      "ĠEverywhere": 4195,
      "Ġembrace": 4196,
      "Ġshat": 4197,
      "ashed": 4198,
      "ĠBurning": 4199,
      "Ġmend": 4200,
      "ression": 4201,
      "ĠKnowing": 4202,
      "ĠBrothers": 4203,
      "hal": 4204,
      "Ġcrossed": 4205,
      "ĠSuper": 4206,
      "orious": 4207,
      "Ġob": 4208,
      "ĠMost": 4209,
      "Ġtrans": 4210,
      "Ġchop": 4211,
      "Ġdepend": 4212,
      "Ġmud": 4213,
      "Ġsevent": 4214,
      "Ġzone": 4215,
      "Ġdigg": 4216,
      "Ġhaun": 4217,
      "outhern": 4218,
      "rage": 4219,
      "Ġdaylight": 4220,
      "Ġscore": 4221,
      "Ġniggaz": 4222,
      "that": 4223,
      "Ġcu": 4224,
      "Ġsens": 4225,
      "Ġhyp": 4226,
      "Ġlamb": 4227,
      "Ġhust": 4228,
      "Ġwont": 4229,
      "ĠTexas": 4230,
      "Let": 4231,
      "adill": 4232,
      "ĠMart": 4233,
      "Ġrot": 4234,
      "Ġwitness": 4235,
      "give": 4236,
      "ĠTear": 4237,
      "Ġpear": 4238,
      "isters": 4239,
      "irgin": 4240,
      "over": 4241,
      "Ġrevolution": 4242,
      "Ġworked": 4243,
      "Ġcurse": 4244,
      "Ġ8": 4245,
      "ĠSqu": 4246,
      "ppy": 4247,
      "anted": 4248,
      "Ġafternoon": 4249,
      "hetto": 4250,
      "ĠDancing": 4251,
      "Ġast": 4252,
      "ĠCare": 4253,
      "ĠMin": 4254,
      "Ġaren": 4255,
      "Ġdanced": 4256,
      "Ġbleeding": 4257,
      "ĠFour": 4258,
      "Ġrail": 4259,
      "Ġlately": 4260,
      "Ġkeys": 4261,
      "Ġuniverse": 4262,
      "ep": 4263,
      "ga": 4264,
      "uit": 4265,
      "ĠSnow": 4266,
      "Ġjoke": 4267,
      "Ġscreen": 4268,
      "udy": 4269,
      "ĠIce": 4270,
      "ĠAng": 4271,
      "Ġbud": 4272,
      "Ġperf": 4273,
      "Ġsoftly": 4274,
      "ĠReally": 4275,
      "ĠLuc": 4276,
      "chor": 4277,
      "ĠPray": 4278,
      "Ġhotel": 4279,
      "ĠScream": 4280,
      "gly": 4281,
      "Ġlull": 4282,
      "ĠSile": 4283,
      "Ġknee": 4284,
      "Ġseas": 4285,
      "Ġpriv": 4286,
      "Ġtempt": 4287,
      "Ġhun": 4288,
      "ĠOooh": 4289,
      "ĠNothin": 4290,
      "Ġremains": 4291,
      "Ġboogie": 4292,
      "Ġpillow": 4293,
      "Ġworried": 4294,
      "ĠSomehow": 4295,
      "Ġchasing": 4296,
      "Ġtoes": 4297,
      "ĠCaught": 4298,
      "Ġdowntown": 4299,
      "ĠJul": 4300,
      "ours": 4301,
      "Ġsmiled": 4302,
      ").": 4303,
      "iers": 4304,
      "pers": 4305,
      "Ġbra": 4306,
      "Ġdat": 4307,
      "ano": 4308,
      "ĠMoon": 4309,
      "ĠDi": 4310,
      "Ġraised": 4311,
      "Ġtryna": 4312,
      "Ġunderground": 4313,
      "iolent": 4314,
      "sion": 4315,
      "Ġpicked": 4316,
      "Ġflat": 4317,
      "Ġfault": 4318,
      "Ġcrash": 4319,
      "Ġworkin": 4320,
      "Ġlesson": 4321,
      "Ġwedding": 4322,
      "Ġsacrifice": 4323,
      "uk": 4324,
      "Ġtun": 4325,
      "icated": 4326,
      "Ġstops": 4327,
      "Ġkingdom": 4328,
      "ĠCalling": 4329,
      "ĠLoving": 4330,
      "That": 4331,
      "born": 4332,
      "Ġaim": 4333,
      "Ġlou": 4334,
      "iced": 4335,
      "ĠOhh": 4336,
      "Ġappear": 4337,
      "gic": 4338,
      "Ġlist": 4339,
      "hamed": 4340,
      "otions": 4341,
      "ĠEv": 4342,
      "Ġresc": 4343,
      "Ġfurther": 4344,
      "ero": 4345,
      "ĠBitch": 4346,
      "ality": 4347,
      "ĠMerry": 4348,
      "Ġshed": 4349,
      "Ġlaug": 4350,
      "Ġshade": 4351,
      "Ġroads": 4352,
      "Ġwriting": 4353,
      "ĠBarb": 4354,
      "Ġgivin": 4355,
      "ule": 4356,
      "Ġmat": 4357,
      "Ġpal": 4358,
      "Ġrainy": 4359,
      "gged": 4360,
      "ĠLead": 4361,
      "Ġmelt": 4362,
      "Ġcircles": 4363,
      "wind": 4364,
      "Ġshared": 4365,
      "Ġdestroy": 4366,
      "ĠGlory": 4367,
      "ari": 4368,
      "Ġliqu": 4369,
      "ĠOK": 4370,
      "ops": 4371,
      "ĠPeter": 4372,
      "Ġashes": 4373,
      "Ġcond": 4374,
      "Ġhappening": 4375,
      "Ġdrove": 4376,
      "Ġcurt": 4377,
      "Ġpor": 4378,
      "Ġeag": 4379,
      "nts": 4380,
      "anda": 4381,
      "ĠHarry": 4382,
      "Ġcheek": 4383,
      "'.": 4384,
      "hold": 4385,
      "Ġdise": 4386,
      "ĠTHE": 4387,
      "Ġdope": 4388,
      "icide": 4389,
      "ĠTrue": 4390,
      "Ġtur": 4391,
      "Ġflows": 4392,
      "ĠAsk": 4393,
      "Ġmission": 4394,
      "ooth": 4395,
      "Ġconfusion": 4396,
      "Ġfrozen": 4397,
      "ral": 4398,
      "Ġbecame": 4399,
      "Ġamazing": 4400,
      "adillac": 4401,
      "gue": 4402,
      "ja": 4403,
      "ĠCy": 4404,
      "eared": 4405,
      "Ġnotice": 4406,
      "af": 4407,
      "Ġdu": 4408,
      "ĠRing": 4409,
      "Ġspoke": 4410,
      "Ġordinary": 4411,
      "Ġshaking": 4412,
      "Ġmetal": 4413,
      "Ġcomplain": 4414,
      "'?": 4415,
      "what": 4416,
      "Ġeast": 4417,
      "Ġallow": 4418,
      "Ġfunk": 4419,
      "Ġmotherfucker": 4420,
      "pes": 4421,
      "Ġwrapped": 4422,
      "ello": 4423,
      "ĠAlone": 4424,
      "Ġhoe": 4425,
      "Ġunknown": 4426,
      "onder": 4427,
      "Ġpraying": 4428,
      "ippin": 4429,
      "rise": 4430,
      "Ġsake": 4431,
      "Ġwilling": 4432,
      "Ġguarant": 4433,
      "Ġbabies": 4434,
      "Ġpressure": 4435,
      "Baby": 4436,
      "Ġly": 4437,
      "Ġthy": 4438,
      "alf": 4439,
      "stru": 4440,
      "Ġwasting": 4441,
      "Ġholdin": 4442,
      "Ġbegging": 4443,
      "Ġstaring": 4444,
      "Ġmotor": 4445,
      "Ġprotect": 4446,
      "Ġblew": 4447,
      "Ġgather": 4448,
      "oria": 4449,
      "Ġoo": 4450,
      "Ġelectric": 4451,
      "ĠJane": 4452,
      "ession": 4453,
      "ĠKe": 4454,
      "Ġconversation": 4455,
      "Ġlit": 4456,
      "ĠRos": 4457,
      "Ġexist": 4458,
      "ĠSpirit": 4459,
      "Ġ7": 4460,
      "Ġpow": 4461,
      "leans": 4462,
      "Ġrat": 4463,
      "Ġimagination": 4464,
      "Ġforce": 4465,
      "Ġreign": 4466,
      "Ġjack": 4467,
      "ifty": 4468,
      "Ġlazy": 4469,
      "Ġdesc": 4470,
      "Ġreached": 4471,
      "pre": 4472,
      "ux": 4473,
      "Ġbars": 4474,
      "ĠWhe": 4475,
      "ateful": 4476,
      "Ġoffer": 4477,
      "ĠBye": 4478,
      "ON": 4479,
      "gia": 4480,
      "just": 4481,
      "ĠInt": 4482,
      "lection": 4483,
      "icious": 4484,
      "ĠGiving": 4485,
      "izon": 4486,
      "ĠCouldn": 4487,
      "Ġlaughed": 4488,
      "Ġmmm": 4489,
      "Ġfed": 4490,
      "ĠGold": 4491,
      "quer": 4492,
      "Ġnamed": 4493,
      "ĠMexic": 4494,
      "Ġsinking": 4495,
      "Ġdrugs": 4496,
      "Ġnatural": 4497,
      "Ġfan": 4498,
      "ĠAround": 4499,
      "Ġpants": 4500,
      "ĠCatch": 4501,
      "ĠDoo": 4502,
      "ĠFriend": 4503,
      "Ġillusion": 4504,
      "Ġ]": 4505,
      "Ġ..": 4506,
      "Ġborder": 4507,
      "Ġcrew": 4508,
      "Ġhesit": 4509,
      "ĠSit": 4510,
      "Ġacting": 4511,
      "ĠLeaving": 4512,
      "ichard": 4513,
      "ĠPlaying": 4514,
      "ĠAlabama": 4515,
      "ĠDem": 4516,
      "Ġblowin": 4517,
      "Ġsleigh": 4518,
      ",\"": 4519,
      "Ġcoc": 4520,
      "Ġpig": 4521,
      "ens": 4522,
      "Ġleather": 4523,
      "Ġsepar": 4524,
      "Ġliar": 4525,
      "utter": 4526,
      "Ġhab": 4527,
      "ĠFin": 4528,
      "Ġshelter": 4529,
      "asty": 4530,
      "venue": 4531,
      "ĠDiamond": 4532,
      "Ġfancy": 4533,
      "Ġcap": 4534,
      "ĠBow": 4535,
      "Ġforty": 4536,
      "Ġjungle": 4537,
      "Ġrivers": 4538,
      "ware": 4539,
      "ĠRichard": 4540,
      "Ġguard": 4541,
      "Ġsucc": 4542,
      "Ġuns": 4543,
      "Ġmarry": 4544,
      "Ġbarely": 4545,
      "eek": 4546,
      "Ġsweetest": 4547,
      "Ġrestless": 4548,
      "duc": 4549,
      "Ġtrick": 4550,
      "Ġheels": 4551,
      "Ġsche": 4552,
      "ĠReady": 4553,
      "ĠKnock": 4554,
      "ĠTouch": 4555,
      "band": 4556,
      "Ġmain": 4557,
      "Ġonto": 4558,
      "ĠSil": 4559,
      "Ġthick": 4560,
      "stal": 4561,
      "Ġshell": 4562,
      "ĠAlice": 4563,
      "Ġbloody": 4564,
      "Ġinsp": 4565,
      "Ġreaching": 4566,
      "Ġhammer": 4567,
      "pet": 4568,
      "Ġlane": 4569,
      "ĠSan": 4570,
      "Ġwaits": 4571,
      "ĠSaying": 4572,
      "ĠDevil": 4573,
      "ĠCarol": 4574,
      "ĠDreams": 4575,
      "Ġdelight": 4576,
      "athy": 4577,
      "icted": 4578,
      "board": 4579,
      "yard": 4580,
      "ints": 4581,
      "Ġwore": 4582,
      "Ġbom": 4583,
      "Ġloc": 4584,
      "ĠThem": 4585,
      "urs": 4586,
      "umn": 4587,
      "Ġlonging": 4588,
      "Ġhits": 4589,
      "Ġwisdom": 4590,
      "hem": 4591,
      "Ġgates": 4592,
      "ĠOk": 4593,
      "aling": 4594,
      "ĠRem": 4595,
      "ular": 4596,
      "cient": 4597,
      "Ġbecomes": 4598,
      "Ġcab": 4599,
      "ĠWoah": 4600,
      "ĠCind": 4601,
      "ĠBehind": 4602,
      "Ġfunky": 4603,
      "girl": 4604,
      "enn": 4605,
      "ĠGen": 4606,
      "ility": 4607,
      "Ġours": 4608,
      "Ġbedroom": 4609,
      "Ġridin": 4610,
      "field": 4611,
      "ians": 4612,
      "Ġcream": 4613,
      "ĠCame": 4614,
      "ĠPain": 4615,
      "ĠKick": 4616,
      "ĠChic": 4617,
      "Ġlearning": 4618,
      "Ġprep": 4619,
      "Ġcommand": 4620,
      "Ġcovered": 4621,
      "Ġopp": 4622,
      "Ġrode": 4623,
      "Ġworlds": 4624,
      "ĠYesterday": 4625,
      "ĠLaugh": 4626,
      "Ġfaithful": 4627,
      "Ġundone": 4628,
      "Ġnervous": 4629,
      "?]": 4630,
      "huh": 4631,
      "oween": 4632,
      "ĠSad": 4633,
      "ĠMeet": 4634,
      "ĠJam": 4635,
      "ĠUsed": 4636,
      "ĠOrleans": 4637,
      "Ġbringing": 4638,
      "Ġhelpless": 4639,
      "Ġplanned": 4640,
      "iest": 4641,
      "Ġgay": 4642,
      "Ġgate": 4643,
      "ĠSound": 4644,
      "Ġimpossible": 4645,
      "ĠPres": 4646,
      "Ġattitude": 4647,
      "Ġmaj": 4648,
      "dges": 4649,
      "lie": 4650,
      "Ġdim": 4651,
      "Ġfare": 4652,
      "ĠApp": 4653,
      "ĠOo": 4654,
      "ĠRome": 4655,
      "nessee": 4656,
      "izz": 4657,
      "Ġmonster": 4658,
      "Ġdisease": 4659,
      "Ġreceive": 4660,
      "ense": 4661,
      "ĠGra": 4662,
      "ĠRound": 4663,
      "Ġvac": 4664,
      "ipped": 4665,
      "got": 4666,
      "pher": 4667,
      "Ġtalked": 4668,
      "Ġsize": 4669,
      "ĠTim": 4670,
      "ĠBol": 4671,
      "ĠInc": 4672,
      "Ġmagaz": 4673,
      "ĠSearching": 4674,
      "aring": 4675,
      "ĠMister": 4676,
      "Ġrent": 4677,
      "ication": 4678,
      "venge": 4679,
      "ledge": 4680,
      "iah": 4681,
      "Ġsir": 4682,
      "ĠSong": 4683,
      "ĠSame": 4684,
      "ĠNor": 4685,
      "ston": 4686,
      "Ġwhose": 4687,
      "Ġstandin": 4688,
      "Ġprop": 4689,
      "Ġplenty": 4690,
      "Ġharmony": 4691,
      "Ġfashion": 4692,
      "Ġreme": 4693,
      "ppers": 4694,
      "thy": 4695,
      "ĠSpeak": 4696,
      "Ġteacher": 4697,
      "Ġfaded": 4698,
      "Ġwol": 4699,
      "ĠEyes": 4700,
      "Ġvi": 4701,
      "Ġdreamer": 4702,
      "ĠImag": 4703,
      "Ġforest": 4704,
      "ĠChange": 4705,
      "ĠFreedom": 4706,
      "Ġiron": 4707,
      "Ġadvice": 4708,
      "ital": 4709,
      "ĠLil": 4710,
      "Ġprayers": 4711,
      "Ġnearly": 4712,
      "Ġbelongs": 4713,
      "Ġrefuse": 4714,
      "ĠGeorgia": 4715,
      "Ġcock": 4716,
      "Ġsword": 4717,
      "Ġsystem": 4718,
      "Ġeasily": 4719,
      "Ġthrone": 4720,
      "\",": 4721,
      "baby": 4722,
      "anish": 4723,
      "Ġshook": 4724,
      "Ġsunlight": 4725,
      "Ġthanks": 4726,
      "Ġsurf": 4727,
      "Ġapple": 4728,
      "Ġgrip": 4729,
      "Ġbase": 4730,
      "Ġhorn": 4731,
      "ĠPur": 4732,
      "Ġworks": 4733,
      "Ġfairy": 4734,
      "Ġtax": 4735,
      "Ġloser": 4736,
      "ko": 4737,
      "Ġbath": 4738,
      "Ġstor": 4739,
      "Ġstom": 4740,
      "ĠCher": 4741,
      "Ġseed": 4742,
      "Ġashamed": 4743,
      "Ġraining": 4744,
      "ĠRef": 4745,
      "Ġheavenly": 4746,
      "Ġcounting": 4747,
      "gun": 4748,
      "Ġfil": 4749,
      "Ġcake": 4750,
      "ĠWoman": 4751,
      "ĠCuz": 4752,
      "ĠLivin": 4753,
      "Ġcareful": 4754,
      "ĠShout": 4755,
      "Ġmister": 4756,
      "tta": 4757,
      "Ġbodies": 4758,
      "Ġnon": 4759,
      "arr": 4760,
      "ĠLift": 4761,
      "Ġugly": 4762,
      "ĠPark": 4763,
      "Ġthang": 4764,
      "Ġcheer": 4765,
      "iction": 4766,
      "Ġshots": 4767,
      "Ġsatisfy": 4768,
      "cher": 4769,
      "ĠWin": 4770,
      "ĠMer": 4771,
      "Ġsailing": 4772,
      "ĠPat": 4773,
      "ĠRel": 4774,
      "Ġblown": 4775,
      "rench": 4776,
      "ĠSimon": 4777,
      "foot": 4778,
      "Ġbas": 4779,
      "Ġni": 4780,
      "icy": 4781,
      "ĠJr": 4782,
      "...)": 4783,
      "Ġ10": 4784,
      "gging": 4785,
      "ract": 4786,
      "Ġque": 4787,
      "Ġtot": 4788,
      "ese": 4789,
      "ril": 4790,
      "ĠCadillac": 4791,
      "istol": 4792,
      "iment": 4793,
      "Ġtrade": 4794,
      "rows": 4795,
      "Ġdollars": 4796,
      "iliar": 4797,
      "vet": 4798,
      "idence": 4799,
      "ĠHalf": 4800,
      "ĠRam": 4801,
      "Ġtracks": 4802,
      "Ġemotions": 4803,
      "Ġbrighter": 4804,
      "Ġfamous": 4805,
      "He": 4806,
      "house": 4807,
      "ii": 4808,
      "Ġwo": 4809,
      "Ġfal": 4810,
      "Ġnin": 4811,
      "ĠBell": 4812,
      "Ġjew": 4813,
      "eam": 4814,
      "ĠFun": 4815,
      "Ġsimply": 4816,
      "Ġsexy": 4817,
      "Ġteam": 4818,
      "Ġhidden": 4819,
      "rible": 4820,
      "Ġcomb": 4821,
      "Ġsmooth": 4822,
      "dered": 4823,
      "ugs": 4824,
      "ĠTennessee": 4825,
      "rison": 4826,
      "wo": 4827,
      "Ġbon": 4828,
      "Ġeither": 4829,
      "ĠLos": 4830,
      "Ġignore": 4831,
      "Ġwhistle": 4832,
      "who": 4833,
      "Ġtip": 4834,
      "itter": 4835,
      "Ġkings": 4836,
      "ĠBless": 4837,
      "ĠDJ": 4838,
      "Ġherself": 4839,
      "ĠInstead": 4840,
      "Ġshape": 4841,
      "Ġhealing": 4842,
      "Ġseasons": 4843,
      "LL": 4844,
      "rr": 4845,
      "ĠAp": 4846,
      "ĠAct": 4847,
      "Ġalley": 4848,
      "ĠMill": 4849,
      "Ġwashed": 4850,
      "ĠStone": 4851,
      "ires": 4852,
      "Ġcared": 4853,
      "Ġreflection": 4854,
      "Ġpurple": 4855,
      "Ġeasier": 4856,
      "Ġmut": 4857,
      "rel": 4858,
      "Ġtrace": 4859,
      "bie": 4860,
      "Ġmap": 4861,
      "Ġpiss": 4862,
      "ĠBridge": 4863,
      "ĠCos": 4864,
      "alie": 4865,
      "Ġconstant": 4866,
      "ĠChicago": 4867,
      "haps": 4868,
      "ingo": 4869,
      "ĠSky": 4870,
      "vern": 4871,
      "Ġthirty": 4872,
      "ĠFool": 4873,
      "ĠJoy": 4874,
      "ĠVo": 4875,
      "ĠUnderneath": 4876,
      "Ġbags": 4877,
      "clock": 4878,
      "Ġchosen": 4879,
      "eg": 4880,
      "Ġpair": 4881,
      "Ġstairs": 4882,
      "Ġhonky": 4883,
      "Ġyard": 4884,
      "Ġding": 4885,
      "Ġur": 4886,
      "Ġshock": 4887,
      "Ġsqueeze": 4888,
      "Ġsalvation": 4889,
      "Do": 4890,
      "Ġtoss": 4891,
      "Ġpun": 4892,
      "ĠMi": 4893,
      "Ġstays": 4894,
      "ĠSpin": 4895,
      "Come": 4896,
      "She": 4897,
      "mble": 4898,
      "Ġtiny": 4899,
      "Ġstain": 4900,
      "ĠCross": 4901,
      "ĠLear": 4902,
      "Ġjet": 4903,
      "Ġapolog": 4904,
      "Ġboard": 4905,
      "Ġknockin": 4906,
      "Ġstrings": 4907,
      "Ġstones": 4908,
      "Ġweap": 4909,
      "Ġslee": 4910,
      "Ġtalks": 4911,
      "Ġbuzz": 4912,
      "Ġempt": 4913,
      "Ġfills": 4914,
      "attoo": 4915,
      "Ġloaded": 4916,
      "Ġreligion": 4917,
      "Ġcot": 4918,
      "Ġforward": 4919,
      "star": 4920,
      "Ġrust": 4921,
      "Ġorder": 4922,
      "agne": 4923,
      "Ġsunset": 4924,
      "Ġdrank": 4925,
      "gger": 4926,
      "Ġfades": 4927,
      "Ġpunk": 4928,
      "icate": 4929,
      "Ġshove": 4930,
      "Ġbloom": 4931,
      "ĠEverytime": 4932,
      "Ġrains": 4933,
      "Ġfarm": 4934,
      "Ġtwisted": 4935,
      "ĠBabe": 4936,
      "Ġchristmas": 4937,
      "cer": 4938,
      "eeter": 4939,
      "ĠColl": 4940,
      "Ġquarter": 4941,
      "Ġpainted": 4942,
      "ĠVen": 4943,
      "ĠBlues": 4944,
      "Ġpouring": 4945,
      "Ġowe": 4946,
      "ado": 4947,
      "ĠLying": 4948,
      "Ġgrin": 4949,
      "Ġsuppose": 4950,
      "ban": 4951,
      "ushed": 4952,
      "Ġpale": 4953,
      "ĠWind": 4954,
      "ĠOl": 4955,
      "Ġrelease": 4956,
      "ĠEasy": 4957,
      "Ġable": 4958,
      "ĠTalkin": 4959,
      "Ġcharm": 4960,
      "chorus": 4961,
      "Ġshirt": 4962,
      "Ġwhip": 4963,
      "ĠEast": 4964,
      "Ġpreacher": 4965,
      "Ġceiling": 4966,
      "This": 4967,
      "isa": 4968,
      "Ġpag": 4969,
      "ĠSorry": 4970,
      "Ġhors": 4971,
      "icke": 4972,
      "cience": 4973,
      "ffic": 4974,
      "ĠDef": 4975,
      "Ġcoal": 4976,
      "Ġsenses": 4977,
      "Ġrecognize": 4978,
      "AN": 4979,
      "ĠSud": 4980,
      "Ġsaving": 4981,
      "Ġdespair": 4982,
      "Ġrescue": 4983,
      "ration": 4984,
      "aaaa": 4985,
      "Ġsymp": 4986,
      "Ġcommon": 4987,
      "ĠSatan": 4988,
      "Ġnor": 4989,
      "ĠOther": 4990,
      "Ġclue": 4991,
      "ĠFlo": 4992,
      "Ġsacred": 4993,
      "ĠAngels": 4994,
      "Ġinnocence": 4995,
      "Ġtoys": 4996,
      "bble": 4997,
      "itation": 4998,
      "ĠTay": 4999,
      "ida": 5000,
      "ĠMatt": 5001,
      "Ġwhenever": 5002,
      "Ġserious": 5003,
      "Ġcelebrate": 5004,
      "Ġbuddy": 5005,
      "bell": 5006,
      "Ġsus": 5007,
      "Ġmeat": 5008,
      "ĠBlind": 5009,
      "ĠWayne": 5010,
      "Ġregrets": 5011,
      "ĠHoping": 5012,
      "Ġprivate": 5013,
      "Ġ)": 5014,
      "Ġpink": 5015,
      "aming": 5016,
      "ĠStri": 5017,
      "Ġpost": 5018,
      "ĠSaw": 5019,
      "ĠSeven": 5020,
      "bed": 5021,
      "sake": 5022,
      "Ġthirst": 5023,
      "irds": 5024,
      "Ġwhore": 5025,
      "Ġdropped": 5026,
      "Ġlifted": 5027,
      "Ġbooks": 5028,
      "Ġgangsta": 5029,
      "Ooh": 5030,
      "ald": 5031,
      "Ġgypsy": 5032,
      "ĠSin": 5033,
      "ĠBright": 5034,
      "ĠCro": 5035,
      "cted": 5036,
      "Ġflood": 5037,
      "Ġscare": 5038,
      "Ġsuffer": 5039,
      "Ġmodern": 5040,
      "Ġstruggle": 5041,
      "low": 5042,
      "Ġwha": 5043,
      "Ġborrow": 5044,
      "iter": 5045,
      "Ġec": 5046,
      "ĠBreat": 5047,
      "ĠNO": 5048,
      "ables": 5049,
      "Ġrocking": 5050,
      "ĠSec": 5051,
      "ĠHillsong": 5052,
      "So": 5053,
      "cul": 5054,
      "fall": 5055,
      "life": 5056,
      "Ġrip": 5057,
      "bert": 5058,
      "Ġbreakin": 5059,
      "Ġproof": 5060,
      "Ġhonor": 5061,
      "Ġgently": 5062,
      "Ġdrifting": 5063,
      "My": 5064,
      "Ġcas": 5065,
      "lex": 5066,
      "stick": 5067,
      "Ġsunrise": 5068,
      "ĠDece": 5069,
      "Ġimport": 5070,
      "Ġletters": 5071,
      "miss": 5072,
      "Ġmor": 5073,
      "Ġlab": 5074,
      "eezy": 5075,
      "ĠTold": 5076,
      "ĠUs": 5077,
      "ĠGrace": 5078,
      "ĠNiggas": 5079,
      "Ġfeather": 5080,
      "yal": 5081,
      "Ġbal": 5082,
      "Ġdough": 5083,
      "Ġfac": 5084,
      "itic": 5085,
      "Ġghetto": 5086,
      "ĠSix": 5087,
      "ĠDie": 5088,
      "Ġliked": 5089,
      "Ġspoken": 5090,
      "Ġaffection": 5091,
      "Ġburden": 5092,
      "lt": 5093,
      "ube": 5094,
      "Ġaching": 5095,
      "eth": 5096,
      "Ġshoe": 5097,
      "antic": 5098,
      "Ġhopeless": 5099,
      "Ġrhymes": 5100,
      "Ġpsy": 5101,
      "ĠBoth": 5102,
      "ĠHol": 5103,
      "ĠRoy": 5104,
      "ĠBeing": 5105,
      "Ġdesign": 5106,
      "Ġdancer": 5107,
      "Ġknocking": 5108,
      "like": 5109,
      "Ġmam": 5110,
      "Ġnasty": 5111,
      "ĠWord": 5112,
      "iddle": 5113,
      "Ġcant": 5114,
      "ĠMen": 5115,
      "eaks": 5116,
      "ĠPush": 5117,
      "Ġsheets": 5118,
      "ĠBeyond": 5119,
      "Ġcreation": 5120,
      "Ġmention": 5121,
      "ublic": 5122,
      "Ġwing": 5123,
      "Ġstumble": 5124,
      "ĠGun": 5125,
      "Ġverse": 5126,
      "ws": 5127,
      "Ġcage": 5128,
      "Ġnorth": 5129,
      "Ġecho": 5130,
      "ĠKra": 5131,
      "Ġarmy": 5132,
      "Ġ--": 5133,
      "Ġholes": 5134,
      "Ġheroes": 5135,
      "iolence": 5136,
      "ĠSuddenly": 5137,
      "Love": 5138,
      "can": 5139,
      "itches": 5140,
      "Ġneon": 5141,
      "ĠShoot": 5142,
      "ĠLooks": 5143,
      "ĠTelling": 5144,
      "xy": 5145,
      "itney": 5146,
      "ĠWater": 5147,
      "ĠFive": 5148,
      "Ġshelf": 5149,
      "Ġheartbreak": 5150,
      "Ġdrivin": 5151,
      "Ġfloat": 5152,
      "ĠSavior": 5153,
      "ĠKeeps": 5154,
      "cing": 5155,
      "fer": 5156,
      "zed": 5157,
      "ann": 5158,
      "Ġoooh": 5159,
      "Ġloss": 5160,
      "ĠLy": 5161,
      "lax": 5162,
      "Ġclosing": 5163,
      "ĠParis": 5164,
      "Ġwoah": 5165,
      "lev": 5166,
      "inks": 5167,
      "Ġunderstood": 5168,
      "Ġslipped": 5169,
      "AT": 5170,
      "Can": 5171,
      "aly": 5172,
      "lasting": 5173,
      "Ġmass": 5174,
      "Ġdice": 5175,
      "ĠAir": 5176,
      "ĠTop": 5177,
      "Ġequ": 5178,
      "Ġshoulders": 5179,
      "Ġpresence": 5180,
      "Ġeternal": 5181,
      "Ġanimal": 5182,
      "ative": 5183,
      "Ġjunk": 5184,
      "Ġscrew": 5185,
      "Ġglove": 5186,
      "anson": 5187,
      "ĠFeelin": 5188,
      "Ġserv": 5189,
      "Ġrelax": 5190,
      "Ġsweetheart": 5191,
      "Ġcru": 5192,
      "Ġcrush": 5193,
      "Ġhaters": 5194,
      "xteen": 5195,
      "Ġtroubled": 5196,
      "Ġhorizon": 5197,
      "Ġmovies": 5198,
      "ĠDarlin": 5199,
      "Ġcherry": 5200,
      "Ġwaking": 5201,
      "Ġmus": 5202,
      "lem": 5203,
      "illa": 5204,
      "Ġsale": 5205,
      "Ġabs": 5206,
      "pered": 5207,
      "Ġdenied": 5208,
      "Ġsquare": 5209,
      "doo": 5210,
      "Ġgar": 5211,
      "Ġpha": 5212,
      "ĠDonna": 5213,
      "ening": 5214,
      "ĠPol": 5215,
      "ĠRi": 5216,
      "Ġrope": 5217,
      "Ġburied": 5218,
      "ĠTrust": 5219,
      "uzz": 5220,
      "Ġmilk": 5221,
      "Ġlullaby": 5222,
      "ĠPurple": 5223,
      ".,": 5224,
      "Ġtricks": 5225,
      "arm": 5226,
      "lend": 5227,
      "Ġ[?]": 5228,
      "Ġhearing": 5229,
      "Ġcompare": 5230,
      "ĠUncle": 5231,
      "ĠBroken": 5232,
      "Get": 5233,
      "eral": 5234,
      "ĠSal": 5235,
      "ĠGre": 5236,
      "ĠJon": 5237,
      "igo": 5238,
      "Ġfinding": 5239,
      "Ġturnin": 5240,
      "Ġwinner": 5241,
      "ĠShad": 5242,
      "ĠTaylor": 5243,
      "dream": 5244,
      "Ġrebel": 5245,
      "ĠJan": 5246,
      "Ġdeg": 5247,
      "Ġbottles": 5248,
      "Ġconcern": 5249,
      "aya": 5250,
      "Ġbein": 5251,
      "ĠName": 5252,
      "rait": 5253,
      "Ġmoan": 5254,
      "ĠComes": 5255,
      "Ġflowing": 5256,
      "Ġhighest": 5257,
      "Ġautom": 5258,
      "Ġhorses": 5259,
      "Ch": 5260,
      "ae": 5261,
      "Ġpers": 5262,
      "ĠBoom": 5263,
      "alal": 5264,
      "ĠPra": 5265,
      "Ġcheat": 5266,
      "Ġdrinks": 5267,
      "Ġprize": 5268,
      "Ġlangu": 5269,
      "Ġcats": 5270,
      "Ġpimp": 5271,
      "iration": 5272,
      "ĠElectric": 5273,
      "Ġimm": 5274,
      "ĠNatalie": 5275,
      "ckets": 5276,
      "Ġpacked": 5277,
      "Ġinde": 5278,
      "ĠRadio": 5279,
      "Ġswitch": 5280,
      "Ġshakin": 5281,
      "ortal": 5282,
      "Ġsurprised": 5283,
      "Ġdrowning": 5284,
      "Ġslipping": 5285,
      "Ġbiggest": 5286,
      "Ġcompletely": 5287,
      "ĠPapa": 5288,
      "di": 5289,
      "Ġdee": 5290,
      "Ġdea": 5291,
      "rid": 5292,
      "ĠHouse": 5293,
      "ums": 5294,
      "Ġswell": 5295,
      "Ġheading": 5296,
      "ĠReach": 5297,
      "Ġcontin": 5298,
      "ĠGloria": 5299,
      "Ġidea": 5300,
      "Ġdamage": 5301,
      "Ġbass": 5302,
      "Ġlack": 5303,
      "Ġforsake": 5304,
      "Ġwonders": 5305,
      "Ġrealized": 5306,
      "Ġprof": 5307,
      "Ġyounger": 5308,
      "Ġfamiliar": 5309,
      "Ġlegend": 5310,
      "Ġitself": 5311,
      "ĠSoul": 5312,
      "Ġwears": 5313,
      "ĠCash": 5314,
      "ĠLad": 5315,
      "Ġjustice": 5316,
      "Ġrad": 5317,
      "Ġsung": 5318,
      "Ġmagn": 5319,
      "ĠAnyway": 5320,
      "ĠZe": 5321,
      "ĠRoad": 5322,
      "Ġframe": 5323,
      "Ġsou": 5324,
      "Ġwars": 5325,
      "Ġbold": 5326,
      "Ġlion": 5327,
      "ids": 5328,
      "ĠMars": 5329,
      "ĠDrop": 5330,
      "ĠFear": 5331,
      "ĠRose": 5332,
      "ggin": 5333,
      "Ġsits": 5334,
      "Ġtrap": 5335,
      "ique": 5336,
      "ĠOw": 5337,
      "Ġstress": 5338,
      "ĠExcept": 5339,
      "Ġcrawling": 5340,
      "ĠSilver": 5341,
      "vie": 5342,
      "Ġduck": 5343,
      "ĠGang": 5344,
      "ĠEr": 5345,
      "ĠEat": 5346,
      "Ġcarried": 5347,
      "Ġaccept": 5348,
      "ĠClap": 5349,
      "Ġdrinkin": 5350,
      "ippi": 5351,
      "box": 5352,
      "Ġbride": 5353,
      "Ġcreep": 5354,
      "Yo": 5355,
      "Ġbills": 5356,
      "Ġdum": 5357,
      "ĠTried": 5358,
      "ĠTempt": 5359,
      "iden": 5360,
      "ĠFound": 5361,
      "nyrd": 5362,
      "ĠShining": 5363,
      "Ġrolled": 5364,
      "Ġworthy": 5365,
      "ĠCharlie": 5366,
      "ĠMexico": 5367,
      "drops": 5368,
      "nel": 5369,
      "Ġsway": 5370,
      "eena": 5371,
      "ript": 5372,
      "ĠYOU": 5373,
      "Ġstret": 5374,
      "ĠDra": 5375,
      "Ġancient": 5376,
      "ĠPerry": 5377,
      "Ġboyfriend": 5378,
      "Ġstrike": 5379,
      "visible": 5380,
      "Just": 5381,
      "rate": 5382,
      "Ġdrain": 5383,
      "Ġdyin": 5384,
      "ato": 5385,
      "ĠFam": 5386,
      "Ġblast": 5387,
      "Ġsuicide": 5388,
      "Ġsets": 5389,
      "ĠAnytime": 5390,
      "azz": 5391,
      "ĠUnless": 5392,
      "ĠQueens": 5393,
      "Ġphotograph": 5394,
      "Ġemptiness": 5395,
      "abol": 5396,
      "ĠRiding": 5397,
      "Ġflip": 5398,
      "Ġprayed": 5399,
      "Ġtraffic": 5400,
      "ĠHands": 5401,
      "Ġshattered": 5402,
      "RE": 5403,
      "Ġ!": 5404,
      "Ġbore": 5405,
      "Ġlyin": 5406,
      "Ġpare": 5407,
      "Ġhollow": 5408,
      "len": 5409,
      "ĠDave": 5410,
      "ams": 5411,
      "Ġribb": 5412,
      "Ġspare": 5413,
      "Ġbetray": 5414,
      "aged": 5415,
      "Ġshades": 5416,
      "Ġscreams": 5417,
      "Ġkicks": 5418,
      "Ġsolid": 5419,
      "Ġsmokin": 5420,
      "ec": 5421,
      "oring": 5422,
      "issippi": 5423,
      "Ġexcept": 5424,
      "ĠSpread": 5425,
      "Ġshooting": 5426,
      "Ġvictory": 5427,
      "bid": 5428,
      "while": 5429,
      "rer": 5430,
      "Ġpave": 5431,
      "Ġunto": 5432,
      "ricane": 5433,
      "Ġupside": 5434,
      "ĠStre": 5435,
      "Ġfinds": 5436,
      "Ġfinish": 5437,
      "Ġunkind": 5438,
      "Ġimportant": 5439,
      "Ġsons": 5440,
      "Ġflew": 5441,
      "Ġtoe": 5442,
      "Ġocc": 5443,
      "ĠBall": 5444,
      "ĠCat": 5445,
      "steen": 5446,
      "Ġroar": 5447,
      "Ġcrystal": 5448,
      "hys": 5449,
      "Ġcops": 5450,
      "Ġposition": 5451,
      "Out": 5452,
      "eous": 5453,
      "ism": 5454,
      "ĠPay": 5455,
      "Ġlasts": 5456,
      "Ġcrad": 5457,
      "ugar": 5458,
      "000": 5459,
      "ax": 5460,
      "enter": 5461,
      "Ġspill": 5462,
      "ulf": 5463,
      "Ġfloating": 5464,
      "Ġdesperate": 5465,
      "Ġtour": 5466,
      "ĠDirty": 5467,
      "ĠFat": 5468,
      "Ġplayer": 5469,
      "Ġpres": 5470,
      "Ġscratch": 5471,
      "Ġsides": 5472,
      "erk": 5473,
      "ĠSk": 5474,
      "ĠSally": 5475,
      "Ġthird": 5476,
      "ĠJingle": 5477,
      "ĠSail": 5478,
      "Ġwishes": 5479,
      "!!!": 5480,
      "Ġhypnot": 5481,
      "por": 5482,
      "Ġfold": 5483,
      "Ġfence": 5484,
      "Ġstock": 5485,
      "Ġreck": 5486,
      "ĠTwenty": 5487,
      "Ġdecided": 5488,
      "Ġvel": 5489,
      "Ġdemon": 5490,
      "Ġrisk": 5491,
      "Ġexcited": 5492,
      "ĠMoving": 5493,
      "ĠCounting": 5494,
      "lish": 5495,
      "ĠSister": 5496,
      "ĠFull": 5497,
      "ific": 5498,
      "Ġworn": 5499,
      "Ġvow": 5500,
      "Ġpoet": 5501,
      "Ġstray": 5502,
      "Ġpushing": 5503,
      "Ġchampagne": 5504,
      "Ġlouder": 5505,
      "ĠDecember": 5506,
      "val": 5507,
      "Ġau": 5508,
      "Ġwrist": 5509,
      "Ġbury": 5510,
      "Ġfifty": 5511,
      "Ġgat": 5512,
      "ooked": 5513,
      "Ġbutt": 5514,
      "Ġener": 5515,
      "Ġdriver": 5516,
      "alent": 5517,
      "ĠWouldn": 5518,
      "Ġafford": 5519,
      "Ġextra": 5520,
      "Ġdinner": 5521,
      "If": 5522,
      "ior": 5523,
      "Ġtan": 5524,
      "Ġdiss": 5525,
      "ĠDogg": 5526,
      "Ġdemons": 5527,
      "Ġpatient": 5528,
      "ĠBrook": 5529,
      "Ġburst": 5530,
      "Ġenemies": 5531,
      "ĠTravis": 5532,
      "pend": 5533,
      "ĠWoo": 5534,
      "ĠLee": 5535,
      "ĠDust": 5536,
      "Ġreel": 5537,
      "ĠHeard": 5538,
      "ĠEs": 5539,
      "Ġrider": 5540,
      "Ġeyed": 5541,
      "Ġanytime": 5542,
      "Ġvoc": 5543,
      "Ġthemselves": 5544,
      "ĠBeth": 5545,
      "steps": 5546,
      "ĠPoor": 5547,
      "Ġmail": 5548,
      "ito": 5549,
      "Ġmeasure": 5550,
      "ĠBene": 5551,
      "Ġshown": 5552,
      "Ġdew": 5553,
      "Ġdefe": 5554,
      "ĠNowhere": 5555,
      "agger": 5556,
      "ĠGettin": 5557,
      "Ġtrigger": 5558,
      "Ġcuts": 5559,
      "Ġsym": 5560,
      "ĠPrince": 5561,
      "Ġseparate": 5562,
      "Ġest": 5563,
      "Ġcal": 5564,
      "ĠRest": 5565,
      "ĠRise": 5566,
      "Ġtrash": 5567,
      "Ġhears": 5568,
      "Ġunderstanding": 5569,
      "Ġcigarette": 5570,
      "Ġsisters": 5571,
      "isions": 5572,
      "Ġpistol": 5573,
      "Ġliber": 5574,
      "rod": 5575,
      "Ġdrives": 5576,
      "Ġdoub": 5577,
      "Ġpleas": 5578,
      "Ġballs": 5579,
      "Ġbrains": 5580,
      "Ġsucker": 5581,
      "Ġmask": 5582,
      "Ġecst": 5583,
      "gn": 5584,
      "Ġes": 5585,
      "Ġwipe": 5586,
      "ĠDest": 5587,
      "sey": 5588,
      "Ġgods": 5589,
      "ĠFro": 5590,
      "Ġsavior": 5591,
      "ĠRich": 5592,
      "Ġclap": 5593,
      "ĠMean": 5594,
      "Ġmarching": 5595,
      "Ġtort": 5596,
      "Ġautumn": 5597,
      "ĠMidnight": 5598,
      "Ġmm": 5599,
      "Ġtoast": 5600,
      "rious": 5601,
      "Ġthief": 5602,
      "ĠHon": 5603,
      "Ġdont": 5604,
      "chin": 5605,
      "osm": 5606,
      "ĠAnnie": 5607,
      "Ġfrown": 5608,
      "Ġpulling": 5609,
      "Ġbelly": 5610,
      "Ġgroo": 5611,
      "Ġperfume": 5612,
      "ĠLucy": 5613,
      "bound": 5614,
      "Ġwrap": 5615,
      "idin": 5616,
      "Ġshiver": 5617,
      "osp": 5618,
      "Ġrides": 5619,
      "ĠDays": 5620,
      "Ġtowards": 5621,
      "Ġyuh": 5622,
      "Ġlake": 5623,
      "Ġplastic": 5624,
      "Ġended": 5625,
      "ĠShit": 5626,
      "Ġcolder": 5627,
      "cially": 5628,
      "ĠClos": 5629,
      "Ġrecords": 5630,
      "Ġforeign": 5631,
      "ĠWhisper": 5632,
      "Ġinse": 5633,
      "ooled": 5634,
      "Ġshor": 5635,
      "Ġalso": 5636,
      "Ġpapa": 5637,
      "ĠMississippi": 5638,
      "Ġsplit": 5639,
      "ĠTil": 5640,
      "ĠYear": 5641,
      "ata": 5642,
      "ĠBuff": 5643,
      "ĠHate": 5644,
      "Ġdove": 5645,
      "stit": 5646,
      "Ġsometime": 5647,
      "ĠShut": 5648,
      "ĠJudas": 5649,
      "ĠSilent": 5650,
      "AL": 5651,
      "gan": 5652,
      "wa": 5653,
      "real": 5654,
      "Ġbrick": 5655,
      "Ġgin": 5656,
      "ĠAy": 5657,
      "ĠEve": 5658,
      "Ġflyin": 5659,
      "Ġproc": 5660,
      "Ġtries": 5661,
      "Ġsuffering": 5662,
      "Ġlanguage": 5663,
      "ĠBeneath": 5664,
      "why": 5665,
      "ĠIN": 5666,
      "Ġsack": 5667,
      "Ġsolo": 5668,
      "shit": 5669,
      "Ġbridges": 5670,
      "Ġnumbers": 5671,
      "ĠMemories": 5672,
      "Ġneighborhood": 5673,
      "Ġfalse": 5674,
      "ĠPraise": 5675,
      "eh": 5676,
      "top": 5677,
      "Ġpas": 5678,
      "atus": 5679,
      "ĠCast": 5680,
      "Ġworries": 5681,
      "esty": 5682,
      "rete": 5683,
      "Ġsinner": 5684,
      "Ġ20": 5685,
      "ĠUnited": 5686,
      "ĠAbove": 5687,
      "ĠMartin": 5688,
      "abolous": 5689,
      "gen": 5690,
      "pose": 5691,
      "wards": 5692,
      "ĠTown": 5693,
      "ĠRon": 5694,
      "Ġrunaway": 5695,
      "ĠForgive": 5696,
      "ocus": 5697,
      "Ġfollowed": 5698,
      "Ġintent": 5699,
      "Ġsleeve": 5700,
      "Who": 5701,
      "damn": 5702,
      "fast": 5703,
      "ays": 5704,
      "Ġhus": 5705,
      "ilight": 5706,
      "Ġdeceive": 5707,
      "Ġdamned": 5708,
      "Ġcourage": 5709,
      "bbed": 5710,
      "ĠJean": 5711,
      "Ġtattoo": 5712,
      "Ġpages": 5713,
      "ĠWent": 5714,
      "ĠMir": 5715,
      "ĠIns": 5716,
      "Ġcling": 5717,
      "Ġshawty": 5718,
      "Ġunless": 5719,
      "Ġsummertime": 5720,
      "Ġdemand": 5721,
      "Ġwoods": 5722,
      "ĠStrange": 5723,
      "Ġliquor": 5724,
      "ege": 5725,
      "Ġblink": 5726,
      "Ġfreeze": 5727,
      "ĠCheap": 5728,
      "Ġforgiveness": 5729,
      "ĠSupp": 5730,
      "ĠRaise": 5731,
      "ĠBible": 5732,
      "ĠCont": 5733,
      "Ġjingle": 5734,
      "cks": 5735,
      "oodoo": 5736,
      "ĠEnough": 5737,
      "Ġthorn": 5738,
      "ĠLore": 5739,
      "olate": 5740,
      "Ġsweeter": 5741,
      "Ġshinin": 5742,
      "ĠOutside": 5743,
      "Ġdecision": 5744,
      "Ġwounds": 5745,
      "Ġmonths": 5746,
      "Ġcradle": 5747,
      "Ġnar": 5748,
      "Ġnuts": 5749,
      "era": 5750,
      "Ġphys": 5751,
      "Ġegg": 5752,
      "ĠPower": 5753,
      "Ġdaw": 5754,
      "phis": 5755,
      "Ġpretending": 5756,
      "ĠCrying": 5757,
      "Ġbounce": 5758,
      "nes": 5759,
      "lehem": 5760,
      "Ġkneel": 5761,
      "ĠDiana": 5762,
      "icine": 5763,
      "Ġalib": 5764,
      "ulous": 5765,
      "Ġtouching": 5766,
      "Ġfollowing": 5767,
      "iano": 5768,
      "Ġexcuse": 5769,
      "Ġthrown": 5770,
      "Ġpushed": 5771,
      "Ġrubber": 5772,
      "Now": 5773,
      "rue": 5774,
      "Ġtar": 5775,
      "Ġgif": 5776,
      "Ġlimit": 5777,
      "ĠBody": 5778,
      "ĠPan": 5779,
      "Ġflick": 5780,
      "Ġexper": 5781,
      "ĠComin": 5782,
      "Ġreflect": 5783,
      "Ġruin": 5784,
      "ĠArm": 5785,
      "letoe": 5786,
      "Ġlosin": 5787,
      "vest": 5788,
      "Ġded": 5789,
      "Ġbeha": 5790,
      "elve": 5791,
      "olation": 5792,
      "Ġvan": 5793,
      "Ġawful": 5794,
      "ĠTurning": 5795,
      "Ġconscience": 5796,
      "ĠDrive": 5797,
      "ĠSnoop": 5798,
      "ĠDenver": 5799,
      "ĠVoices": 5800,
      "Ġenergy": 5801,
      "mo": 5802,
      "ĠSi": 5803,
      "Ġhug": 5804,
      "ĠLinda": 5805,
      "Ġputting": 5806,
      "Ġgranted": 5807,
      "Ġwarmth": 5808,
      "Ġpatience": 5809,
      "ddie": 5810,
      "Ġastray": 5811,
      "Ġrailroad": 5812,
      "kill": 5813,
      "wor": 5814,
      "ounce": 5815,
      "ott": 5816,
      "ĠHor": 5817,
      "ĠNorth": 5818,
      "ĠEar": 5819,
      "Ġcaress": 5820,
      "Ġhurricane": 5821,
      "Ġrolls": 5822,
      "mental": 5823,
      "Ġlaying": 5824,
      "Ġparade": 5825,
      "Ġsoldiers": 5826,
      "Ġprisoner": 5827,
      "Ġtonk": 5828,
      "ĠImagine": 5829,
      "hi": 5830,
      "Ġide": 5831,
      "Ġsip": 5832,
      "Ġhavin": 5833,
      "ĠMakin": 5834,
      "ifer": 5835,
      "Ġrights": 5836,
      "Ġslam": 5837,
      "pecially": 5838,
      "Ġhardest": 5839,
      "Ġlands": 5840,
      "Ġsympathy": 5841,
      "ĠBethlehem": 5842,
      "Ġod": 5843,
      "ĠCapt": 5844,
      "Ġvol": 5845,
      "uct": 5846,
      "rope": 5847,
      "ĠMur": 5848,
      "Ġships": 5849,
      "Ġclearly": 5850,
      "ĠUpon": 5851,
      "ulture": 5852,
      "Ġentertain": 5853,
      "ĠBuild": 5854,
      "ĠWritten": 5855,
      "aah": 5856,
      "rees": 5857,
      "iddy": 5858,
      "ĠMam": 5859,
      "ĠDom": 5860,
      "ĠThy": 5861,
      "ĠStars": 5862,
      "Ġstaying": 5863,
      "Ġlistened": 5864,
      "Ġimage": 5865,
      "Ġtemptation": 5866,
      "ww": 5867,
      "Ġame": 5868,
      "Ġlar": 5869,
      "Ġgaze": 5870,
      "ĠTrou": 5871,
      "ĠTrain": 5872,
      "Ġknocked": 5873,
      "aste": 5874,
      "Ġneedle": 5875,
      "ĠMaria": 5876,
      "Ġappro": 5877,
      "Ġsmoking": 5878,
      "Ġsharp": 5879,
      "Ġsensation": 5880,
      "Ġinte": 5881,
      "ĠPicture": 5882,
      "ĠStick": 5883,
      "Ġsweep": 5884,
      "Ġshowing": 5885,
      "mmm": 5886,
      "Ġoughta": 5887,
      "Ġaddicted": 5888,
      "Ġswimming": 5889,
      "Ġhomie": 5890,
      "Ġjokes": 5891,
      "Ġhusband": 5892,
      "Ġtv": 5893,
      "Ġdut": 5894,
      "ĠSuck": 5895,
      "ĠYell": 5896,
      "ĠMuch": 5897,
      "Ġgovern": 5898,
      "Ġfruit": 5899,
      "azing": 5900,
      "elson": 5901,
      "Ġcotton": 5902,
      "vious": 5903,
      "Ġee": 5904,
      "Ġsouthern": 5905,
      "ĠTrave": 5906,
      "Ġhaze": 5907,
      "ĠMel": 5908,
      "street": 5909,
      "Ġval": 5910,
      "Ġraz": 5911,
      "Ġnails": 5912,
      "Ġdisgr": 5913,
      "ĠDreaming": 5914,
      "Ġquickly": 5915,
      "Ġdiscover": 5916,
      "Ġlocal": 5917,
      "ND": 5918,
      "but": 5919,
      "je": 5920,
      "Ġsum": 5921,
      "ads": 5922,
      "ĠNone": 5923,
      "imes": 5924,
      "hanna": 5925,
      "iley": 5926,
      "aga": 5927,
      "ĠDolly": 5928,
      "Ġcrashing": 5929,
      "udd": 5930,
      "ĠSays": 5931,
      "Ġshiny": 5932,
      "ifteen": 5933,
      "chan": 5934,
      "Ġtin": 5935,
      "Ġaah": 5936,
      "Ġwow": 5937,
      "Ġpenny": 5938,
      "aints": 5939,
      "oph": 5940,
      "Ġspoon": 5941,
      "Ġwhispered": 5942,
      "Ġsneak": 5943,
      "Ġmotherfuckers": 5944,
      "tis": 5945,
      "Ġcred": 5946,
      "ĠHoll": 5947,
      "ĠOoooo": 5948,
      "ĠLamb": 5949,
      "ilin": 5950,
      "Ġsheep": 5951,
      "oking": 5952,
      "Ġplus": 5953,
      "Ġscen": 5954,
      "Ġsleepin": 5955,
      "ĠWillie": 5956,
      "Ġspirits": 5957,
      "Ġeagle": 5958,
      "ĠWhether": 5959,
      "Ro": 5960,
      "ĠIron": 5961,
      "Ġsire": 5962,
      "ĠTakes": 5963,
      "Ġport": 5964,
      "Ġpalm": 5965,
      "ella": 5966,
      "Ġdece": 5967,
      "ĠStrong": 5968,
      "ĠWithin": 5969,
      "Ġstepped": 5970,
      "Ġbru": 5971,
      "Ġsixteen": 5972,
      "dest": 5973,
      "she": 5974,
      "Ġtang": 5975,
      "ĠDire": 5976,
      "Ġchin": 5977,
      "Ġgreet": 5978,
      "Ġmistletoe": 5979,
      "Ġcrowded": 5980,
      "ĠBobby": 5981,
      "Ġmiracles": 5982,
      "Ġcigarettes": 5983,
      "wag": 5984,
      "Ġforth": 5985,
      "ĠGary": 5986,
      ".....": 5987,
      "Ġclick": 5988,
      "Ġrare": 5989,
      "bered": 5990,
      "ĠDean": 5991,
      "Ġdrawn": 5992,
      "rupt": 5993,
      "Ġpapers": 5994,
      "Ġwished": 5995,
      "ĠDrake": 5996,
      "bows": 5997,
      "fire": 5998,
      "lock": 5999,
      "ĠSea": 6000,
      "ĠMorn": 6001,
      "ĠPromise": 6002,
      "Ġdrops": 6003,
      "Ġjumped": 6004,
      "ĠMemphis": 6005,
      "Ġinspiration": 6006,
      "Int": 6007,
      "One": 6008,
      "ius": 6009,
      "Ġyonder": 6010,
      "Ġhay": 6011,
      "ists": 6012,
      "ĠLate": 6013,
      "ĠLucky": 6014,
      "Ġrequ": 6015,
      "ĠFeed": 6016,
      "Ġrocket": 6017,
      "Ġchoo": 6018,
      "ĠSteve": 6019,
      "ĠConf": 6020,
      "Ġhallelujah": 6021,
      "ĠWondering": 6022,
      "ĠFighting": 6023,
      "Ġdevotion": 6024,
      "za": 6025,
      "ouble": 6026,
      "Ġsan": 6027,
      "Ġcenter": 6028,
      "eech": 6029,
      "ĠNine": 6030,
      "ĠDoing": 6031,
      "ĠIsland": 6032,
      "udes": 6033,
      "Ġtearing": 6034,
      "Ġcentury": 6035,
      "Ġmagazine": 6036,
      "How": 6037,
      "hoo": 6038,
      "Ġtales": 6039,
      "Ġole": 6040,
      "ĠSch": 6041,
      "Ġweal": 6042,
      "ĠCoo": 6043,
      "ĠCur": 6044,
      "Ġrev": 6045,
      "Ġann": 6046,
      "ula": 6047,
      "Ġleading": 6048,
      "Ġdrama": 6049,
      "Ġghosts": 6050,
      "Ġlinger": 6051,
      "Ġvelvet": 6052,
      "Ġecstasy": 6053,
      "Ġdet": 6054,
      "ĠTO": 6055,
      "ĠGave": 6056,
      "Ġspine": 6057,
      "ĠStones": 6058,
      "Ġswore": 6059,
      "berry": 6060,
      "Ġache": 6061,
      "ĠLeg": 6062,
      "ĠGrant": 6063,
      "Ġcollect": 6064,
      "Ġdrums": 6065,
      "Ġhesitate": 6066,
      "Ġdude": 6067,
      "Ġgamb": 6068,
      "ĠBoo": 6069,
      "ĠEvil": 6070,
      "ĠDoctor": 6071,
      "ĠAlmost": 6072,
      "Ġcurtain": 6073,
      "ĠFriends": 6074,
      "ouston": 6075,
      "Ġlat": 6076,
      "isc": 6077,
      "Ġnerve": 6078,
      "Ġpills": 6079,
      "ĠBee": 6080,
      "ĠPle": 6081,
      "ila": 6082,
      "Ġrole": 6083,
      "Ġviolence": 6084,
      "Ġglorious": 6085,
      "Ġfires": 6086,
      "Ġcruc": 6087,
      "Ġchew": 6088,
      "uesday": 6089,
      "Ġmillions": 6090,
      "Ġsailor": 6091,
      "mbling": 6092,
      "Ġtemper": 6093,
      "Ġanimals": 6094,
      "Ġunfold": 6095,
      "ĠBreaking": 6096,
      "Ġseventeen": 6097,
      "Ġwolf": 6098,
      "ĠHoliday": 6099,
      "work": 6100,
      "inite": 6101,
      "Ġsour": 6102,
      "Ġinvisible": 6103,
      "iger": 6104,
      "Ġhearted": 6105,
      "Ġeverlasting": 6106,
      "ĠReg": 6107,
      "Ġpasses": 6108,
      "Ġspeaking": 6109,
      "ĠSmile": 6110,
      "Ġsnake": 6111,
      "Ġbullshit": 6112,
      "anye": 6113,
      "ĠHearts": 6114,
      "coming": 6115,
      "au": 6116,
      "uary": 6117,
      "Ġdip": 6118,
      "Ġtooth": 6119,
      "ĠSy": 6120,
      "istic": 6121,
      "ĠLand": 6122,
      "ĠMountain": 6123,
      "ĠPet": 6124,
      "Ġlap": 6125,
      "ohol": 6126,
      "Ġamb": 6127,
      "Ġroller": 6128,
      "Ġmissin": 6129,
      "Ġdeadly": 6130,
      "Ġpeaceful": 6131,
      "Ġfootsteps": 6132,
      "Ġerase": 6133,
      "ĠSlowly": 6134,
      "ĠMomma": 6135,
      "Ġsuccess": 6136,
      "gon": 6137,
      "Ġtumble": 6138,
      "ĠBer": 6139,
      "ĠHen": 6140,
      "ĠHouston": 6141,
      "ĠLately": 6142,
      "ĠMod": 6143,
      "Ġlevel": 6144,
      "ĠDoin": 6145,
      "Ġcloudy": 6146,
      "Ġmotherfuckin": 6147,
      "ĠEmpty": 6148,
      "Ġdeliver": 6149,
      "ĠFlying": 6150,
      "oured": 6151,
      "Ġahh": 6152,
      "Ġmal": 6153,
      "Ġbored": 6154,
      "ĠSittin": 6155,
      "ĠSugar": 6156,
      "vert": 6157,
      "lyn": 6158,
      "Ġhaunt": 6159,
      "aka": 6160,
      "ĠJustin": 6161,
      "ĠBeach": 6162,
      "Ġpract": 6163,
      "aterial": 6164,
      "Ġdeepest": 6165,
      "ĠAnyone": 6166,
      "Ġpriest": 6167,
      "Ġtrapped": 6168,
      "Ġweakness": 6169,
      "flies": 6170,
      "Ġmixed": 6171,
      "Go": 6172,
      "cohol": 6173,
      "pie": 6174,
      "Ġdeed": 6175,
      "Ġtoll": 6176,
      "ĠHide": 6177,
      "ĠCa": 6178,
      "rican": 6179,
      "Ġsoot": 6180,
      "inkin": 6181,
      "uman": 6182,
      "Ġrag": 6183,
      "Ġsleeps": 6184,
      "ĠSpend": 6185,
      "ĠSpeed": 6186,
      "ormation": 6187,
      "ĠTwist": 6188,
      "Ġtraveling": 6189,
      "Ġsalt": 6190,
      "ĠCharles": 6191,
      "ĠPhil": 6192,
      "ĠBeatles": 6193,
      "lah": 6194,
      "run": 6195,
      "talk": 6196,
      "Ġtat": 6197,
      "Ġtame": 6198,
      "Ġtap": 6199,
      "Ġdun": 6200,
      "uther": 6201,
      "ĠHam": 6202,
      "ĠGar": 6203,
      "ĠJuly": 6204,
      "ĠRes": 6205,
      "Ġbliss": 6206,
      "ola": 6207,
      "bey": 6208,
      "Ġkillin": 6209,
      "ĠPlan": 6210,
      "aws": 6211,
      "Ġoceans": 6212,
      "ĠFrankie": 6213,
      "Ġpresents": 6214,
      "ĠFinally": 6215,
      "ran": 6216,
      "rus": 6217,
      "take": 6218,
      "Ġteena": 6219,
      "ĠTrick": 6220,
      "Ġeating": 6221,
      "ĠAndy": 6222,
      "ĠHi": 6223,
      "ĠUse": 6224,
      "Ġhasn": 6225,
      "Ġprinc": 6226,
      "ciety": 6227,
      "ĠSwing": 6228,
      "Ġresp": 6229,
      "ĠDriving": 6230,
      "Ġcircus": 6231,
      "Ġneighbors": 6232,
      "ĠStaring": 6233,
      "Outro": 6234,
      "ĠLoretta": 6235,
      "IT": 6236,
      "sin": 6237,
      "Ġbind": 6238,
      "owing": 6239,
      "Ġpace": 6240,
      "ighty": 6241,
      "ĠPink": 6242,
      "ĠRog": 6243,
      "ĠEddie": 6244,
      "Ġhelping": 6245,
      "Ġmessed": 6246,
      "ĠMrs": 6247,
      "Ġdestru": 6248,
      "Ġmedicine": 6249,
      "Ġguarantee": 6250,
      "Ġbunch": 6251,
      "ĠTri": 6252,
      "ĠTuesday": 6253,
      "oto": 6254,
      "seng": 6255,
      "urb": 6256,
      "ummy": 6257,
      "Ġrighteous": 6258,
      "Ġtrunk": 6259,
      "Ġraw": 6260,
      "Ġkindness": 6261,
      "ĠClark": 6262,
      "ĠBruce": 6263,
      "ĠMcC": 6264,
      "ĠParton": 6265,
      "Bout": 6266,
      "Ġnations": 6267,
      "Ġoil": 6268,
      "Ġhound": 6269,
      "ett": 6270,
      "Ġkicked": 6271,
      "ĠMos": 6272,
      "ĠFo": 6273,
      "imate": 6274,
      "Ġleaf": 6275,
      "ardon": 6276,
      "ĠClimb": 6277,
      "eyed": 6278,
      "ĠBonnie": 6279,
      "ĠEnglish": 6280,
      "ĠLadies": 6281,
      "Ġparents": 6282,
      "when": 6283,
      "Ġlend": 6284,
      "Ġcuz": 6285,
      "Ġstroll": 6286,
      "Ġneg": 6287,
      "Ġguilt": 6288,
      "ĠShop": 6289,
      "Ġcamera": 6290,
      "ĠAnn": 6291,
      "Ġteardrops": 6292,
      "Ġsearchin": 6293,
      "Ġbutterfly": 6294,
      "ĠBreathe": 6295,
      "ued": 6296,
      "Ġtid": 6297,
      "har": 6298,
      "asion": 6299,
      "ĠCri": 6300,
      "ĠLyn": 6301,
      "ĠDiv": 6302,
      "ĠGrow": 6303,
      "Ġfriendly": 6304,
      "Ġsetting": 6305,
      "Ġcovers": 6306,
      "ogue": 6307,
      "ilyn": 6308,
      "Ġtreated": 6309,
      "Ġweeks": 6310,
      "Ġcastle": 6311,
      "ĠHanging": 6312,
      "Ġhooked": 6313,
      "ĠWorking": 6314,
      "Ġslept": 6315,
      "Ġcaptain": 6316,
      "ylan": 6317,
      "gment": 6318,
      "ora": 6319,
      "Ġoper": 6320,
      "otic": 6321,
      "ĠMess": 6322,
      "Ġjohn": 6323,
      "ĠNaz": 6324,
      "ĠRod": 6325,
      "Ġspeaks": 6326,
      "Ġvib": 6327,
      "ĠSongs": 6328,
      "Ġsymph": 6329,
      "Ġdisgrace": 6330,
      "Why": 6331,
      "bone": 6332,
      "tic": 6333,
      "Ġtim": 6334,
      "Ġdues": 6335,
      "Ġsting": 6336,
      "Ġalb": 6337,
      "ĠRush": 6338,
      "ideo": 6339,
      "Ġate": 6340,
      "oyd": 6341,
      "ĠYours": 6342,
      "Ġtwilight": 6343,
      "ails": 6344,
      "Ġcrib": 6345,
      "Ġfantas": 6346,
      "Ġpossess": 6347,
      "Ġvisions": 6348,
      "ĠFunny": 6349,
      "Ġintentions": 6350,
      "aire": 6351,
      "li": 6352,
      "sb": 6353,
      "Ġdue": 6354,
      "Ġgrou": 6355,
      "Ġthread": 6356,
      "atra": 6357,
      "ĠBay": 6358,
      "Ġum": 6359,
      "ĠNi": 6360,
      "eline": 6361,
      "ĠSpanish": 6362,
      "Ġgreater": 6363,
      "Ġwhispers": 6364,
      "Ġhealth": 6365,
      "Ġsuperstar": 6366,
      "Ġconcrete": 6367,
      "Ġchicks": 6368,
      "Ġcocaine": 6369,
      "good": 6370,
      "zer": 6371,
      "Ġdwell": 6372,
      "estern": 6373,
      "Ġstraw": 6374,
      "ĠHip": 6375,
      "ĠCraw": 6376,
      "ĠDylan": 6377,
      "stone": 6378,
      "ĠJune": 6379,
      "olo": 6380,
      "Ġvill": 6381,
      "Ġbubble": 6382,
      "Ġwatchin": 6383,
      "Ġtomb": 6384,
      "Ġmeets": 6385,
      "Ġaware": 6386,
      "ĠTimes": 6387,
      "ĠMarley": 6388,
      "ĠMarilyn": 6389,
      "Ġexplode": 6390,
      "Ġjuice": 6391,
      "ING": 6392,
      "lit": 6393,
      "uper": 6394,
      "ona": 6395,
      "Ġmead": 6396,
      "ĠShor": 6397,
      "Ġhost": 6398,
      "Ġstack": 6399,
      "rica": 6400,
      "ĠFast": 6401,
      "igher": 6402,
      "Ġplate": 6403,
      "Ġvirgin": 6404,
      "Ġsinger": 6405,
      "Ġputs": 6406,
      "Ġpockets": 6407,
      "ĠReaching": 6408,
      "lights": 6409,
      "Ġleader": 6410,
      "ianne": 6411,
      "Ġjumping": 6412,
      "Ġpraises": 6413,
      "viour": 6414,
      "Ġfrightened": 6415,
      "imental": 6416,
      "But": 6417,
      "yy": 6418,
      "ĠSoft": 6419,
      "ĠBew": 6420,
      "urity": 6421,
      "ĠFer": 6422,
      "stairs": 6423,
      "ĠJah": 6424,
      "ĠPos": 6425,
      "fered": 6426,
      "Ġsidewalk": 6427,
      "Ġhandsome": 6428,
      "ĠAtl": 6429,
      "Ġhumble": 6430,
      "Ġcharms": 6431,
      "rified": 6432,
      "fish": 6433,
      "rome": 6434,
      "Ġlame": 6435,
      "ĠTired": 6436,
      "Ġthreat": 6437,
      "ede": 6438,
      "ĠHoo": 6439,
      "ĠEd": 6440,
      "ctions": 6441,
      "ember": 6442,
      "Ġlotta": 6443,
      "Ġcompromise": 6444,
      "Ġbullets": 6445,
      "Ġtenderness": 6446,
      "Ġcourt": 6447,
      "Ġlace": 6448,
      "Ġlung": 6449,
      "Ġdread": 6450,
      "Ġfem": 6451,
      "Ġweird": 6452,
      "ĠLies": 6453,
      "oline": 6454,
      "Ġshower": 6455,
      "Ġdaily": 6456,
      "law": 6457,
      "Ġawait": 6458,
      "ĠTurned": 6459,
      "Ġyearning": 6460,
      "ĠExc": 6461,
      "Ġpurpose": 6462,
      "Ġfigured": 6463,
      "Ġholler": 6464,
      "Ġprepared": 6465,
      "bra": 6466,
      "ĠTem": 6467,
      "Ġpit": 6468,
      "ĠSick": 6469,
      "Ġstud": 6470,
      "ĠOce": 6471,
      "ĠDro": 6472,
      "Ġjoint": 6473,
      "ĠGro": 6474,
      "Ġspo": 6475,
      "Ġgoodness": 6476,
      "Ġhadn": 6477,
      "Ġbreakfast": 6478,
      "ocr": 6479,
      "ĠShall": 6480,
      "ĠAmen": 6481,
      "Ġselling": 6482,
      "ĠProc": 6483,
      "Ġgifts": 6484,
      "Be": 6485,
      "mar": 6486,
      "itive": 6487,
      "ĠTakin": 6488,
      "ĠFunk": 6489,
      "Ġshepher": 6490,
      "itted": 6491,
      "Ġslips": 6492,
      "iggy": 6493,
      "Ġcute": 6494,
      "Ġpoppin": 6495,
      "ĠLights": 6496,
      "Ġbombs": 6497,
      "ini": 6498,
      "Ġsed": 6499,
      "Ġpil": 6500,
      "Ġinch": 6501,
      "ĠLenny": 6502,
      "ights": 6503,
      "ĠDad": 6504,
      "ĠDix": 6505,
      "Ġjar": 6506,
      "ellite": 6507,
      "Ġseeds": 6508,
      "Ġwhirl": 6509,
      "Ġblade": 6510,
      "ĠSold": 6511,
      "Ġflav": 6512,
      "Ġwah": 6513,
      "Ġhatred": 6514,
      "ĠWalkin": 6515,
      "ĠHaving": 6516,
      "Ġengine": 6517,
      "ickel": 6518,
      "Ġreckless": 6519,
      "Ġmour": 6520,
      "hant": 6521,
      "Ġfuss": 6522,
      "Ġfooled": 6523,
      "Ġtore": 6524,
      "Ġpublic": 6525,
      "irts": 6526,
      "Ġarise": 6527,
      "Ġchap": 6528,
      "Ġunderstands": 6529,
      "Ġhurtin": 6530,
      "Ġ12": 6531,
      "Ġtease": 6532,
      "Ġterrible": 6533,
      "Ġtower": 6534,
      "Ġcreated": 6535,
      "ĠSqueeze": 6536,
      "ĠGrab": 6537,
      "ĠLynn": 6538,
      "ĠAmy": 6539,
      "Ġbeware": 6540,
      "ĠSus": 6541,
      "ĠSell": 6542,
      "igin": 6543,
      "ĠWhose": 6544,
      "Ġbelieves": 6545,
      "Ġappre": 6546,
      "Ġstrikes": 6547,
      "ĠHalloween": 6548,
      "ĠIndian": 6549,
      "ĠAgainst": 6550,
      "Ġvisit": 6551,
      "ĠTrouble": 6552,
      "five": 6553,
      "look": 6554,
      "Ġnag": 6555,
      "ĠAnt": 6556,
      "irm": 6557,
      "Ġshack": 6558,
      "Ġparts": 6559,
      "Ġnaught": 6560,
      "gedy": 6561,
      "Ġpossible": 6562,
      "Yes": 6563,
      "tan": 6564,
      "Ġavenue": 6565,
      "Ġpy": 6566,
      "ĠSer": 6567,
      "Ġstrain": 6568,
      "ĠChes": 6569,
      "Ġrevenge": 6570,
      "hens": 6571,
      "ĠKanye": 6572,
      "Ġrabb": 6573,
      "Ġglance": 6574,
      "Ġuncle": 6575,
      "ĠVirgin": 6576,
      "Ġemb": 6577,
      "ances": 6578,
      "ĠClown": 6579,
      "Ġsails": 6580,
      "Ġcandles": 6581,
      "Ġchoir": 6582,
      "Ġcollide": 6583,
      "Ġpossib": 6584,
      "Ġwounded": 6585,
      "Ġweeping": 6586,
      "Ġfacts": 6587,
      "AM": 6588,
      "ku": 6589,
      "Ġcities": 6590,
      "itics": 6591,
      "using": 6592,
      "Ġhips": 6593,
      "Ġthigh": 6594,
      "Ġstir": 6595,
      "Ġnoon": 6596,
      "Ġblan": 6597,
      "Ġfailed": 6598,
      "ĠVel": 6599,
      "Ġlaughs": 6600,
      "Ġstrip": 6601,
      "Ġfreaky": 6602,
      "ĠOoooh": 6603,
      "ĠParty": 6604,
      "ĠHurry": 6605,
      "John": 6606,
      "iar": 6607,
      "Ġfog": 6608,
      "Ġnut": 6609,
      "Ġstall": 6610,
      "Ġrepl": 6611,
      "ically": 6612,
      "sters": 6613,
      "Ġbacks": 6614,
      "Ġprog": 6615,
      "Ġclever": 6616,
      "ĠHeavy": 6617,
      "cover": 6618,
      "Ġlawy": 6619,
      "ĠPoint": 6620,
      "ĠRomeo": 6621,
      "Ġautomatic": 6622,
      "whe": 6623,
      "Ġsim": 6624,
      "Ġgrain": 6625,
      "Ġpony": 6626,
      "Ġbent": 6627,
      "Ġstro": 6628,
      "Ġsore": 6629,
      "Ġsocial": 6630,
      "stra": 6631,
      "amin": 6632,
      "omp": 6633,
      "Ġdebt": 6634,
      "Ġconvin": 6635,
      "ĠRec": 6636,
      "ĠChristina": 6637,
      "ĠAlong": 6638,
      "Ġwinning": 6639,
      "Ġscreamin": 6640,
      "Ġ50": 6641,
      "Ġpupp": 6642,
      "ĠMorning": 6643,
      "St": 6644,
      "When": 6645,
      "rors": 6646,
      "ĠIr": 6647,
      "Ġles": 6648,
      "ĠTreat": 6649,
      "ĠWishing": 6650,
      "rive": 6651,
      "ĠSeen": 6652,
      "ĠCamp": 6653,
      "ĠMis": 6654,
      "ĠGab": 6655,
      "ĠPear": 6656,
      "Ġdaydream": 6657,
      "Ġbug": 6658,
      "Ġspending": 6659,
      "Ġmotherfucking": 6660,
      "ĠYellow": 6661,
      "Intro": 6662,
      "La": 6663,
      "Till": 6664,
      "Ġsew": 6665,
      "happy": 6666,
      "Ġgle": 6667,
      "Ġthumb": 6668,
      "ĠHy": 6669,
      "Ġreap": 6670,
      "Ġdogg": 6671,
      "unity": 6672,
      "ĠJudy": 6673,
      "Ġdial": 6674,
      "aughter": 6675,
      "Ġcrimin": 6676,
      "strumental": 6677,
      "ĠKeith": 6678,
      "Ġhabit": 6679,
      "bro": 6680,
      "raction": 6681,
      "two": 6682,
      "Ġbark": 6683,
      "ĠTor": 6684,
      "ĠWu": 6685,
      "ĠWet": 6686,
      "ĠBat": 6687,
      "ĠMind": 6688,
      "uring": 6689,
      "Ġalcohol": 6690,
      "Ġrout": 6691,
      "Ġrushing": 6692,
      "ĠProm": 6693,
      "Ġkinds": 6694,
      "ibit": 6695,
      "Ġcharge": 6696,
      "ĠWorkin": 6697,
      "Ġjuke": 6698,
      "vig": 6699,
      "uses": 6700,
      "ĠYears": 6701,
      "ĠLie": 6702,
      "indeer": 6703,
      "ĠElla": 6704,
      "byes": 6705,
      "Ġuseless": 6706,
      "Ġhaunting": 6707,
      "mission": 6708,
      "Ġbricks": 6709,
      "Ġfountain": 6710,
      "inger": 6711,
      "Ġge": 6712,
      "Ġstoned": 6713,
      "ĠNina": 6714,
      "Ġneeding": 6715,
      "Ġspite": 6716,
      "Ġwondered": 6717,
      "Ġstealing": 6718,
      "Ġbeliever": 6719,
      "ĠRox": 6720,
      "Ġparking": 6721,
      "Ġsudden": 6722,
      "Ġfarewell": 6723,
      "Ġwid": 6724,
      "ĠAc": 6725,
      "ĠSaint": 6726,
      "Ġhmm": 6727,
      "ĠHung": 6728,
      "ĠCe": 6729,
      "ends": 6730,
      "ĠFe": 6731,
      "Ġchim": 6732,
      "ouses": 6733,
      "Ġzero": 6734,
      "ĠDrown": 6735,
      "Ġstolen": 6736,
      "Ġuntrue": 6737,
      "Ġweapon": 6738,
      "alentine": 6739,
      "Ġrazor": 6740,
      "Ġmaker": 6741,
      "Ġlunch": 6742,
      "hafuck": 6743,
      "ĠCons": 6744,
      "ĠDet": 6745,
      "Ġkeepin": 6746,
      "ptember": 6747,
      "Ġhelped": 6748,
      "Ġmothers": 6749,
      "........": 6750,
      "load": 6751,
      "ĠBroad": 6752,
      "Ġvocals": 6753,
      "Ġsymphony": 6754,
      "ĠAhh": 6755,
      "Ġthou": 6756,
      "arther": 6757,
      "Ġuna": 6758,
      "ĠGord": 6759,
      "ĠJose": 6760,
      "Ġaband": 6761,
      "ĠStrait": 6762,
      "Ġfarmer": 6763,
      "ĠKeeping": 6764,
      "Ġtrippin": 6765,
      "ĠChaka": 6766,
      "Ġmisunder": 6767,
      "ĠCover": 6768,
      "ĠDixie": 6769,
      "haha": 6770,
      "Ġdoom": 6771,
      "Ġnorm": 6772,
      "Ġstrand": 6773,
      "ĠLose": 6774,
      "Ġrejo": 6775,
      "oody": 6776,
      "ĠPour": 6777,
      "ĠIng": 6778,
      "Ġbreed": 6779,
      "ĠChuck": 6780,
      "Ġcarol": 6781,
      "Ġhelps": 6782,
      "istence": 6783,
      "ocolate": 6784,
      "ĠMarianne": 6785,
      "ĠStevie": 6786,
      "Ġforgiven": 6787,
      "ĠMcG": 6788,
      "Ġgovernment": 6789,
      "There": 6790,
      "port": 6791,
      "rated": 6792,
      "Ġako": 6793,
      "reme": 6794,
      "ĠTer": 6795,
      "ĠHigher": 6796,
      "ĠLisa": 6797,
      "ĠMane": 6798,
      "enc": 6799,
      "choes": 6800,
      "stop": 6801,
      "aves": 6802,
      "Ġtwelve": 6803,
      "Ġproper": 6804,
      "Ġcheese": 6805,
      "ĠRunnin": 6806,
      "Ġconnection": 6807,
      "Ġwealth": 6808,
      "ĠPearl": 6809,
      "gri": 6810,
      "kind": 6811,
      "long": 6812,
      "made": 6813,
      "Ġsteam": 6814,
      "ĠMaster": 6815,
      "Ġterror": 6816,
      "Ġmicro": 6817,
      "Ġcondition": 6818,
      "ĠGolden": 6819,
      "ĠCindy": 6820,
      "Ġinterest": 6821,
      "Ġcredit": 6822,
      "every": 6823,
      "ffect": 6824,
      "tz": 6825,
      "Ġtape": 6826,
      "Ġmall": 6827,
      "usions": 6828,
      "Ġpiano": 6829,
      "ĠBush": 6830,
      "ĠHuh": 6831,
      "ĠCube": 6832,
      "ali": 6833,
      "Ġrele": 6834,
      "umps": 6835,
      "areth": 6836,
      "ĠGods": 6837,
      "ĠReba": 6838,
      "Ġdizzy": 6839,
      "ĠTruth": 6840,
      "Ġporch": 6841,
      "ĠRihanna": 6842,
      "Ġdeaf": 6843,
      "Some": 6844,
      "hip": 6845,
      "Ġdang": 6846,
      "ĠWa": 6847,
      "Ġthump": 6848,
      "Ġkar": 6849,
      "ĠOF": 6850,
      "ĠMic": 6851,
      "ĠDig": 6852,
      "ĠOhhh": 6853,
      "Ġbutton": 6854,
      "ĠKhan": 6855,
      "Ġanyhow": 6856,
      "Ġbreast": 6857,
      "onda": 6858,
      "Ġsights": 6859,
      "ĠSingin": 6860,
      "Ġzoo": 6861,
      "ĠLouie": 6862,
      "Ġfreaks": 6863,
      "Ġenter": 6864,
      "ras": 6865,
      "rack": 6866,
      "Ġsort": 6867,
      "Ġbail": 6868,
      "Ġcore": 6869,
      "Ġgall": 6870,
      "Ġguts": 6871,
      "ĠWat": 6872,
      "Ġmyster": 6873,
      "ĠMolly": 6874,
      "Ġreaction": 6875,
      "raz": 6876,
      "Ġheartaches": 6877,
      "Ġprov": 6878,
      "izing": 6879,
      "ĠMariah": 6880,
      "ĠLovin": 6881,
      "Ġbowl": 6882,
      "ĠKilling": 6883,
      "EN": 6884,
      "IM": 6885,
      "Ġtumbling": 6886,
      "anny": 6887,
      "Ġinst": 6888,
      "rog": 6889,
      "oms": 6890,
      "Ġusing": 6891,
      "ĠKate": 6892,
      "ĠKris": 6893,
      "ĠStuck": 6894,
      "apan": 6895,
      "Ġstruck": 6896,
      "Ġblinded": 6897,
      "ĠFleet": 6898,
      "ynam": 6899,
      "ĠPoison": 6900,
      "Ġarrive": 6901,
      "erella": 6902,
      "ĠCooper": 6903,
      "ĠGordon": 6904,
      "On": 6905,
      "zes": 6906,
      "oun": 6907,
      "Ġped": 6908,
      "asis": 6909,
      "Ġevent": 6910,
      "Ġknowledge": 6911,
      "Ġshr": 6912,
      "Ġrange": 6913,
      "ĠStew": 6914,
      "Ġdiddle": 6915,
      "Ġsleepy": 6916,
      "ĠQuiet": 6917,
      "Ġclimbing": 6918,
      "Ġbooty": 6919,
      "ĠBuy": 6920,
      "ĠNicki": 6921,
      "ĠMagic": 6922,
      "Ġdigging": 6923,
      "Ġstormy": 6924,
      "ded": 6925,
      "vity": 6926,
      "Ġdah": 6927,
      "esus": 6928,
      "ĠWash": 6929,
      "asp": 6930,
      "ĠNice": 6931,
      "ĠGer": 6932,
      "Ġshield": 6933,
      "Ġnoticed": 6934,
      "oma": 6935,
      "Ġflown": 6936,
      "Ġflashing": 6937,
      "ently": 6938,
      "Ġscary": 6939,
      "kened": 6940,
      "Ġfrust": 6941,
      "ĠPlus": 6942,
      "Ġdusty": 6943,
      "ĠPretend": 6944,
      "Ġpanic": 6945,
      "Ġsurface": 6946,
      "Ġpresident": 6947,
      "Ġphysical": 6948,
      "Ġnaughty": 6949,
      "sha": 6950,
      "Ġfiddle": 6951,
      "ĠMot": 6952,
      "ĠMach": 6953,
      "ĠGill": 6954,
      "Ġsmash": 6955,
      "ĠCliff": 6956,
      "sweet": 6957,
      "ĠAfraid": 6958,
      "ĠThinkin": 6959,
      "ĠDrift": 6960,
      "ĠRoses": 6961,
      "ĠBoltz": 6962,
      "mighty": 6963,
      "Ġfocus": 6964,
      "ribe": 6965,
      "ached": 6966,
      "ĠEt": 6967,
      "Ġeverytime": 6968,
      "mson": 6969,
      "Ġdisaster": 6970,
      "ĠDec": 6971,
      "Ġpaying": 6972,
      "Ġwhether": 6973,
      "ĠComp": 6974,
      "Ġsending": 6975,
      "Ġsatisfaction": 6976,
      "Ġbathroom": 6977,
      "whoa": 6978,
      "ĠDusty": 6979,
      "ĠModern": 6980,
      "Ġappreci": 6981,
      "some": 6982,
      "Ġtiger": 6983,
      "Ġcust": 6984,
      "Ġpul": 6985,
      "utation": 6986,
      "irk": 6987,
      "Ġsociety": 6988,
      "ĠRoss": 6989,
      "ĠRandy": 6990,
      "Ġlawn": 6991,
      "Ġrainbows": 6992,
      "Ġkills": 6993,
      "Ġrooms": 6994,
      "ĠSeptember": 6995,
      "ĠIndigo": 6996,
      "ĠPerhaps": 6997,
      "spoken": 6998,
      "Ġholla": 6999,
      "ĠLaughing": 7000,
      "Ġinsec": 7001,
      "AR": 7002,
      "CHORUS": 7003,
      "cess": 7004,
      "kers": 7005,
      "ĠSimp": 7006,
      "ĠCave": 7007,
      "ĠLuther": 7008,
      "ĠMont": 7009,
      "Ġreindeer": 7010,
      "rael": 7011,
      "Ġwhom": 7012,
      "ĠKent": 7013,
      "ĠVince": 7014,
      "ĠGets": 7015,
      "Ġbrush": 7016,
      "lines": 7017,
      "Ġwitch": 7018,
      "Ġjumpin": 7019,
      "Ġbelief": 7020,
      "abbath": 7021,
      "Ġteenage": 7022,
      "ĠStewart": 7023,
      "Ah": 7024,
      "aid": 7025,
      "Ġsof": 7026,
      "Ġfifteen": 7027,
      "Ġga": 7028,
      "ashes": 7029,
      "Ġchoke": 7030,
      "empl": 7031,
      "Ġchildhood": 7032,
      "ĠOrb": 7033,
      "Ġfights": 7034,
      "Ġsett": 7035,
      "Ġseconds": 7036,
      "Ġfinest": 7037,
      "ĠGoodnight": 7038,
      "Ġblessing": 7039,
      "ĠElton": 7040,
      "ĠBillie": 7041,
      "Ġhustle": 7042,
      "Ġtone": 7043,
      "ĠIggy": 7044,
      "Ġder": 7045,
      "isin": 7046,
      "Ġpad": 7047,
      "ĠThee": 7048,
      "ĠCre": 7049,
      "indi": 7050,
      "Ġalthough": 7051,
      "Ġnail": 7052,
      "Ġcracks": 7053,
      "Ġprod": 7054,
      "Ġfuneral": 7055,
      "ĠAtt": 7056,
      "Ġdances": 7057,
      "ĠWasn": 7058,
      "ĠUnderstand": 7059,
      "Ġglasses": 7060,
      "ĠHarris": 7061,
      "ugged": 7062,
      "ĠLightfoot": 7063,
      "ĠLoneliness": 7064,
      "Ġmental": 7065,
      "ĠSpringsteen": 7066,
      "Ġjealousy": 7067,
      "ĠClear": 7068,
      "Ġobvious": 7069,
      "Ġvacation": 7070,
      "ĠMatthe": 7071,
      "Ġlatest": 7072,
      "ĠRogers": 7073,
      "ĠNazareth": 7074,
      "ĠOcean": 7075,
      "Uh": 7076,
      "bet": 7077,
      "uge": 7078,
      "ndi": 7079,
      "ĠSide": 7080,
      "ĠSign": 7081,
      "ĠBing": 7082,
      "ĠBull": 7083,
      "Ġdomin": 7084,
      "Ġgoal": 7085,
      "ĠFrench": 7086,
      "ĠFabolous": 7087,
      "Ġroots": 7088,
      "Ġplant": 7089,
      "Ġabuse": 7090,
      "entire": 7091,
      "osh": 7092,
      "Ġprince": 7093,
      "Ġwarri": 7094,
      "ĠAnybody": 7095,
      "ĠChasing": 7096,
      "Ġdisappeared": 7097,
      "chell": 7098,
      "Ġhalls": 7099,
      "ĠHappiness": 7100,
      "ĠHuman": 7101,
      "Every": 7102,
      "Ġven": 7103,
      "Ġsaints": 7104,
      "Ġbast": 7105,
      "hay": 7106,
      "esome": 7107,
      "Ġpunch": 7108,
      "Ġeduc": 7109,
      "Ġdoot": 7110,
      "Ġvine": 7111,
      "Ġbroad": 7112,
      "Ġfinished": 7113,
      "Ġthrills": 7114,
      "ĠMcentire": 7115,
      "Ġaccident": 7116,
      "ĠEngland": 7117,
      "ĠPresley": 7118,
      "ĠApril": 7119,
      "ĠJoni": 7120,
      "ĠFleetwood": 7121,
      "Ġmaterial": 7122,
      "Ġchat": 7123,
      "Ġnea": 7124,
      "ĠAer": 7125,
      "ĠBigg": 7126,
      "rock": 7127,
      "ĠCor": 7128,
      "ĠMm": 7129,
      "ĠMit": 7130,
      "rict": 7131,
      "ĠThou": 7132,
      "ĠKim": 7133,
      "Ġstopping": 7134,
      "ĠVict": 7135,
      "Ġcrumble": 7136,
      "Ġfooling": 7137,
      "Ġchem": 7138,
      "ughters": 7139,
      "Ġmessin": 7140,
      "Ġthrowing": 7141,
      "ĠScor": 7142,
      "ĠLover": 7143,
      "Ġladder": 7144,
      "Ġdepth": 7145,
      "Ġescap": 7146,
      "ĠMorris": 7147,
      "Ġmajor": 7148,
      "Ġties": 7149,
      "ĠAah": 7150,
      "rix": 7151,
      "ĠSand": 7152,
      "ĠSent": 7153,
      "ĠSkin": 7154,
      "ĠCandy": 7155,
      "ĠMell": 7156,
      "Ġrearr": 7157,
      "ĠJer": 7158,
      "Ġsav": 7159,
      "ĠAllan": 7160,
      "ĠKat": 7161,
      "ĠRead": 7162,
      "lessly": 7163,
      "ĠBackstreet": 7164,
      "Ġwandering": 7165,
      "hearted": 7166,
      "ĠSpringfield": 7167,
      "Ġchampion": 7168,
      "ennifer": 7169,
      "ĠMcCart": 7170,
      "ih": 7171,
      "Ġmart": 7172,
      "itars": 7173,
      "Ġpip": 7174,
      "rib": 7175,
      "Ġeffect": 7176,
      "ĠCow": 7177,
      "ĠCoe": 7178,
      "ĠMine": 7179,
      "ĠNelson": 7180,
      "Ġneat": 7181,
      "Ġraging": 7182,
      "Ġwaist": 7183,
      "Ġdaughters": 7184,
      "Ġsincere": 7185,
      "ĠChains": 7186,
      "ĠSmoke": 7187,
      "Ġtravell": 7188,
      "Ġfrag": 7189,
      "ĠJovi": 7190,
      "Ġlipstick": 7191,
      "Ġpearls": 7192,
      "ĠCinderella": 7193,
      "Ġliberty": 7194,
      "Ġdoubts": 7195,
      "Ġdestruction": 7196,
      "bor": 7197,
      "con": 7198,
      "nam": 7199,
      "Ġtro": 7200,
      "Ġbees": 7201,
      "ĠAv": 7202,
      "Ġpeep": 7203,
      "ĠWed": 7204,
      "illion": 7205,
      "ĠCost": 7206,
      "Ġreplace": 7207,
      "ĠFred": 7208,
      "ĠButter": 7209,
      "ĠEnt": 7210,
      "Ġbrew": 7211,
      "Ġcarpet": 7212,
      "Ġshotgun": 7213,
      "ĠGrateful": 7214,
      "Ġcrooked": 7215,
      "ĠOrbison": 7216,
      "For": 7217,
      "lers": 7218,
      "Ġsane": 7219,
      "Ġsaint": 7220,
      "reo": 7221,
      "ĠSouthern": 7222,
      "verage": 7223,
      "Ġthru": 7224,
      "ĠNah": 7225,
      "ĠGaga": 7226,
      "ĠFell": 7227,
      "sty": 7228,
      "ĠJoin": 7229,
      "Ġsailed": 7230,
      "ĠEu": 7231,
      "Ġages": 7232,
      "ĠKrist": 7233,
      "tage": 7234,
      "ĠChili": 7235,
      "Ġkissin": 7236,
      "ĠAnywhere": 7237,
      "Ġriches": 7238,
      "ĠWaylon": 7239,
      "Ġtraveled": 7240,
      "ĠJealous": 7241,
      "ĠCountry": 7242,
      "itcase": 7243,
      "ĠCarey": 7244,
      "ĠSinatra": 7245,
      "ĠBuffett": 7246,
      "Ġlungs": 7247,
      "cent": 7248,
      "hm": 7249,
      "lou": 7250,
      "hell": 7251,
      "Ġnuh": 7252,
      "Ġpon": 7253,
      "Ġhush": 7254,
      "ĠBust": 7255,
      "acket": 7256,
      "ĠManson": 7257,
      "Ġrely": 7258,
      "ĠGlen": 7259,
      "Ġoverd": 7260,
      "Ġvideo": 7261,
      "redible": 7262,
      "Ġgloom": 7263,
      "Ġgrateful": 7264,
      "Ġprey": 7265,
      "Ġsaddle": 7266,
      "Ġrude": 7267,
      "Ġthankful": 7268,
      "ĠAdam": 7269,
      "Ġamazed": 7270,
      "ĠMadonna": 7271,
      "Ġexpress": 7272,
      "ĠLouisiana": 7273,
      "ĠPriest": 7274,
      "ĠBarbra": 7275,
      "Ġjewel": 7276,
      "ĠCros": 7277,
      "Ġindepend": 7278,
      "ĠBrooklyn": 7279,
      "ĠEarly": 7280,
      "ĠKentucky": 7281,
      "ĠMitchell": 7282,
      "Is": 7283,
      "Sh": 7284,
      "ivil": 7285,
      "ki": 7286,
      "Ġpier": 7287,
      "riel": 7288,
      "Ġhides": 7289,
      "Ġego": 7290,
      "ĠOtis": 7291,
      "ĠLL": 7292,
      "alo": 7293,
      "ĠJen": 7294,
      "ĠEden": 7295,
      "Ġhomes": 7296,
      "Ġslight": 7297,
      "ousin": 7298,
      "Ġguiding": 7299,
      "Ġsund": 7300,
      "Ġtech": 7301,
      "ĠShawty": 7302,
      "Ġfella": 7303,
      "ĠMarie": 7304,
      "ĠBritney": 7305,
      "ĠHaven": 7306,
      "Ġsolution": 7307,
      "Ġbucks": 7308,
      "ĠBowie": 7309,
      "ĠRamones": 7310,
      "levard": 7311,
      "ĠSupply": 7312,
      "Ġprincess": 7313,
      "\".": 7314,
      "birds": 7315,
      "rac": 7316,
      "Ġtables": 7317,
      "Ġcode": 7318,
      "itical": 7319,
      "Ġnur": 7320,
      "roit": 7321,
      "ĠLA": 7322,
      "ĠMark": 7323,
      "Ġjive": 7324,
      "rah": 7325,
      "ĠFever": 7326,
      "Ġwhatcha": 7327,
      "ieber": 7328,
      "ĠJama": 7329,
      "inking": 7330,
      "Ġslap": 7331,
      "Ġovercome": 7332,
      "ĠIsrael": 7333,
      "Ġfoolin": 7334,
      "ĠPeppers": 7335,
      "Ġmarket": 7336,
      "Ġdecisions": 7337,
      "Ġdestination": 7338,
      "Ġlaws": 7339,
      "ĠPrine": 7340,
      "ylie": 7341,
      "Ġlyrics": 7342,
      "Ġtorture": 7343,
      "ynamite": 7344,
      "ivin": 7345,
      "resh": 7346,
      "Ġopin": 7347,
      "ĠCou": 7348,
      "ĠCrow": 7349,
      "Ġgotten": 7350,
      "Ġsho": 7351,
      "ĠThunder": 7352,
      "ĠKorn": 7353,
      "ĠNoel": 7354,
      "berg": 7355,
      "ĠBabylon": 7356,
      "ĠJesse": 7357,
      "laim": 7358,
      "ĠBette": 7359,
      "Ġfellas": 7360,
      "Ġtrains": 7361,
      "Ġearn": 7362,
      "ĠFlow": 7363,
      "Ġtastes": 7364,
      "ĠLovers": 7365,
      "eluia": 7366,
      "Ġsentimental": 7367,
      "offerson": 7368,
      "ĠEmmy": 7369,
      "Ġcreeping": 7370,
      "ĠLearn": 7371,
      "ĠFamily": 7372,
      "Ġic": 7373,
      "Ġske": 7374,
      "Ġgam": 7375,
      "ĠWoke": 7376,
      "Ġthug": 7377,
      "Ġrevol": 7378,
      "ĠPast": 7379,
      "ĠEric": 7380,
      "ĠKylie": 7381,
      "Ġbeggin": 7382,
      "Ġcolour": 7383,
      "chant": 7384,
      "ĠParadise": 7385,
      "Ġsurrounds": 7386,
      "Ġcaused": 7387,
      "Ġninety": 7388,
      "ĠShadows": 7389,
      "Ġgathered": 7390,
      "ĠChesney": 7391,
      "ĠKristofferson": 7392,
      "von": 7393,
      "vitz": 7394,
      "Ġfoll": 7395,
      "ĠAgu": 7396,
      "oooh": 7397,
      "ĠCoc": 7398,
      "ĠMil": 7399,
      "Ġupset": 7400,
      "chy": 7401,
      "ifting": 7402,
      "ĠJourney": 7403,
      "ĠRet": 7404,
      "Ġroot": 7405,
      "Ġdeck": 7406,
      "Ġslick": 7407,
      "Ġpoints": 7408,
      "ancing": 7409,
      "ĠBlame": 7410,
      "Ġdefend": 7411,
      "Ġselfish": 7412,
      "Ġswinging": 7413,
      "Ġprotection": 7414,
      "ĠGrandma": 7415,
      "ĠScreaming": 7416,
      "Ġcurtains": 7417,
      "Ġservice": 7418,
      "Ġodds": 7419,
      "senger": 7420,
      "ĠMorrissey": 7421,
      "ĠEmmylou": 7422,
      "CK": 7423,
      "Ġcoo": 7424,
      "ĠSuff": 7425,
      "Ġlif": 7426,
      "ĠBes": 7427,
      "ĠMoody": 7428,
      "ĠChina": 7429,
      "ĠViolent": 7430,
      "Ġhating": 7431,
      "ĠSeeing": 7432,
      "appa": 7433,
      "ĠSex": 7434,
      "ĠFlat": 7435,
      "ĠThanks": 7436,
      "chestra": 7437,
      "mbre": 7438,
      "Ġreputation": 7439,
      "ĠMaiden": 7440,
      "Ġspotlight": 7441,
      "Ġboun": 7442,
      "ĠRobbie": 7443,
      "ĠWinter": 7444,
      "ĠBells": 7445,
      "Ġconcerned": 7446,
      "Ġribbons": 7447,
      "ĠCloser": 7448,
      "ĠMcCartney": 7449,
      "bop": 7450,
      "tight": 7451,
      "vision": 7452,
      "Ġtend": 7453,
      "ĠImp": 7454,
      "Ġmult": 7455,
      "Ġcoke": 7456,
      "Ġbeds": 7457,
      "ĠYank": 7458,
      "ĠMike": 7459,
      "Ġchrome": 7460,
      "ĠSomethin": 7461,
      "anged": 7462,
      "ĠUri": 7463,
      "ĠDog": 7464,
      "Ġvoid": 7465,
      "ĠBetty": 7466,
      "Ġmarch": 7467,
      "ivia": 7468,
      "ĠRollin": 7469,
      "boys": 7470,
      "Ġdivide": 7471,
      "Ġreminds": 7472,
      "Ġnaturally": 7473,
      "Ġarrived": 7474,
      "ĠBenz": 7475,
      "Ġtotal": 7476,
      "ĠSpinning": 7477,
      "cast": 7478,
      "fo": 7479,
      "ycle": 7480,
      "Ġbob": 7481,
      "Ġobey": 7482,
      "ĠBieber": 7483,
      "Ġcann": 7484,
      "ĠMC": 7485,
      "ĠGO": 7486,
      "Ġnotion": 7487,
      "Ġrang": 7488,
      "Ġracing": 7489,
      "Ġmansion": 7490,
      "Ġspray": 7491,
      "Ġsuits": 7492,
      "ĠShot": 7493,
      "Ġsinners": 7494,
      "Ġmisty": 7495,
      "Ġtemp": 7496,
      "Ġinformation": 7497,
      "Ġcreatures": 7498,
      "Ġfox": 7499,
      "ĠMinogue": 7500,
      "ĠJulie": 7501,
      "ĠKravitz": 7502,
      "osmith": 7503,
      "Ġmeadow": 7504,
      "Girl": 7505,
      "ez": 7506,
      "gad": 7507,
      "ios": 7508,
      "sive": 7509,
      "your": 7510,
      "Ġti": 7511,
      "Ġtag": 7512,
      "Ġdrew": 7513,
      "Ġdiff": 7514,
      "Ġfits": 7515,
      "Ġcos": 7516,
      "Ġgown": 7517,
      "Ġgutter": 7518,
      "Ġnest": 7519,
      "ĠWomen": 7520,
      "Ġinner": 7521,
      "Ġhunt": 7522,
      "ĠGees": 7523,
      "Ġovernight": 7524,
      "Ġoverfl": 7525,
      "Ġdarker": 7526,
      "ondition": 7527,
      "Ġboats": 7528,
      "Ġhangs": 7529,
      "Ġfellow": 7530,
      "boat": 7531,
      "Ġindeed": 7532,
      "ĠSurely": 7533,
      "Ġstomach": 7534,
      "ulfill": 7535,
      "Ġdefeat": 7536,
      "ĠInsane": 7537,
      "ĠBeware": 7538,
      "ĠAerosmith": 7539,
      "ĠAguil": 7540,
      "dit": 7541,
      "Ġax": 7542,
      "Ġavo": 7543,
      "ĠTH": 7544,
      "ĠWee": 7545,
      "ĠSabbath": 7546,
      "ĠHE": 7547,
      "Ġknowin": 7548,
      "ĠMina": 7549,
      "ĠNuman": 7550,
      "Ġups": 7551,
      "Ġnotes": 7552,
      "immy": 7553,
      "Ġgoodbyes": 7554,
      "Ġcleare": 7555,
      "Ġlessons": 7556,
      "Ġcomplicated": 7557,
      "Ġmelting": 7558,
      "Ġcease": 7559,
      "ception": 7560,
      "ĠJimi": 7561,
      "belie": 7562,
      "Ġgentlemen": 7563,
      "Ġbasement": 7564,
      "ĠScorp": 7565,
      ")]": 7566,
      "ura": 7567,
      "Ġgee": 7568,
      "Ġhouses": 7569,
      "ĠBest": 7570,
      "ĠBuck": 7571,
      "ĠHush": 7572,
      "ĠMed": 7573,
      "ĠReed": 7574,
      "Ġbackwards": 7575,
      "ĠKinks": 7576,
      "ĠStatus": 7577,
      "ieves": 7578,
      "Ġscience": 7579,
      "thern": 7580,
      "Ġsuitcase": 7581,
      "Ġexistence": 7582,
      "Ġwonderin": 7583,
      "Ġdeser": 7584,
      "ĠGoes": 7585,
      "ĠSayin": 7586,
      "Ġredee": 7587,
      "Ġpulls": 7588,
      "ĠComo": 7589,
      "ĠBringing": 7590,
      "Ġfactory": 7591,
      "atinum": 7592,
      "Ġcreature": 7593,
      "Ġconstantly": 7594,
      "encamp": 7595,
      "ĠMatthews": 7596,
      "ĠMellencamp": 7597,
      "40": 7598,
      "inary": 7599,
      "Ġfry": 7600,
      "Ġfarther": 7601,
      "Ġgor": 7602,
      "ĠAma": 7603,
      "Ġhail": 7604,
      "ĠMode": 7605,
      "onel": 7606,
      "ĠDressed": 7607,
      "ĠJennifer": 7608,
      "Ġsplend": 7609,
      "Ġglimp": 7610,
      "Ġsteppin": 7611,
      "Ġstarry": 7612,
      "Ġgrowin": 7613,
      "Ġcounty": 7614,
      "ibig": 7615,
      "Ġplead": 7616,
      "stein": 7617,
      "ĠCarly": 7618,
      "Ġreturning": 7619,
      "ĠHarlem": 7620,
      "ĠConway": 7621,
      "ĠHeads": 7622,
      "ĠFresh": 7623,
      "ĠDarkness": 7624,
      "Ġglimpse": 7625,
      "bing": 7626,
      "iac": 7627,
      "wr": 7628,
      "Ġace": 7629,
      "Ġlog": 7630,
      "omed": 7631,
      "Ġstair": 7632,
      "Ġweb": 7633,
      "ĠGather": 7634,
      "ĠGhost": 7635,
      "elle": 7636,
      "Ġspeech": 7637,
      "Ġorange": 7638,
      "Ġorigin": 7639,
      "ĠHoward": 7640,
      "nings": 7641,
      "Ġunwind": 7642,
      "apped": 7643,
      "Ġpicking": 7644,
      "Ġmommy": 7645,
      "ĠWarm": 7646,
      "Ġyeh": 7647,
      "ĠColor": 7648,
      "Ġrotten": 7649,
      "ĠUsher": 7650,
      "Ġalbum": 7651,
      "aur": 7652,
      "gl": 7653,
      "ij": 7654,
      "mun": 7655,
      "see": 7656,
      "Ġfaced": 7657,
      "Ġfasc": 7658,
      "Ġcaus": 7659,
      "anne": 7660,
      "ĠSar": 7661,
      "ĠSant": 7662,
      "attered": 7663,
      "utch": 7664,
      "ĠHeep": 7665,
      "ĠOzzy": 7666,
      "Ġshift": 7667,
      "Ġalien": 7668,
      "cking": 7669,
      "Ġblur": 7670,
      "ourne": 7671,
      "Ġdeb": 7672,
      "Ġwinding": 7673,
      "ĠClub": 7674,
      "Ġperfection": 7675,
      "Ġfreight": 7676,
      "alen": 7677,
      "ĠQuo": 7678,
      "Ġtragedy": 7679,
      "Ġballin": 7680,
      "Ġcommun": 7681,
      "ĠMonk": 7682,
      "Ġchoices": 7683,
      "ĠBolton": 7684,
      "ĠCaptain": 7685,
      "ĠCampbell": 7686,
      "ĠUriah": 7687,
      "ĠScorpions": 7688,
      "iant": 7689,
      "Ġwakes": 7690,
      "rect": 7691,
      "Ġdive": 7692,
      "eeee": 7693,
      "ĠAvenue": 7694,
      "ĠWanda": 7695,
      "ĠHiding": 7696,
      "Ġalarm": 7697,
      "ĠPil": 7698,
      "ĠRub": 7699,
      "Ġmanger": 7700,
      "Ġwaving": 7701,
      "peche": 7702,
      "ĠSpears": 7703,
      "ĠDepeche": 7704,
      "Ġmaid": 7705,
      "Ġkicking": 7706,
      "ĠConn": 7707,
      "ĠCrack": 7708,
      "Ġelev": 7709,
      "ĠDrinking": 7710,
      "Ġbeef": 7711,
      "Ġapologize": 7712,
      "Ġappreciate": 7713,
      "ĠMinaj": 7714,
      "cat": 7715,
      "nival": 7716,
      "ĠId": 7717,
      "reg": 7718,
      "nds": 7719,
      "Ġcart": 7720,
      "ayer": 7721,
      "ĠAcc": 7722,
      "ĠMiley": 7723,
      "ĠFitz": 7724,
      "ĠPack": 7725,
      "ĠPsy": 7726,
      "ĠRum": 7727,
      "olute": 7728,
      "Ġguitars": 7729,
      "Ġputtin": 7730,
      "Ġpartner": 7731,
      "Ġhated": 7732,
      "ĠTwitty": 7733,
      "Ġsands": 7734,
      "Ġfathers": 7735,
      "ĠExpl": 7736,
      "Ġreply": 7737,
      "fety": 7738,
      "Ġglowing": 7739,
      "Ġbusted": 7740,
      "Ġshopping": 7741,
      "Ġobsc": 7742,
      "ĠLosing": 7743,
      "Ġalibi": 7744,
      "ĠCrosby": 7745,
      "ES": 7746,
      "kaw": 7747,
      "uer": 7748,
      "will": 7749,
      "Ġaye": 7750,
      "Ġlu": 7751,
      "Ġfab": 7752,
      "isco": 7753,
      "owed": 7754,
      "Ġpir": 7755,
      "ĠWit": 7756,
      "Ġrear": 7757,
      "ĠFare": 7758,
      "ĠSty": 7759,
      "ational": 7760,
      "Ġdoorway": 7761,
      "plete": 7762,
      "Ġwilder": 7763,
      "ĠNewton": 7764,
      "Ġappe": 7765,
      "olene": 7766,
      "gerald": 7767,
      "ĠHarrison": 7768,
      "Ġsticks": 7769,
      "Ġclimbed": 7770,
      "ĠPhish": 7771,
      "ĠSimone": 7772,
      "Ġmodel": 7773,
      "Ġreveal": 7774,
      "Ġgrief": 7775,
      "ĠJuliet": 7776,
      "Ġallowed": 7777,
      "Ġviol": 7778,
      "Ġbalance": 7779,
      "Ġcruise": 7780,
      "ĠBroadway": 7781,
      "ĠFitzgerald": 7782,
      "AS": 7783,
      "OM": 7784,
      "call": 7785,
      "was": 7786,
      "orts": 7787,
      "Ġpee": 7788,
      "ĠWo": 7789,
      "ĠWrap": 7790,
      "ĠCrows": 7791,
      "ĠDu": 7792,
      "ences": 7793,
      "ĠRu": 7794,
      "ulation": 7795,
      "ohoh": 7796,
      "Ġstayin": 7797,
      "Ġpainting": 7798,
      "Ġwonderland": 7799,
      "Ġ24": 7800,
      "Ġlaughin": 7801,
      "ĠShame": 7802,
      "Ġgladly": 7803,
      "Ġkickin": 7804,
      "ĠGlee": 7805,
      "Ġtemple": 7806,
      "ĠCarolina": 7807,
      "Ġremem": 7808,
      "ĠPosse": 7809,
      "bull": 7810,
      "Ġlamp": 7811,
      "ĠAB": 7812,
      "ĠAut": 7813,
      "ĠDor": 7814,
      "ĠDouble": 7815,
      "Ġjerk": 7816,
      "ĠFoo": 7817,
      "Ġneither": 7818,
      "rything": 7819,
      "ĠJolene": 7820,
      "Ġbackyard": 7821,
      "ĠInf": 7822,
      "Ġarrow": 7823,
      "Ġgrade": 7824,
      "Ġdrip": 7825,
      "ĠLauper": 7826,
      "Ġconfidence": 7827,
      "Ġdecl": 7828,
      "ĠHelloween": 7829,
      "ĠSmall": 7830,
      "iami": 7831,
      "Ġromantic": 7832,
      "Ġfavour": 7833,
      "Ġwhispering": 7834,
      "ĠPerfect": 7835,
      "Ġpersonal": 7836,
      "Ġpounds": 7837,
      "ĠCyrus": 7838,
      "nesday": 7839,
      "An": 7840,
      "Round": 7841,
      "Well": 7842,
      "aled": 7843,
      "bage": 7844,
      "inct": 7845,
      "Ġsanity": 7846,
      "Ġble": 7847,
      "Ġstake": 7848,
      "Ġweigh": 7849,
      "Ġ(\"": 7850,
      "Ġsocks": 7851,
      "ĠJapan": 7852,
      "Ġwillow": 7853,
      "ĠRoc": 7854,
      "Ġshakes": 7855,
      "Ġconce": 7856,
      "Ġconquer": 7857,
      "ĠAlive": 7858,
      "Ġsleepless": 7859,
      "Ġasks": 7860,
      "Ġaskin": 7861,
      "Ġplea": 7862,
      "Ġbarrel": 7863,
      "ĠSeger": 7864,
      "Ġreturned": 7865,
      "Ġgrabbed": 7866,
      "ĠTeach": 7867,
      "ĠFaithfull": 7868,
      "ĠMetall": 7869,
      "ĠCyndi": 7870,
      "Ġopport": 7871,
      "ĠOlivia": 7872,
      "ĠEspecially": 7873,
      "IS": 7874,
      "isand": 7875,
      "Ġreward": 7876,
      "Ġja": 7877,
      "Ġsober": 7878,
      "ĠEight": 7879,
      "Ġmankind": 7880,
      "Ġclay": 7881,
      "ĠAlleluia": 7882,
      "Ġrunway": 7883,
      "Ġcrave": 7884,
      "ggae": 7885,
      "Ġsooner": 7886,
      "Ġappears": 7887,
      "ĠQuick": 7888,
      "ĠFlash": 7889,
      "Ġcouch": 7890,
      "Ġgravity": 7891,
      "ĠAdd": 7892,
      "Ġfeast": 7893,
      "ĠPresident": 7894,
      "ĠGuns": 7895,
      "ĠHammer": 7896,
      "AY": 7897,
      "ji": 7898,
      "ĠĠĠčĊ": 7899,
      "Ġboring": 7900,
      "Ġcamp": 7901,
      "ĠWrapped": 7902,
      "ask": 7903,
      "Ġstun": 7904,
      "ĠDirt": 7905,
      "strong": 7906,
      "aman": 7907,
      "Ġseren": 7908,
      "Ġbucket": 7909,
      "Ġemp": 7910,
      "Ġcheating": 7911,
      "Ġfightin": 7912,
      "ĠLeann": 7913,
      "Ġsorrows": 7914,
      "uggin": 7915,
      "Ġignite": 7916,
      "scape": 7917,
      "ĠMidler": 7918,
      "ĠOkay": 7919,
      "Ġprepare": 7920,
      "Ġsanct": 7921,
      "ĠBerlin": 7922,
      "Ġchimney": 7923,
      "Ġgamble": 7924,
      "ĠSantana": 7925,
      "):": 7926,
      "Not": 7927,
      "OW": 7928,
      "nk": 7929,
      "Ġyi": 7930,
      "Ġdot": 7931,
      "ĠBur": 7932,
      "ĠBud": 7933,
      "ĠOasis": 7934,
      "ĠDone": 7935,
      "Ġdozen": 7936,
      "inkle": 7937,
      "Ġplot": 7938,
      "ĠKings": 7939,
      "Ġhanded": 7940,
      "Ġskull": 7941,
      "ahh": 7942,
      "Ġsugg": 7943,
      "Ġglue": 7944,
      "ĠLoves": 7945,
      "ĠVal": 7946,
      "Ġpole": 7947,
      "ĠAlison": 7948,
      "Ġdriven": 7949,
      "Ġmessing": 7950,
      "Ġtramp": 7951,
      "Ġreading": 7952,
      "ĠRockin": 7953,
      "hhhhh": 7954,
      "Ġcaptured": 7955,
      "ĠApple": 7956,
      "ĠStreisand": 7957,
      "Ġnarrow": 7958,
      "Ġscenes": 7959,
      "sbourne": 7960,
      "ĠMcGraw": 7961,
      "ĠAguilera": 7962,
      "ĠMonkees": 7963,
      "ĠMetallica": 7964,
      "To": 7965,
      "ias": 7966,
      "iance": 7967,
      "Ġaverage": 7968,
      "Ġmeal": 7969,
      "ĠAss": 7970,
      "Ġobl": 7971,
      "ĠWall": 7972,
      "ĠBury": 7973,
      "ĠHail": 7974,
      "ĠOsbourne": 7975,
      "rous": 7976,
      "ĠRimes": 7977,
      "ĠEle": 7978,
      "Ġplug": 7979,
      "Ġspr": 7980,
      "Ġscra": 7981,
      "Ġscent": 7982,
      "Ġbrightly": 7983,
      "ĠFranklin": 7984,
      "Ġidi": 7985,
      "Ġgrieve": 7986,
      "Ġdescribe": 7987,
      "Ġdegree": 7988,
      "Ġforsaken": 7989,
      "ĠClapton": 7990,
      "bidden": 7991,
      "ĠRichie": 7992,
      "Ġshorty": 7993,
      "Ġdawning": 7994,
      "Ġtemperature": 7995,
      "Ġflavor": 7996,
      "ĠJennings": 7997,
      "Ġsuggest": 7998,
      "Take": 7999,
      "oard": 8000,
      "water": 8001,
      "Ġgrill": 8002,
      "Ġinna": 8003,
      "Ġkong": 8004,
      "ĠRuss": 8005,
      "Ġbadly": 8006,
      "Ġstarlight": 8007,
      "Ġwins": 8008,
      "Ġcontent": 8009,
      "Ġtrembling": 8010,
      "uffle": 8011,
      "ĠSlim": 8012,
      "Ġcompass": 8013,
      "eers": 8014,
      "Ġtenderly": 8015,
      "ĠMovin": 8016,
      "Ġsparks": 8017,
      "ĠMorrison": 8018,
      "Ġgreedy": 8019,
      "Ġjewels": 8020,
      "Ġpsych": 8021,
      "ĠClarkson": 8022,
      "ĠEurope": 8023,
      "Ġyang": 8024,
      "resent": 8025,
      "Ġdong": 8026,
      "Ġfuse": 8027,
      "itions": 8028,
      "Ġpuff": 8029,
      "Ġbehold": 8030,
      "Ġstab": 8031,
      "ĠCree": 8032,
      "Ġune": 8033,
      "ĠFore": 8034,
      "oved": 8035,
      "Ġvie": 8036,
      "Ġmob": 8037,
      "Ġhoped": 8038,
      "ansas": 8039,
      "Ġbothered": 8040,
      "ĠClash": 8041,
      "ĠAnymore": 8042,
      "Ġappl": 8043,
      "Ġsearched": 8044,
      "Ġbayou": 8045,
      "altz": 8046,
      "Ġdepends": 8047,
      "Ġguaranteed": 8048,
      "ĠSkynyrd": 8049,
      "ĠRadiohead": 8050,
      "hensible": 8051,
      "Ġfragile": 8052,
      "sl": 8053,
      "woo": 8054,
      "Ġfans": 8055,
      "ĠWow": 8056,
      "ĠBerry": 8057,
      "ĠFant": 8058,
      "Ġaboard": 8059,
      "estyle": 8060,
      "Ġfreeway": 8061,
      "ĠAnna": 8062,
      "ggins": 8063,
      "Ġcloset": 8064,
      "Ġsatellite": 8065,
      "prints": 8066,
      "ĠLoggins": 8067,
      "Ġspinnin": 8068,
      "Ġbatt": 8069,
      "mbers": 8070,
      "Ġswept": 8071,
      "ĠImma": 8072,
      "ĠSleeping": 8073,
      "Ġhomies": 8074,
      "ĠHollies": 8075,
      "ĠDetroit": 8076,
      "TC": 8077,
      "never": 8078,
      "Ġtank": 8079,
      "Ġai": 8080,
      "Ġwink": 8081,
      "onde": 8082,
      "Ġlux": 8083,
      "Ġcave": 8084,
      "Ġtoward": 8085,
      "Ġopt": 8086,
      "esis": 8087,
      "Ġpardon": 8088,
      "ĠSub": 8089,
      "ĠMiami": 8090,
      "ĠDanger": 8091,
      "ores": 8092,
      "ĠFaster": 8093,
      "ĠHeal": 8094,
      "Ġbloss": 8095,
      "ĠEll": 8096,
      "Ġspider": 8097,
      "Ġcheatin": 8098,
      "ifferent": 8099,
      "Ġprime": 8100,
      "Ġfingert": 8101,
      "ĠOverkill": 8102,
      "Ġsurviv": 8103,
      "Ġbooze": 8104,
      "Ġjudgment": 8105,
      "Ġclowns": 8106,
      "ĠMoonlight": 8107,
      "Ġstorms": 8108,
      "Ġthirsty": 8109,
      "Ġstretch": 8110,
      "Ġcriminal": 8111,
      "hop": 8112,
      "rad": 8113,
      "ys": 8114,
      "zibit": 8115,
      "ĠIT": 8116,
      "ani": 8117,
      "Ġmell": 8118,
      "riage": 8119,
      "ĠHend": 8120,
      "ĠHaw": 8121,
      "ĠCap": 8122,
      "Ġrend": 8123,
      "ĠEh": 8124,
      "Ġplatinum": 8125,
      "Ġunhappy": 8126,
      "Ġawesome": 8127,
      "ĠTrans": 8128,
      "Ġburnt": 8129,
      "ĠRaitt": 8130,
      "Ġlosers": 8131,
      "prehensible": 8132,
      "ĠRemind": 8133,
      "Ġpuppet": 8134,
      "broken": 8135,
      "itate": 8136,
      "ĠWrong": 8137,
      "Ġinvent": 8138,
      "Ġholly": 8139,
      "adt": 8140,
      "ĠDist": 8141,
      "stadt": 8142,
      "ifth": 8143,
      "Ġclip": 8144,
      "Ġsharing": 8145,
      "Ġsmack": 8146,
      "ĠVand": 8147,
      "ĠVeg": 8148,
      "Ġrocker": 8149,
      "Ġinsanity": 8150,
      "Ġhalfway": 8151,
      "Ġrisen": 8152,
      "gically": 8153,
      "Ġpowers": 8154,
      "ĠRefrain": 8155,
      "Ġblanket": 8156,
      "ĠWednesday": 8157,
      "LE": 8158,
      "VE": 8159,
      "ouette": 8160,
      "Ġgear": 8161,
      "isy": 8162,
      "Ġpuzz": 8163,
      "Ġheed": 8164,
      "asing": 8165,
      "ators": 8166,
      "Ġsteep": 8167,
      "ĠDion": 8168,
      "aba": 8169,
      "Ġoutlaw": 8170,
      "Ġsafety": 8171,
      "ĠExt": 8172,
      "ĠEither": 8173,
      "ament": 8174,
      "Ġshoulda": 8175,
      "Ġparties": 8176,
      "ĠOrchestra": 8177,
      "Ġtouches": 8178,
      "ĠSpent": 8179,
      "Ġhotter": 8180,
      "Ġearned": 8181,
      "Ġtasted": 8182,
      "Ġrelation": 8183,
      "ĠXTC": 8184,
      "Ġaddress": 8185,
      "Ġcookin": 8186,
      "ĠDancin": 8187,
      "ĠRelig": 8188,
      "ĠMiller": 8189,
      "Ġpersu": 8190,
      "ĠRonstadt": 8191,
      "talkin": 8192,
      "ĠVegas": 8193,
      "Al": 8194,
      "Please": 8195,
      "cles": 8196,
      "rend": 8197,
      "Ġcousin": 8198,
      "ĠAunt": 8199,
      "ĠSuz": 8200,
      "Ġechoes": 8201,
      "ĠLow": 8202,
      "ĠNature": 8203,
      "Ġblaze": 8204,
      "ppard": 8205,
      "Ġsmilin": 8206,
      "Ġplaya": 8207,
      "Ġfriendship": 8208,
      "Ġcareless": 8209,
      "Ġunreal": 8210,
      "atural": 8211,
      "Ġsniff": 8212,
      "Ġfootball": 8213,
      "Ġswallowed": 8214,
      "Ġlarge": 8215,
      "Ġfantasies": 8216,
      "Ġthighs": 8217,
      "Ġjukebox": 8218,
      "Ġfollows": 8219,
      "Ġclearer": 8220,
      "Keep": 8221,
      "Ġvers": 8222,
      "Ġwestern": 8223,
      "Ġpipe": 8224,
      "aser": 8225,
      "Ġthieves": 8226,
      "Ġkite": 8227,
      "ĠDying": 8228,
      "Ġchills": 8229,
      "Ġviolent": 8230,
      "Ġvoodoo": 8231,
      "Ġfired": 8232,
      "plane": 8233,
      "Ġdisplay": 8234,
      "ĠSeem": 8235,
      "ĠLaw": 8236,
      "Ġmeeting": 8237,
      "Ġfilling": 8238,
      "alem": 8239,
      "ĠMarillion": 8240,
      "Ġmirrors": 8241,
      "ĠPlace": 8242,
      "Ġattraction": 8243,
      "Ġmagical": 8244,
      "Ġ40": 8245,
      "Ġcastles": 8246,
      "ĠHangin": 8247,
      "Ġgroovy": 8248,
      "Ġideas": 8249,
      "ĠMurder": 8250,
      "Ġmisunderstood": 8251,
      "Ġstranded": 8252,
      "ĠCostello": 8253,
      "Ġfingertips": 8254,
      "inity": 8255,
      "Ġbid": 8256,
      "Ġlam": 8257,
      "hand": 8258,
      "ĠAlp": 8259,
      "Ġben": 8260,
      "Ġelect": 8261,
      "ĠBirds": 8262,
      "ĠCir": 8263,
      "Ġult": 8264,
      "amour": 8265,
      "Ġalt": 8266,
      "Ġplaced": 8267,
      "ĠStee": 8268,
      "ĠMyst": 8269,
      "Ġchips": 8270,
      "ĠLovely": 8271,
      "ĠVery": 8272,
      "Ġstrung": 8273,
      "Ġcorners": 8274,
      "Ġrelief": 8275,
      "Ġrepresent": 8276,
      "Ġslippin": 8277,
      "comprehensible": 8278,
      "ĠLynyrd": 8279,
      "ĠShorty": 8280,
      "boom": 8281,
      "dam": 8282,
      "inis": 8283,
      "Ġmort": 8284,
      "Ġfuel": 8285,
      "Ġfulfill": 8286,
      "ĠTa": 8287,
      "ĠTina": 8288,
      "Ġpatter": 8289,
      "ĠLocked": 8290,
      "ĠME": 8291,
      "imed": 8292,
      "ĠGee": 8293,
      "ĠRick": 8294,
      "Ġash": 8295,
      "ults": 8296,
      "Ġlemon": 8297,
      "Ġseh": 8298,
      "iggle": 8299,
      "Ġpainful": 8300,
      "ĠBlur": 8301,
      "uthrie": 8302,
      "Ġpreach": 8303,
      "Ġlayin": 8304,
      "Ġtremble": 8305,
      "ĠLeppard": 8306,
      "ĠWaitin": 8307,
      "Ġ30": 8308,
      "rolling": 8309,
      "ĠBrowne": 8310,
      "Ġpounding": 8311,
      "Ġnerves": 8312,
      "Ġreleased": 8313,
      "OO": 8314,
      "pent": 8315,
      "Ġbong": 8316,
      "Ġlan": 8317,
      "Ġcivil": 8318,
      "ĠTender": 8319,
      "hattan": 8320,
      "Ġhee": 8321,
      "ĠBrand": 8322,
      "Ġstudy": 8323,
      "sequ": 8324,
      "ĠFur": 8325,
      "ĠEury": 8326,
      "okin": 8327,
      "vens": 8328,
      "ĠUr": 8329,
      "ĠUnd": 8330,
      "Ġbuying": 8331,
      "ĠOrder": 8332,
      "ĠAlan": 8333,
      "Ġ18": 8334,
      "ĠDevo": 8335,
      "Ġsends": 8336,
      "Ġveil": 8337,
      "Ġdisappears": 8338,
      "mblin": 8339,
      "Ġdepart": 8340,
      "atti": 8341,
      "Ġmistaken": 8342,
      "velation": 8343,
      "Ġbutterflies": 8344,
      "ĠConnick": 8345,
      "ĠHendrix": 8346,
      "coll": 8347,
      "know": 8348,
      "uu": 8349,
      "ĠSed": 8350,
      "Ġkin": 8351,
      "ĠBan": 8352,
      "ĠBus": 8353,
      "Ġumbre": 8354,
      "ĠNumber": 8355,
      "iel": 8356,
      "Ġohhh": 8357,
      "Ġspaces": 8358,
      "olph": 8359,
      "Ġvamp": 8360,
      "ĠUB": 8361,
      "ĠUS": 8362,
      "Ġexpen": 8363,
      "ĠAint": 8364,
      "Ġcompet": 8365,
      "Ġperfectly": 8366,
      "Ġrises": 8367,
      "Ġfolk": 8368,
      "ĠWarren": 8369,
      "Ġgiant": 8370,
      "Ġinvitation": 8371,
      "Ġbillion": 8372,
      "Ġobsession": 8373,
      "Ġhaunted": 8374,
      "ĠKrauss": 8375,
      "ĠLegend": 8376,
      "Ġrabbit": 8377,
      "AH": 8378,
      "FX": 8379,
      "gi": 8380,
      "Ġtrop": 8381,
      "Ġmes": 8382,
      "ota": 8383,
      "Ġusually": 8384,
      "Ġhater": 8385,
      "Ġcounter": 8386,
      "Ġdecay": 8387,
      "ĠStandin": 8388,
      "Ġexplod": 8389,
      "Ġcircum": 8390,
      "Ġauthor": 8391,
      "ĠBeauty": 8392,
      "ĠFighters": 8393,
      "Ġsighs": 8394,
      "querade": 8395,
      "ĠGenesis": 8396,
      "Ġbasket": 8397,
      "Ġmuscle": 8398,
      "vigne": 8399,
      "crazy": 8400,
      "net": 8401,
      "ov": 8402,
      "Ġmold": 8403,
      "Ġbrow": 8404,
      "aries": 8405,
      "ĠCent": 8406,
      "ĠDing": 8407,
      "Ġjury": 8408,
      "Ġupstairs": 8409,
      "Ġjustify": 8410,
      "ĠPars": 8411,
      "ĠWear": 8412,
      "Ġatm": 8413,
      "Ġleap": 8414,
      "ordan": 8415,
      "ĠLavigne": 8416,
      "antage": 8417,
      "Ġshouting": 8418,
      "Ġfixed": 8419,
      "ĠAwake": 8420,
      "ĠWhiskey": 8421,
      "ĠNOFX": 8422,
      "ĠSecret": 8423,
      "culiar": 8424,
      "Ġmamma": 8425,
      "ĠGarland": 8426,
      "ĠAvril": 8427,
      "Ġmate": 8428,
      "Ġlee": 8429,
      "Ġdub": 8430,
      "Ġpane": 8431,
      "ĠWaking": 8432,
      "ĠHun": 8433,
      "ĠCop": 8434,
      "ĠLooked": 8435,
      "ico": 8436,
      "ĠGuthrie": 8437,
      "Ġuptight": 8438,
      "Ġseein": 8439,
      "ĠJew": 8440,
      "Ġrac": 8441,
      "ĠPit": 8442,
      "ĠRidin": 8443,
      "Ġriot": 8444,
      "oko": 8445,
      "ulate": 8446,
      "Ġslaughter": 8447,
      "ĠAsh": 8448,
      "Ġwarn": 8449,
      "Ġfucker": 8450,
      "Ġadm": 8451,
      "Ġsigned": 8452,
      "thmics": 8453,
      "Ġtorch": 8454,
      "Ġcollege": 8455,
      "Ġfatal": 8456,
      "Ġfeeds": 8457,
      "ĠCoch": 8458,
      "ĠJoel": 8459,
      "Ġbanks": 8460,
      "ĠSilence": 8461,
      "Ġweapons": 8462,
      "Ġsusp": 8463,
      "wagon": 8464,
      "ĠSchool": 8465,
      "Ġmicrophone": 8466,
      "Ġoriginal": 8467,
      "ĠEurythmics": 8468,
      "Your": 8469,
      "sa": 8470,
      "ĠIgn": 8471,
      "riff": 8472,
      "ĠBrought": 8473,
      "ĠNear": 8474,
      "ĠFelt": 8475,
      "ander": 8476,
      "ĠThin": 8477,
      "Ġglisten": 8478,
      "Ġhopin": 8479,
      "Ġcarries": 8480,
      "Ġhumming": 8481,
      "Ġskinny": 8482,
      "Ġbands": 8483,
      "Ġblessings": 8484,
      "Ġtelevision": 8485,
      "Ġswingin": 8486,
      "Ġchillin": 8487,
      "ĠRainbow": 8488,
      "Ġgarbage": 8489,
      "Ġcontinue": 8490,
      "ĠTemptation": 8491,
      "Ġtidings": 8492,
      "ĠGrowing": 8493,
      "Ġlawyer": 8494,
      "ĠGerman": 8495,
      "?,": 8496,
      "XS": 8497,
      "gonna": 8498,
      "mine": 8499,
      "Ġrou": 8500,
      "Ġpant": 8501,
      "Ġstalk": 8502,
      "ĠMix": 8503,
      "Ġjesus": 8504,
      "Ġthroughout": 8505,
      "this": 8506,
      "ĠLetting": 8507,
      "Ġwishin": 8508,
      "Ġpassin": 8509,
      "ĠLeon": 8510,
      "Ġcompan": 8511,
      "Ġtragic": 8512,
      "Ġpawn": 8513,
      "awa": 8514,
      "Ġcarrying": 8515,
      "annah": 8516,
      "ĠWanted": 8517,
      "Ġeternally": 8518,
      "ĠChanging": 8519,
      "ĠSooner": 8520,
      "Ġjoker": 8521,
      "Ġpalace": 8522,
      "Ġschemes": 8523,
      "ĠTemptations": 8524,
      "ĠINXS": 8525,
      "Ġexperience": 8526,
      "Ġopportunity": 8527,
      "Look": 8528,
      "book": 8529,
      "keep": 8530,
      "pse": 8531,
      "rat": 8532,
      "Ġtips": 8533,
      "inate": 8534,
      "usalem": 8535,
      "ĠSue": 8536,
      "Ġeve": 8537,
      "acon": 8538,
      "ĠMal": 8539,
      "indrops": 8540,
      "Ġdowns": 8541,
      "ĠJason": 8542,
      "ĠWhoo": 8543,
      "ulu": 8544,
      "Ġvicious": 8545,
      "Ġrape": 8546,
      "Ġdrun": 8547,
      "Ġchaos": 8548,
      "Ġhates": 8549,
      "Ġstereo": 8550,
      "Ġopening": 8551,
      "Ġ21": 8552,
      "Ġwildest": 8553,
      "ĠWashing": 8554,
      "Ġcolored": 8555,
      "ĠAmos": 8556,
      "Ġrisin": 8557,
      "hhhhhhhh": 8558,
      "Ġcreate": 8559,
      "Ġcafe": 8560,
      "Ġvictims": 8561,
      "Ġlimous": 8562,
      "Ġpearl": 8563,
      "Ġstained": 8564,
      "Ġpoetry": 8565,
      "Ġthorns": 8566,
      "ĠVandross": 8567,
      "\")": 8568,
      "gers": 8569,
      "iti": 8570,
      "ĠAri": 8571,
      "lear": 8572,
      "ĠBird": 8573,
      "acious": 8574,
      "ĠCeline": 8575,
      "ĠMack": 8576,
      "Ġjo": 8577,
      "urd": 8578,
      "chu": 8579,
      "ĠPaint": 8580,
      "Ġrapper": 8581,
      "manuel": 8582,
      "Ġsnowman": 8583,
      "ĠCalled": 8584,
      "Ġdesires": 8585,
      "Ġdefense": 8586,
      "ĠTragically": 8587,
      "Ġpuso": 8588,
      "Ġcoffin": 8589,
      "Ġseventh": 8590,
      "Ġcabin": 8591,
      "Ġimmortal": 8592,
      "ĠZevon": 8593,
      "ĠErasure": 8594,
      "ĠPanic": 8595,
      "ĠRoxette": 8596,
      "ĠMachine": 8597,
      "Good": 8598,
      "Ha": 8599,
      "ID": 8600,
      "bon": 8601,
      "bea": 8602,
      "dr": 8603,
      "dog": 8604,
      "ex": 8605,
      "wan": 8606,
      "Ġdump": 8607,
      "Ġchor": 8608,
      "itary": 8609,
      "ĠTha": 8610,
      "ĠWH": 8611,
      "ĠYang": 8612,
      "ĠLl": 8613,
      "ĠRhy": 8614,
      "Ġblunt": 8615,
      "imo": 8616,
      "Ġflee": 8617,
      "Ġguest": 8618,
      "Ġsweetness": 8619,
      "Ġbluebird": 8620,
      "Ġcritic": 8621,
      "Ġprefer": 8622,
      "ĠBrit": 8623,
      "Ġparano": 8624,
      "ĠZZ": 8625,
      "isfits": 8626,
      "Ġstrife": 8627,
      "ĠArlo": 8628,
      "Ġintrod": 8629,
      "ĠCohen": 8630,
      "Ġgasoline": 8631,
      "Incomprehensible": 8632,
      "ĠClean": 8633,
      "ĠPrecious": 8634,
      "Ġdegrees": 8635,
      "ĠGabriel": 8636,
      "Ġremembered": 8637,
      "ĠCochran": 8638,
      "ET": 8639,
      "four": 8640,
      "last": 8641,
      "mie": 8642,
      "new": 8643,
      "Ġmack": 8644,
      "Ġmak": 8645,
      "Ġtops": 8646,
      "Ġbeans": 8647,
      "verse": 8648,
      "Ġcany": 8649,
      "icing": 8650,
      "ĠFair": 8651,
      "Ġnecess": 8652,
      "ĠRh": 8653,
      "Ġripped": 8654,
      "Ġplains": 8655,
      "ĠInch": 8656,
      "Ġagg": 8657,
      "ĠKirk": 8658,
      "Ġarrest": 8659,
      "ĠClou": 8660,
      "Ġ22": 8661,
      "ĠMegad": 8662,
      "Ġperman": 8663,
      "ĠQue": 8664,
      "Ġsickness": 8665,
      "Ġexplan": 8666,
      "Ġstride": 8667,
      "Ġdrowned": 8668,
      "Ġignor": 8669,
      "Ġstrangest": 8670,
      "Ġticking": 8671,
      "Ġemotional": 8672,
      "Ġ199": 8673,
      "Ġresistance": 8674,
      "Ġscheme": 8675,
      "ĠBlessed": 8676,
      "Ġurge": 8677,
      "Ġbetrayed": 8678,
      "ĠArmstrong": 8679,
      "ĠJoseph": 8680,
      "Ġmellow": 8681,
      "ĠMegadeth": 8682,
      "face": 8683,
      "fold": 8684,
      "gent": 8685,
      "say": 8686,
      "with": 8687,
      "Ġbi": 8688,
      "Ġber": 8689,
      "Ġdried": 8690,
      "ishes": 8691,
      "aro": 8692,
      "ĠSac": 8693,
      "ĠHat": 8694,
      "ended": 8695,
      "ĠPuff": 8696,
      "essed": 8697,
      "ĠShepher": 8698,
      "Ġchocolate": 8699,
      "Ġseats": 8700,
      "Ġwarned": 8701,
      "Ġsecurity": 8702,
      "Ġperhaps": 8703,
      "Ġadvent": 8704,
      "gga": 8705,
      "ĠHeavenly": 8706,
      "Ġsilk": 8707,
      "Ġdisappoint": 8708,
      "ĠTommy": 8709,
      "Ġbelievin": 8710,
      "Ġstares": 8711,
      "Ġpleasures": 8712,
      "Ġincredible": 8713,
      "spring": 8714,
      "Ġcheeks": 8715,
      "Ġadvantage": 8716,
      "Ġcelebration": 8717,
      "ĠEndless": 8718,
      "ĠBreath": 8719,
      "Ġphase": 8720,
      "Ġwilderness": 8721,
      ".]": 8722,
      "IG": 8723,
      "bu": 8724,
      "form": 8725,
      "hound": 8726,
      "iqu": 8727,
      "Ġsow": 8728,
      "Ġsem": 8729,
      "Ġbond": 8730,
      "Ġdull": 8731,
      "Ġdynamite": 8732,
      "ayo": 8733,
      "ĠAND": 8734,
      "ĠTu": 8735,
      "oted": 8736,
      "ĠBoss": 8737,
      "ĠHid": 8738,
      "ĠCong": 8739,
      "ĠLinkin": 8740,
      "Ġrewind": 8741,
      "Ġuptown": 8742,
      "Ġbla": 8743,
      "Ġblazing": 8744,
      "Ġva": 8745,
      "Ġdrummer": 8746,
      "Ġbubb": 8747,
      "ples": 8748,
      "Ġstepping": 8749,
      "Ġopens": 8750,
      "Ġbeaten": 8751,
      "apping": 8752,
      "umblin": 8753,
      "Ġtrial": 8754,
      "Ġcolours": 8755,
      "Ġsupply": 8756,
      "ĠChew": 8757,
      "ĠPlayin": 8758,
      "Ġdefine": 8759,
      "Ġtestify": 8760,
      "ĠWestlife": 8761,
      "Ġpositive": 8762,
      "Ġabsolute": 8763,
      ":)": 8764,
      "gang": 8765,
      "kan": 8766,
      "nake": 8767,
      "py": 8768,
      "inin": 8769,
      "Ġmere": 8770,
      "ĠTre": 8771,
      "Ġpeel": 8772,
      "Ġpoll": 8773,
      "lead": 8774,
      "ĠHmm": 8775,
      "ĠLana": 8776,
      "Ġcane": 8777,
      "ĠDin": 8778,
      "Ġjelly": 8779,
      "ĠWeird": 8780,
      "Ġtrump": 8781,
      "Ġskip": 8782,
      "Ġoffice": 8783,
      "Ġdisag": 8784,
      "Ġphil": 8785,
      "Ġtread": 8786,
      "ĠLean": 8787,
      "ĠMarx": 8788,
      "Ġappet": 8789,
      "ĠSmiling": 8790,
      "Ġdevils": 8791,
      "ĠArt": 8792,
      "reamed": 8793,
      "Ġwatches": 8794,
      "Ġdreamers": 8795,
      "Ġsexual": 8796,
      "Ġdeli": 8797,
      "Ġcopy": 8798,
      "ĠStarted": 8799,
      "Ġsurrounded": 8800,
      "Ġchickens": 8801,
      "Ġlingers": 8802,
      "Ġmagazines": 8803,
      "Ġvibe": 8804,
      "Ġtaxi": 8805,
      "Ġfilm": 8806,
      "Ġtossed": 8807,
      "Ġpaved": 8808,
      "ĠMirror": 8809,
      "Ġrespons": 8810,
      "ĠAlpha": 8811,
      "Sha": 8812,
      "Tell": 8813,
      "core": 8814,
      "mn": 8815,
      "Ġil": 8816,
      "Ġbeep": 8817,
      "ati": 8818,
      "omer": 8819,
      "ĠHanson": 8820,
      "ĠNitty": 8821,
      "Ġ('": 8822,
      "Ġouter": 8823,
      "ĠRud": 8824,
      "Ġnighttime": 8825,
      "ĠKung": 8826,
      "ĠDoors": 8827,
      "ĠWhole": 8828,
      "Ġsweetly": 8829,
      "Ġmerc": 8830,
      "ivity": 8831,
      "Ġimpress": 8832,
      "Ġexcuses": 8833,
      "Ġpolitic": 8834,
      "Ġsolve": 8835,
      "ĠIndiana": 8836,
      "ĠTearing": 8837,
      "ĠSquare": 8838,
      "Ġabandoned": 8839,
      "Ġnormal": 8840,
      "Ġrejoice": 8841,
      "ĠJamaica": 8842,
      "ĠLeonard": 8843,
      "pha": 8844,
      "tell": 8845,
      "vana": 8846,
      "Ġbush": 8847,
      "Ġdudes": 8848,
      "ĠST": 8849,
      "ĠSpe": 8850,
      "Ġkita": 8851,
      "ĠCru": 8852,
      "ĠLine": 8853,
      "ĠLater": 8854,
      "abi": 8855,
      "ĠRom": 8856,
      "ĠRip": 8857,
      "Ġshady": 8858,
      "ĠLionel": 8859,
      "ocks": 8860,
      "Ġarr": 8861,
      "Ġstrut": 8862,
      "ĠSwim": 8863,
      "ĠTurner": 8864,
      "Ġactin": 8865,
      "Ġpleased": 8866,
      "Ġwearin": 8867,
      "irteen": 8868,
      "clear": 8869,
      "!!!!": 8870,
      "Ġwooden": 8871,
      "ĠMetal": 8872,
      "Ġmajesty": 8873,
      "ĠExcuse": 8874,
      "BA": 8875,
      "Got": 8876,
      "kn": 8877,
      "vable": 8878,
      "Ġmortal": 8879,
      "Ġfag": 8880,
      "Ġcong": 8881,
      "Ġtoil": 8882,
      "ĠTang": 8883,
      "ĠWeezy": 8884,
      "ases": 8885,
      "Ġlimb": 8886,
      "ĠLem": 8887,
      "ained": 8888,
      "ĠJop": 8889,
      "ĠJordan": 8890,
      "asted": 8891,
      "Ġtrance": 8892,
      "Ġbringin": 8893,
      "ĠSwe": 8894,
      "ĠSwear": 8895,
      "Ġleaders": 8896,
      "Ġ???": 8897,
      "Ġgraveyard": 8898,
      "Ġmachines": 8899,
      "Ġdrawing": 8900,
      "Ġsparkle": 8901,
      "Ġcorrupt": 8902,
      "emption": 8903,
      "Ġtreasures": 8904,
      "Ġuncertain": 8905,
      "Ġpowder": 8906,
      "ĠSecond": 8907,
      "Ġhypnotized": 8908,
      "ĠPlanets": 8909,
      "Ġgroup": 8910,
      "ĠJerusalem": 8911,
      "wh": 8912,
      "hee": 8913,
      "Ġmild": 8914,
      "Ġbah": 8915,
      "Ġlower": 8916,
      "Ġfacing": 8917,
      "Ġcope": 8918,
      "Ġculture": 8919,
      "Ġoak": 8920,
      "ĠToto": 8921,
      "Ġpine": 8922,
      "rial": 8923,
      "ĠBri": 8924,
      "Ġstat": 8925,
      "idd": 8926,
      "ĠLes": 8927,
      "ĠMist": 8928,
      "ĠDraw": 8929,
      "enses": 8930,
      "Ġanthe": 8931,
      "Ġanti": 8932,
      "ague": 8933,
      "Ġskirt": 8934,
      "Ġcracked": 8935,
      "ubus": 8936,
      "Ġbelonged": 8937,
      "Ġmillionaire": 8938,
      "Ġpurs": 8939,
      "achel": 8940,
      "Ġjoined": 8941,
      "Ġaccount": 8942,
      "hetic": 8943,
      "Ġeighteen": 8944,
      "Ġfailure": 8945,
      "Ġmasquerade": 8946,
      "ĠSurrender": 8947,
      "ĠFilled": 8948,
      "Ġconnected": 8949,
      "Ġtunnel": 8950,
      "Ġrequest": 8951,
      "ĠMoses": 8952,
      "ĠStyx": 8953,
      "Hello": 8954,
      "Sp": 8955,
      "Ġais": 8956,
      "Ġsor": 8957,
      "llen": 8958,
      "aye": 8959,
      "Ġep": 8960,
      "Ġhah": 8961,
      "Ġhazy": 8962,
      "Ġjacket": 8963,
      "ĠGal": 8964,
      "Ġray": 8965,
      "Ġrats": 8966,
      "ĠPress": 8967,
      "uma": 8968,
      "ĠFort": 8969,
      "Ġpeculiar": 8970,
      "Ġfreezing": 8971,
      "neck": 8972,
      "shot": 8973,
      "Ġprec": 8974,
      "ĠMeat": 8975,
      "ĠSaviour": 8976,
      "ĠShare": 8977,
      "Ġcrossroad": 8978,
      "Ġunde": 8979,
      "respect": 8980,
      "Ġpressed": 8981,
      "Ġreigns": 8982,
      "ursday": 8983,
      "Ġprophe": 8984,
      "Ġtotally": 8985,
      "Ġdisagree": 8986,
      "Give": 8987,
      "Say": 8988,
      "bby": 8989,
      "cos": 8990,
      "drop": 8991,
      "uf": 8992,
      "yea": 8993,
      "Ġaud": 8994,
      "Ġfried": 8995,
      "Ġgoose": 8996,
      "Ġpile": 8997,
      "Ġhipp": 8998,
      "nap": 8999,
      "Ġwhats": 9000,
      "ĠJenny": 9001,
      "ĠRoman": 9002,
      "ima": 9003,
      "immer": 9004,
      "geon": 9005,
      "Ġmoi": 9006,
      "ĠLizzy": 9007,
      "Ġseal": 9008,
      "Ġendure": 9009,
      "ĠRelease": 9010,
      "Ġpowerful": 9011,
      "Ġtriump": 9012,
      "Ġtrusted": 9013,
      "ĠScene": 9014,
      "coat": 9015,
      "Ġcrimes": 9016,
      "Ġsixty": 9017,
      "ĠSunshine": 9018,
      "ĠEngel": 9019,
      "Ġdraws": 9020,
      "Ġconcent": 9021,
      "ĠStrang": 9022,
      "tiest": 9023,
      "ĠMommy": 9024,
      "ascal": 9025,
      "Ġsnap": 9026,
      "Ġliquid": 9027,
      "ĠMercy": 9028,
      "Ġabsurd": 9029,
      "Ġsirens": 9030,
      "Ġsoothe": 9031,
      "Ġreplaced": 9032,
      "Ġwarrior": 9033,
      "Ġnearer": 9034,
      "ĠKaty": 9035,
      "ĠSarah": 9036,
      "they": 9037,
      "Ġlun": 9038,
      "Ġdash": 9039,
      "ĠAren": 9040,
      "ĠTok": 9041,
      "Ġinfl": 9042,
      "ĠSyn": 9043,
      "Ġstains": 9044,
      "ĠON": 9045,
      "icult": 9046,
      "ĠGypsy": 9047,
      "elli": 9048,
      "ĠJu": 9049,
      "tery": 9050,
      "Ġblank": 9051,
      "igan": 9052,
      "ĠThursday": 9053,
      "Ġusual": 9054,
      "Ġharbor": 9055,
      "perdin": 9056,
      "ashville": 9057,
      "Ġrounds": 9058,
      "Ġchangin": 9059,
      "Ġattract": 9060,
      "Ġcrowds": 9061,
      "Ġrefrain": 9062,
      "Ġshallow": 9063,
      "opez": 9064,
      "Ġgraves": 9065,
      "ĠFinding": 9066,
      "Ġdelay": 9067,
      "Ġeleven": 9068,
      "ĠHumperdin": 9069,
      "Ġcurious": 9070,
      "Ġwolves": 9071,
      "ĠVenus": 9072,
      "ĠMeanwhile": 9073,
      "Ġeggs": 9074,
      "Ġtarget": 9075,
      "Ġduty": 9076,
      "Ġinsecure": 9077,
      "Ġtechn": 9078,
      "Ġcircumst": 9079,
      "ĠHumperdinck": 9080,
      "Hold": 9081,
      "die": 9082,
      "ker": 9083,
      "moon": 9084,
      "uana": 9085,
      "Ġtub": 9086,
      "ĠIre": 9087,
      "Ġdeter": 9088,
      "Ġfishing": 9089,
      "Ġpred": 9090,
      "ĠShan": 9091,
      "Ġhitt": 9092,
      "ĠBir": 9093,
      "irvana": 9094,
      "rybody": 9095,
      "Ġblonde": 9096,
      "ĠEye": 9097,
      "Ġabused": 9098,
      "ĠAllman": 9099,
      "ĠState": 9100,
      "tale": 9101,
      "Ġrags": 9102,
      "Ġrappers": 9103,
      "Ġsuf": 9104,
      "Ġrocky": 9105,
      "irsty": 9106,
      "Ġtowns": 9107,
      "Ġ15": 9108,
      "Ġsupport": 9109,
      "Ġtension": 9110,
      "Ġcommit": 9111,
      "ĠGritty": 9112,
      "Ġsmells": 9113,
      "ĠSunny": 9114,
      "rapy": 9115,
      "ĠTrapped": 9116,
      "Ġdragon": 9117,
      "Ġboulevard": 9118,
      "ology": 9119,
      "Ġborderline": 9120,
      "Ġhabits": 9121,
      "ĠBoogie": 9122,
      "ĠEngelbert": 9123,
      ".'": 9124,
      "AK": 9125,
      "pap": 9126,
      "Ġtire": 9127,
      "Ġmars": 9128,
      "Ġbike": 9129,
      "Ġfee": 9130,
      "ĠAge": 9131,
      "ĠTy": 9132,
      "riot": 9133,
      "eteen": 9134,
      "Ġki": 9135,
      "ĠLopez": 9136,
      "ĠMisfits": 9137,
      "sen": 9138,
      "rice": 9139,
      "ĠFade": 9140,
      "Ġwhoo": 9141,
      "Ġworm": 9142,
      "Ġhomeless": 9143,
      "Ġhometown": 9144,
      "Ġflu": 9145,
      "ĠFord": 9146,
      "Ġevenin": 9147,
      "Ġcraz": 9148,
      "Ġcatching": 9149,
      "Ġtreats": 9150,
      "Ġridic": 9151,
      "ĠSteal": 9152,
      "......": 9153,
      "Ġsurvival": 9154,
      "Ġdealer": 9155,
      "Ġmotel": 9156,
      "ĠEverclear": 9157,
      "ĠWonderful": 9158,
      "Ġfortun": 9159,
      "Ġdiscip": 9160,
      "Ġinvited": 9161,
      "ĠOffspring": 9162,
      "Ġpissed": 9163,
      "Ġequal": 9164,
      "ĠHenry": 9165,
      "ĠAtlanta": 9166,
      "bur": 9167,
      "lime": 9168,
      "ua": 9169,
      "vail": 9170,
      "Ġwoh": 9171,
      "reed": 9172,
      "Ġyoure": 9173,
      "ĠSmas": 9174,
      "ĠMat": 9175,
      "ĠDope": 9176,
      "Ġjolly": 9177,
      "inem": 9178,
      "Ġplat": 9179,
      "Ġclover": 9180,
      "Ġhowling": 9181,
      "Ġbelt": 9182,
      "Ġnewborn": 9183,
      "Ġglitter": 9184,
      "ĠRey": 9185,
      "Ġfighter": 9186,
      "Ġhott": 9187,
      "ĠSlayer": 9188,
      "ĠChap": 9189,
      "Ġballoon": 9190,
      "ĠFloyd": 9191,
      "Ġbuildings": 9192,
      "Ġdealing": 9193,
      "ĠWanting": 9194,
      "Ġfeeding": 9195,
      "Ġwandered": 9196,
      "ĠMotherfuck": 9197,
      "ĠHeading": 9198,
      "Ġbanana": 9199,
      "Ġnightmares": 9200,
      "Ġperform": 9201,
      "ĠIncubus": 9202,
      "ĠGrey": 9203,
      "ĠMontana": 9204,
      "Ġopinion": 9205,
      "Ġidiot": 9206,
      "Where": 9207,
      "card": 9208,
      "pon": 9209,
      "Ġwip": 9210,
      "Ġbol": 9211,
      "Ġll": 9212,
      "Ġnet": 9213,
      "Ġforces": 9214,
      "ĠLu": 9215,
      "ĠDifferent": 9216,
      "eng": 9217,
      "ĠNon": 9218,
      "Ġsoap": 9219,
      "Ġwashing": 9220,
      "ĠJeezy": 9221,
      "Ġspy": 9222,
      "Ġrealise": 9223,
      "Ġstreak": 9224,
      "ĠTaken": 9225,
      "Ġparted": 9226,
      "ĠReo": 9227,
      "Ġdishes": 9228,
      "ĠSpark": 9229,
      "Ġlays": 9230,
      "Ġcrimson": 9231,
      "Ġmaze": 9232,
      "ĠLeaves": 9233,
      "Ġvein": 9234,
      "boards": 9235,
      "Ġillusions": 9236,
      "Ġconsider": 9237,
      "Ġfroze": 9238,
      "ĠColdplay": 9239,
      "ĠSurround": 9240,
      "ĠSounds": 9241,
      "ĠCollins": 9242,
      "Ġborrowed": 9243,
      "Ġribbon": 9244,
      "Ġpavement": 9245,
      "Ġpractice": 9246,
      "ĠSpeedwagon": 9247,
      "Ġavoid": 9248,
      "Ġappetite": 9249,
      "Boy": 9250,
      "aver": 9251,
      "ca": 9252,
      "press": 9253,
      "Ġbible": 9254,
      "Ġbitty": 9255,
      "Ġfirm": 9256,
      "Ġhike": 9257,
      "Ġlions": 9258,
      "iders": 9259,
      "ena": 9260,
      "Ġsoar": 9261,
      "Ġantic": 9262,
      "oodle": 9263,
      "ando": 9264,
      "Ġvirt": 9265,
      "Ġevermore": 9266,
      "ĠChop": 9267,
      "Ġwindy": 9268,
      "Ġ100": 9269,
      "Ġresol": 9270,
      "ĠFrance": 9271,
      "Ġqueens": 9272,
      "Ġsellin": 9273,
      "ĠLaying": 9274,
      "ĠBelie": 9275,
      "Ġcollar": 9276,
      "ĠProject": 9277,
      "ĠDeliver": 9278,
      "ĠKept": 9279,
      "ĠActing": 9280,
      "Ġmuthafuck": 9281,
      "Ġfemale": 9282,
      "ĠCelebr": 9283,
      "Ġumbrella": 9284,
      "They": 9285,
      "cut": 9286,
      "view": 9287,
      "Ġ:": 9288,
      "onic": 9289,
      "Ġyer": 9290,
      "Ġyall": 9291,
      "Ġdish": 9292,
      "Ġfond": 9293,
      "Ġcin": 9294,
      "Ġpoured": 9295,
      "Ġbeams": 9296,
      "Ġstatic": 9297,
      "ĠRail": 9298,
      "ĠSting": 9299,
      "Ġamount": 9300,
      "Ġwax": 9301,
      "Ġafar": 9302,
      "Ġaffect": 9303,
      "Ġfails": 9304,
      "Ġnaive": 9305,
      "ĠChristian": 9306,
      "Ġhealed": 9307,
      "Ġprayin": 9308,
      "Ġfiner": 9309,
      "umbag": 9310,
      "Ġfron": 9311,
      "Ġcutting": 9312,
      "Ġmadly": 9313,
      "Ġjoyful": 9314,
      "Ġeatin": 9315,
      "Ġgoddamn": 9316,
      "Ġetc": 9317,
      "ilson": 9318,
      "Ġchained": 9319,
      "Ġshores": 9320,
      "ĠKnew": 9321,
      "Ġrumors": 9322,
      "Ġshatter": 9323,
      "ĠBlinded": 9324,
      "whel": 9325,
      "Ġeducation": 9326,
      "Ġbattles": 9327,
      "Ġluxury": 9328,
      "nn": 9329,
      "Ġana": 9330,
      "Ġdug": 9331,
      "Ġfet": 9332,
      "Ġnan": 9333,
      "asa": 9334,
      "Ġemer": 9335,
      "ĠBought": 9336,
      "Ġknot": 9337,
      "ĠLat": 9338,
      "ĠDam": 9339,
      "ĠPump": 9340,
      "ĠEtern": 9341,
      "Ġtrad": 9342,
      "ĠKind": 9343,
      "uckle": 9344,
      "Ġslice": 9345,
      "Ġsuns": 9346,
      "Ġheadin": 9347,
      "Ġscript": 9348,
      "Ġpartic": 9349,
      "Ġcounted": 9350,
      "Ġseams": 9351,
      "ĠScared": 9352,
      "ĠAmong": 9353,
      "ĠSteady": 9354,
      "Ġwiser": 9355,
      "Ġcattle": 9356,
      "ĠFranc": 9357,
      "Ġpushin": 9358,
      "ĠWrite": 9359,
      "Ġdesperation": 9360,
      "Ġconnect": 9361,
      "Ġpatiently": 9362,
      "ĠTraveling": 9363,
      "Ġambition": 9364,
      "Ġmourn": 9365,
      "Ġaxe": 9366,
      "bang": 9367,
      "fa": 9368,
      "may": 9369,
      "pro": 9370,
      "Ġteen": 9371,
      "Ġbun": 9372,
      "ĠBrain": 9373,
      "Ġsty": 9374,
      "Ġ(?)": 9375,
      "ĠFaces": 9376,
      "ĠRap": 9377,
      "oker": 9378,
      "Ġwhoever": 9379,
      "ela": 9380,
      "Ġramble": 9381,
      "Ġstoppin": 9382,
      "Ġcrap": 9383,
      "Ġcris": 9384,
      "Ġbroom": 9385,
      "ĠSpain": 9386,
      "Ġappeared": 9387,
      "step": 9388,
      "Ġfourth": 9389,
      "Ġimpro": 9390,
      "Ġfeature": 9391,
      "Ġendlessly": 9392,
      "Ġstreams": 9393,
      "ĠFloating": 9394,
      "osphere": 9395,
      "world": 9396,
      "Ġvillage": 9397,
      "Ġnurse": 9398,
      "Ġanticip": 9399,
      "car": 9400,
      "try": 9401,
      "uction": 9402,
      "Ġou": 9403,
      "Ġtab": 9404,
      "Ġbul": 9405,
      "hall": 9406,
      "around": 9407,
      "ĠAust": 9408,
[...]
